[MASK]
[PAD]
[EOS]
[UNK]
[CLS]
[SEP]
[unused0]
[unused1]
[unused2]
[unused3]
[unused4]
[unused5]
[unused6]
[unused7]
[unused8]
[unused9]
[unused10]
[unused11]
[unused12]
[unused13]
[unused14]
[unused15]
[unused16]
[unused17]
[unused18]
[unused19]
[unused20]
[unused21]
[unused22]
[unused23]
[unused24]
[unused25]
[unused26]
[unused27]
[unused28]
[unused29]
[unused30]
[unused31]
[unused32]
[unused33]
[unused34]
[unused35]
[unused36]
[unused37]
[unused38]
[unused39]
[unused40]
[unused41]
[unused42]
[unused43]
[unused44]
[unused45]
[unused46]
[unused47]
[unused48]
[unused49]
[unused50]
[unused51]
[unused52]
[unused53]
[unused54]
[unused55]
[unused56]
[unused57]
[unused58]
[unused59]
[unused60]
[unused61]
[unused62]
[unused63]
[unused64]
[unused65]
[unused66]
[unused67]
[unused68]
[unused69]
[unused70]
[unused71]
[unused72]
[unused73]
[unused74]
[unused75]
[unused76]
[unused77]
[unused78]
[unused79]
[unused80]
[unused81]
[unused82]
[unused83]
[unused84]
[unused85]
[unused86]
[unused87]
[unused88]
[unused89]
[unused90]
[unused91]
[unused92]
[unused93]
[unused94]
[unused95]
[unused96]
[unused97]
[unused98]
[unused99]
[unused100]
[unused101]
[unused102]
[unused103]
[unused104]
[unused105]
[unused106]
[unused107]
[unused108]
[unused109]
[unused110]
[unused111]
[unused112]
[unused113]
[unused114]
[unused115]
[unused116]
[unused117]
[unused118]
[unused119]
[unused120]
[unused121]
[unused122]
[unused123]
[unused124]
[unused125]
[unused126]
[unused127]
[unused128]
[unused129]
[unused130]
[unused131]
[unused132]
[unused133]
[unused134]
[unused135]
[unused136]
[unused137]
[unused138]
[unused139]
[unused140]
[unused141]
[unused142]
[unused143]
[unused144]
[unused145]
[unused146]
[unused147]
[unused148]
[unused149]
[unused150]
[unused151]
[unused152]
[unused153]
[unused154]
[unused155]
[unused156]
[unused157]
[unused158]
[unused159]
[unused160]
[unused161]
[unused162]
[unused163]
[unused164]
[unused165]
[unused166]
[unused167]
[unused168]
[unused169]
[unused170]
[unused171]
[unused172]
[unused173]
[unused174]
[unused175]
[unused176]
[unused177]
[unused178]
[unused179]
[unused180]
[unused181]
[unused182]
[unused183]
[unused184]
[unused185]
[unused186]
[unused187]
[unused188]
[unused189]
[unused190]
[unused191]
[unused192]
[unused193]
[unused194]
[unused195]
[unused196]
[unused197]
[unused198]
[unused199]
[unused200]
[unused201]
[unused202]
[unused203]
[unused204]
[unused205]
[unused206]
[unused207]
[unused208]
[unused209]
[unused210]
[unused211]
[unused212]
[unused213]
[unused214]
[unused215]
[unused216]
[unused217]
[unused218]
[unused219]
[unused220]
[unused221]
[unused222]
[unused223]
[unused224]
[unused225]
[unused226]
[unused227]
[unused228]
[unused229]
[unused230]
[unused231]
[unused232]
[unused233]
[unused234]
[unused235]
[unused236]
[unused237]
[unused238]
[unused239]
[unused240]
[unused241]
[unused242]
[unused243]
[unused244]
[unused245]
[unused246]
[unused247]
[unused248]
[unused249]
[unused250]
[unused251]
[unused252]
[unused253]
[unused254]
[unused255]
[unused256]
[unused257]
[unused258]
[unused259]
[unused260]
[unused261]
[unused262]
[unused263]
[unused264]
[unused265]
[unused266]
[unused267]
[unused268]
[unused269]
[unused270]
[unused271]
[unused272]
[unused273]
[unused274]
[unused275]
[unused276]
[unused277]
[unused278]
[unused279]
[unused280]
[unused281]
[unused282]
[unused283]
[unused284]
[unused285]
[unused286]
[unused287]
[unused288]
[unused289]
[unused290]
[unused291]
[unused292]
[unused293]
[unused294]
[unused295]
[unused296]
[unused297]
[unused298]
[unused299]
[unused300]
[unused301]
[unused302]
[unused303]
[unused304]
[unused305]
[unused306]
[unused307]
[unused308]
[unused309]
[unused310]
[unused311]
[unused312]
[unused313]
[unused314]
[unused315]
[unused316]
[unused317]
[unused318]
[unused319]
[unused320]
[unused321]
[unused322]
[unused323]
[unused324]
[unused325]
[unused326]
[unused327]
[unused328]
[unused329]
[unused330]
[unused331]
[unused332]
[unused333]
[unused334]
[unused335]
[unused336]
[unused337]
[unused338]
[unused339]
[unused340]
[unused341]
[unused342]
[unused343]
[unused344]
[unused345]
[unused346]
[unused347]
[unused348]
[unused349]
[unused350]
[unused351]
[unused352]
[unused353]
[unused354]
[unused355]
[unused356]
[unused357]
[unused358]
[unused359]
[unused360]
[unused361]
[unused362]
[unused363]
[unused364]
[unused365]
[unused366]
[unused367]
[unused368]
[unused369]
[unused370]
[unused371]
[unused372]
[unused373]
[unused374]
[unused375]
[unused376]
[unused377]
[unused378]
[unused379]
[unused380]
[unused381]
[unused382]
[unused383]
[unused384]
[unused385]
[unused386]
[unused387]
[unused388]
[unused389]
[unused390]
[unused391]
[unused392]
[unused393]
[unused394]
[unused395]
[unused396]
[unused397]
[unused398]
[unused399]
[unused400]
[unused401]
[unused402]
[unused403]
[unused404]
[unused405]
[unused406]
[unused407]
[unused408]
[unused409]
[unused410]
[unused411]
[unused412]
[unused413]
[unused414]
[unused415]
[unused416]
[unused417]
[unused418]
[unused419]
[unused420]
[unused421]
[unused422]
[unused423]
[unused424]
[unused425]
[unused426]
[unused427]
[unused428]
[unused429]
[unused430]
[unused431]
[unused432]
[unused433]
[unused434]
[unused435]
[unused436]
[unused437]
[unused438]
[unused439]
[unused440]
[unused441]
[unused442]
[unused443]
[unused444]
[unused445]
[unused446]
[unused447]
[unused448]
[unused449]
[unused450]
[unused451]
[unused452]
[unused453]
[unused454]
[unused455]
[unused456]
[unused457]
[unused458]
[unused459]
[unused460]
[unused461]
[unused462]
[unused463]
[unused464]
[unused465]
[unused466]
[unused467]
[unused468]
[unused469]
[unused470]
[unused471]
[unused472]
[unused473]
[unused474]
[unused475]
[unused476]
[unused477]
[unused478]
[unused479]
[unused480]
[unused481]
[unused482]
[unused483]
[unused484]
[unused485]
[unused486]
[unused487]
[unused488]
[unused489]
[unused490]
[unused491]
[unused492]
[unused493]
[unused494]
[unused495]
[unused496]
[unused497]
[unused498]
[unused499]
[unused500]
[unused501]
[unused502]
[unused503]
[unused504]
[unused505]
[unused506]
[unused507]
[unused508]
[unused509]
[unused510]
[unused511]
[unused512]
[unused513]
[unused514]
[unused515]
[unused516]
[unused517]
[unused518]
[unused519]
[unused520]
[unused521]
[unused522]
[unused523]
[unused524]
[unused525]
[unused526]
[unused527]
[unused528]
[unused529]
[unused530]
[unused531]
[unused532]
[unused533]
[unused534]
[unused535]
[unused536]
[unused537]
[unused538]
[unused539]
[unused540]
[unused541]
[unused542]
[unused543]
[unused544]
[unused545]
[unused546]
[unused547]
[unused548]
[unused549]
[unused550]
[unused551]
[unused552]
[unused553]
[unused554]
[unused555]
[unused556]
[unused557]
[unused558]
[unused559]
[unused560]
[unused561]
[unused562]
[unused563]
[unused564]
[unused565]
[unused566]
[unused567]
[unused568]
[unused569]
[unused570]
[unused571]
[unused572]
[unused573]
[unused574]
[unused575]
[unused576]
[unused577]
[unused578]
[unused579]
[unused580]
[unused581]
[unused582]
[unused583]
[unused584]
[unused585]
[unused586]
[unused587]
[unused588]
[unused589]
[unused590]
[unused591]
[unused592]
[unused593]
[unused594]
[unused595]
[unused596]
[unused597]
[unused598]
[unused599]
[unused600]
[unused601]
[unused602]
[unused603]
[unused604]
[unused605]
[unused606]
[unused607]
[unused608]
[unused609]
[unused610]
[unused611]
[unused612]
[unused613]
[unused614]
[unused615]
[unused616]
[unused617]
[unused618]
[unused619]
[unused620]
[unused621]
[unused622]
[unused623]
[unused624]
[unused625]
[unused626]
[unused627]
[unused628]
[unused629]
[unused630]
[unused631]
[unused632]
[unused633]
[unused634]
[unused635]
[unused636]
[unused637]
[unused638]
[unused639]
[unused640]
[unused641]
[unused642]
[unused643]
[unused644]
[unused645]
[unused646]
[unused647]
[unused648]
[unused649]
[unused650]
[unused651]
[unused652]
[unused653]
[unused654]
[unused655]
[unused656]
[unused657]
[unused658]
[unused659]
[unused660]
[unused661]
[unused662]
[unused663]
[unused664]
[unused665]
[unused666]
[unused667]
[unused668]
[unused669]
[unused670]
[unused671]
[unused672]
[unused673]
[unused674]
[unused675]
[unused676]
[unused677]
[unused678]
[unused679]
[unused680]
[unused681]
[unused682]
[unused683]
[unused684]
[unused685]
[unused686]
[unused687]
[unused688]
[unused689]
[unused690]
[unused691]
[unused692]
[unused693]
[unused694]
[unused695]
[unused696]
[unused697]
[unused698]
[unused699]
[unused700]
[unused701]
[unused702]
[unused703]
[unused704]
[unused705]
[unused706]
[unused707]
[unused708]
[unused709]
[unused710]
[unused711]
[unused712]
[unused713]
[unused714]
[unused715]
[unused716]
[unused717]
[unused718]
[unused719]
[unused720]
[unused721]
[unused722]
[unused723]
[unused724]
[unused725]
[unused726]
[unused727]
[unused728]
[unused729]
[unused730]
[unused731]
[unused732]
[unused733]
[unused734]
[unused735]
[unused736]
[unused737]
[unused738]
[unused739]
[unused740]
[unused741]
[unused742]
[unused743]
[unused744]
[unused745]
[unused746]
[unused747]
[unused748]
[unused749]
[unused750]
[unused751]
[unused752]
[unused753]
[unused754]
[unused755]
[unused756]
[unused757]
[unused758]
[unused759]
[unused760]
[unused761]
[unused762]
[unused763]
[unused764]
[unused765]
[unused766]
[unused767]
[unused768]
[unused769]
[unused770]
[unused771]
[unused772]
[unused773]
[unused774]
[unused775]
[unused776]
[unused777]
[unused778]
[unused779]
[unused780]
[unused781]
[unused782]
[unused783]
[unused784]
[unused785]
[unused786]
[unused787]
[unused788]
[unused789]
[unused790]
[unused791]
[unused792]
[unused793]
[unused794]
[unused795]
[unused796]
[unused797]
[unused798]
[unused799]
[unused800]
[unused801]
[unused802]
[unused803]
[unused804]
[unused805]
[unused806]
[unused807]
[unused808]
[unused809]
[unused810]
[unused811]
[unused812]
[unused813]
[unused814]
[unused815]
[unused816]
[unused817]
[unused818]
[unused819]
[unused820]
[unused821]
[unused822]
[unused823]
[unused824]
[unused825]
[unused826]
[unused827]
[unused828]
[unused829]
[unused830]
[unused831]
[unused832]
[unused833]
[unused834]
[unused835]
[unused836]
[unused837]
[unused838]
[unused839]
[unused840]
[unused841]
[unused842]
[unused843]
[unused844]
[unused845]
[unused846]
[unused847]
[unused848]
[unused849]
[unused850]
[unused851]
[unused852]
[unused853]
[unused854]
[unused855]
[unused856]
[unused857]
[unused858]
[unused859]
[unused860]
[unused861]
[unused862]
[unused863]
[unused864]
[unused865]
[unused866]
[unused867]
[unused868]
[unused869]
[unused870]
[unused871]
[unused872]
[unused873]
[unused874]
[unused875]
[unused876]
[unused877]
[unused878]
[unused879]
[unused880]
[unused881]
[unused882]
[unused883]
[unused884]
[unused885]
[unused886]
[unused887]
[unused888]
[unused889]
[unused890]
[unused891]
[unused892]
[unused893]
[unused894]
[unused895]
[unused896]
[unused897]
[unused898]
[unused899]
[unused900]
[unused901]
[unused902]
[unused903]
[unused904]
[unused905]
[unused906]
[unused907]
[unused908]
[unused909]
[unused910]
[unused911]
[unused912]
[unused913]
[unused914]
[unused915]
[unused916]
[unused917]
[unused918]
[unused919]
[unused920]
[unused921]
[unused922]
[unused923]
[unused924]
[unused925]
[unused926]
[unused927]
[unused928]
[unused929]
[unused930]
[unused931]
[unused932]
[unused933]
[unused934]
[unused935]
[unused936]
[unused937]
[unused938]
[unused939]
[unused940]
[unused941]
[unused942]
[unused943]
[unused944]
[unused945]
[unused946]
[unused947]
[unused948]
[unused949]
[unused950]
[unused951]
[unused952]
[unused953]
[unused954]
[unused955]
[unused956]
[unused957]
[unused958]
[unused959]
[unused960]
[unused961]
[unused962]
[unused963]
[unused964]
[unused965]
[unused966]
[unused967]
[unused968]
[unused969]
[unused970]
##7
7
##w
ñ
##k
k
##Z
Z
##X
X
##W
##Ñ
Ñ
##K
K
##J
J
##Ú
Ú
##Ó
Ó
##Í
Í
##É
É
##Á
Á
w
W
##de
e
de
.
l
##os
p
a
##en
##er
c
,
##ar
##es
s
##as
##on
##ci
##or
##ue
##an
m
##ad
##st
la
t
##re
q
##un
##al
en
##in
que
##ent
el
##ón
y
n
E
h
##di
##do
##ra
un
##ro
con
##ti
##om
##aci
##am
v
S
es
C
f
est
se
##ic
?
los
##te
¿
P
##ab
A
##to
del
re
o
in
##ri
##le
L
su
par
##ado
##res
N
no
##ui
##ación
##ec
##lo
las
D
al
b
##da
1
##ta
por
M
com
##ente
di
##ol
##is
##ía
##em
T
##cu
g
una
##dad
para
pro
si
##ones
lo
2
d
"
##ien
##ción
##ero
##la
##li
##go
##ch
No
##tu
!
##vi
me
##ter
ha
cu
##bi
##ás
)
B
##im
##ada
¡
##tr
##ué
##ento
##si
##ari
##bre
Est
(
H
-
##se
##ran
R
mi
##ce
##mi
##ando
mu
##tos
##ales
##cia
so
El
des
Q
##ist
to
G
##ados
##ca
per
V
##pe
##tiv
ex
Y
##án
Es
##orm
##jo
##co
:
I
##gu
como
U
##mo
En
##era
##ues
##00
##ir
##dos
##tor
##po
F
ac
##den
La
##ici
ser
##ica
##it
##el
##des
##tes
O
##ión
po
##tra
##ali
tra
##us
##ba
##amos
res
más
an
j
##lar
##tar
pue
##én
##ten
##que
##du
##por
##per
##io
hab
##aciones
ten
le
##ru
##das
vi
##uer
ar
##tro
##ma
te
ma
19
ap
3
pre
Un
##qui
ti
Con
pa
Com
##cer
##oy
##ora
##ia
##mp
##ul
##me
qui
as
De
##man
##ces
Se
im
está
##ras
##amente
sobre
##pa
##ust
200
##ver
##ico
##ambi
##mente
##ante
Por
##gun
##za
Qué
##uen
##il
##ur
ca
##los
sus
##ga
##min
##onal
pres
ver
##qu
tu
##der
qué
##tre
##ara
##tas
##gui
##vo
##emos
cas
ob
##mos
##gar
##bl
##con
inter
##lam
bien
ve
##ores
##entes
##ún
i
pr
##ble
##adas
##aba
or
tien
##je
##encia
##eces
##fic
comp
Re
inf
##ber
##ie
##ciones
añ
man
##lan
Sí
pri
4
Si
##cias
fue
dis
pas
medi
co
##quí
cre
##ami
##able
##dr
##tros
##ac
5
mis
pero
##dades
##ech
##cho
esta
##endo
##ario
##gan
r
##par
este
##pon
##fer
In
Me
##pi
##ías
##las
##les
##fici
##ven
##iz
fin
Lo
##br
ci
traba
ni
##cción
lle
##ens
##ve
##isión
##ícu
##ambién
é
entre
##gi
Di
##pos
mo
##gra
todo
au
deci
eso
aquí
##ina
Al
son
##tal
##va
pe
pers
hacer
##ís
sab
Los
##ino
##uro
##entos
##mas
form
##cial
##tado
##no
cor
##cl
hay
##esti
##pues
##cion
parti
##ay
##port
##enta
tan
##lic
20
car
sal
##tivo
lu
ah
##zar
6
##idad
neces
ab
inform
nos
##ener
también
Pero
Qui
has
Mi
prim
ter
pos
##ton
muy
##gr
##jer
##ido
##miento
##emp
##ja
##cuer
cos
9
deb
yo
esto
##ona
##cio
dos
##tícu
##dar
##sión
pol
##tiva
sin
##ño
nue
vez
##ana
##ío
li
Te
##ador
cuando
mar
Cu
esc
##pec
##ombre
##ín
##ed
##ólo
todos
emp
am
do
puede
8
##cip
##car
años
0
sol
así
As
Su
##rec
##almente
##fec
tiene
algo
##és
##pres
Le
##cha
##cas
##ren
##duc
##ómo
199
gran
pu
du
ya
ch
mej
hu
##acional
##teri
##na
##tículo
contra
ad
nues
##oci
era
##ían
reg
men
##llo
##antes
tiem
fun
##av
mun
em
##yu
ba
##arios
Buen
u
cam
##gos
Ch
##tica
##zo
##can
país
Par
##tura
hi
##rib
parte
##bier
##icos
##arro
##cos
cons
llam
##ará
##ola
ra
Comisión
##tin
tiempo
##gn
Uni
fu
##iden
may
##sti
Yo
##alidad
##amiento
##ución
ju
conf
##cios
##aliz
##ña
Ar
buen
##cuerdo
##icas
hasta
espe
Ten
han
señ
tran
##ere
ayu
To
##tras
ro
##unto
dere
##gen
él
##rante
Las
##aria
##chos
##racias
201
Euro
##ér
can
consi
An
##uel
incl
##ste
##aron
mejor
ir
##ista
##ano
decir
##cur
##ll
##gún
##úbl
Estados
##eron
##echo
##eneral
podr
bas
trabajo
estu
fuer
ven
Des
##che
segu
ahora
##so
##um
algun
cual
comun
##avor
##jos
##lti
##onas
##uy
##sejo
sé
##adre
##ués
ne
##tivos
don
posi
desde
import
##ema
nada
ese
favor
##acion
lugar
##cep
##jar
mal
vol
##stitu
10
desarro
##tonces
##embre
Pro
##tur
plan
vida
us
están
miem
Mar
prin
Consejo
cap
desp
cab
mismo
##at
Está
##adores
##bros
trans
estable
tom
Ah
aplic
acuerdo
##ili
##et
##cen
estar
polí
her
cer
Vamos
ref
á
##nos
##ños
da
haci
##gas
##rá
equi
día
ust
den
mujer
año
18
##arse
servi
he
artículo
esp
sólo
progra
##iones
##lamento
00
fi
##sta
ú
uno
##ena
Bueno
donde
ella
ej
##yec
##dio
casa
##eros
##tación
##tó
##bar
##cre
otros
llev
rel
antes
deber
estoy
organ
apar
##más
va
puedo
##oso
encon
##ctor
Ya
##ónde
##stru
##ece
##tivi
Sr
##eres
sigui
cada
##fica
##udad
##unca
forma
##uego
durante
estaba
mucho
sido
Eso
esa
San
sí
mayor
hace
12
##ale
CE
##iendo
Dios
hecho
dist
pla
##liz
##ito
reci
tú
##empre
##ene
##dido
So
gust
estado
sist
Europe
porque
##óm
##ge
##bo
Cre
ami
sent
había
pi
rec
##ridad
actu
últi
Para
cambi
##pañ
##tir
proble
sea
verdad
##ment
##ing
##amili
Gracias
##ord
##minist
super
estás
cent
prop
tengo
mon
##idades
##mpli
min
##ame
##cul
efec
present
Cómo
mí
personas
##trar
15
otra
princip
mundo
##tados
inv
obje
##obier
##ración
toda
##dió
##vel
Que
Pue
##he
indi
##lla
tanto
produc
##arias
Po
human
##pen
tar
sub
Ha
##tamente
##tivas
después
##sa
caso
col
##ancia
Ma
Hola
Pa
países
intern
##ismo
##tico
hombre
mom
autor
ciudad
apro
pon
Ca
muer
##gua
##fes
famili
Tien
quer
na
##quier
11
ade
##ig
##erv
uti
Reg
##puesto
mer
miembros
información
otro
exp
desarrollo
proyec
##ár
Bien
##xim
tipo
cal
##úm
##yo
##anci
quiero
##cado
empres
##tad
tres
solo
menos
mes
usted
##éc
asi
##aban
Esta
dest
def
nombre
todas
##omb
##ine
##gue
##tan
poco
tal
pens
##ros
nuevo
encu
debe
Una
Tra
ri
##ud
activi
tener
cuenta
##rupo
Así
cosas
fe
direc
Per
rela
##mon
of
##cri
DE
##gación
situ
señor
Pres
haber
cri
momento
públ
##ida
pes
##ceso
##idente
##gía
##aría
##sos
##untos
##van
pues
##ficación
resul
##dia
trabaj
##gado
econ
hor
##vis
##zón
##mento
##ác
organiz
##bro
segun
##olución
pueden
##obierno
ellos
gra
soy
##cup
##zas
cul
##guien
##ita
##tam
les
##be
pregun
z
Co
siempre
##ferencia
##ea
##pu
norm
cono
##ór
##aré
Estoy
ún
##anos
proce
tem
días
repres
prote
Sab
Ahora
contin
especi
##uso
siento
esper
Oh
##versi
##duci
comple
apo
##ticas
198
##uc
financi
16
dec
encuent
respec
##acionales
##ger
##ala
primer
Este
comer
otras
núm
primera
##lares
cómo
##lor
ado
Car
ofici
13
##fr
fal
##eci
##th
General
all
He
##abili
##dera
nin
hist
##val
##ich
##ición
Esto
contro
##tud
30
##ex
Ro
Señ
san
##vos
##íst
##aran
noche
val
estos
dici
voy
gente
Estado
sistema
peque
##gres
exist
derechos
respon
##dado
fr
##rar
hablar
tienes
Naciones
##lio
##unidad
14
tras
noso
Hay
##ál
Ex
##ne
##chas
op
permi
##lu
quien
##ré
Unidas
Como
din
##cel
##ior
especial
eres
perío
##ité
bus
nivel
##ya
conoci
Cuando
cier
##bili
##len
medidas
##isto
enti
##estión
nosotros
##ús
dar
Cor
##form
Sin
estas
fuera
loc
Am
##and
Fran
dej
##cil
Inter
tienen
dijo
medio
ce
##ES
adop
nunca
##ducción
segui
##puesta
pasa
Tengo
##rad
##demos
Reglamento
##vas
##ye
Entonces
general
##tener
derecho
##termin
##porte
##adie
inte
##ctu
##ables
##oria
##ios
##fo
programa
padre
herman
##gni
##lig
##all
##ier
cont
bo
será
gan
##entras
ahí
ban
vo
elec
administ
##peración
##cular
##tri
vamos
##dor
condi
##blic
manera
##unque
presente
estableci
pal
##ensa
vuel
alguien
recon
ide
##ion
funcion
##tores
##tido
##uir
período
ale
investi
gu
Ser
Sólo
##ice
entonces
leg
##icia
particip
cualquier
ins
Comité
int
orden
seguridad
difer
entr
anti
familia
##torio
##vención
Tu
número
000
persona
creo
pobl
##CI
informe
profes
##eras
##fe
cara
aplicación
determin
sabes
preo
servicios
##izo
escri
imp
mill
importante
##anza
nuestro
##ormi
dentro
recur
realiz
##bles
##men
compe
##ial
económ
##visión
##ombres
##ciales
punto
##dan
embar
termin
mé
dinero
poder
##siones
##atro
##laro
Estás
total
##tención
hijo
podría
##abor
represent
reun
lar
Esp
exper
##ecre
25
niños
puedes
##hi
hacia
solici
##ez
##jas
igu
##fi
tenemos
##ard
política
Sal
Señor
extra
tenía
Artículo
##ves
ses
##ible
##bido
fueron
##respon
ayuda
just
Tú
Mu
interes
Creo
af
actividades
novi
escu
Quién
##tando
bajo
estudi
nuestra
quieres
##íamos
##ticos
seman
##uros
emple
abri
bar
##glo
mor
sector
ante
##ER
Ad
dispos
edi
Ade
##écn
Ba
personal
##vir
##ital
clas
haciendo
cin
##gor
##ándo
proyecto
CO
veces
signi
uni
ayudar
public
##ase
##terior
##ban
vis
necesit
ag
lim
mujeres
euro
##ral
##bri
Unión
correspon
embargo
jun
Li
##vil
Or
Europea
internacional
gener
##ñana
##óg
docu
dicho
DO
##mientos
dice
##rado
##ental
vas
##vía
utiliz
siguiente
posible
mas
unos
millones
respecto
sa
##tario
ases
grupo
relación
Bar
má
Soy
##alizar
##echa
diciembre
for
quiere
##osa
previ
hoy
##iciones
Quiero
gas
##ápi
quién
##uerra
##dida
cele
##uela
##inas
cosa
##irm
##OS
##ques
##ono
hizo
Fue
ejemp
luego
##bas
##abilidad
algunos
continu
Dónde
##oma
##stas
final
##bor
ley
saber
parece
##EN
madre
##ual
##bol
problema
##imi
ho
##istas
dejar
También
##mis
Rec
tendr
##alo
##ización
Presidente
situación
pod
##ública
##iste
control
##dir
garan
dese
inici
##pá
##ciden
21
##mentos
##bajo
##xto
be
equipo
datos
particular
##son
ele
##eo
obs
estamos
mientras
horas
conti
##edad
##ura
##erda
22
Ven
bueno
agua
habl
##ódi
##vin
puer
##zos
##tific
allí
24
##señ
##pti
##segui
##inación
Segu
tarde
dif
##tera
declar
##ama
##ítu
amigo
nego
##tis
##lante
##ria
##ill
liber
##bilidad
natur
##paña
hombres
##fico
espec
misma
impor
Rep
productos
sue
problemas
Todo
gracias
modi
diri
##vers
igual
caus
Pre
Cas
##tante
capaci
respons
##AR
pueb
Direc
mañana
compro
Hab
técn
##dial
nacional
terri
resolución
##encias
razón
procedi
exam
ru
encontrar
minu
base
const
arre
inst
##dose
acer
Man
Pe
humanos
Mira
ori
población
palab
##arán
tus
##cional
##arlo
##ría
Mo
dónde
Nos
condiciones
##lec
dispon
##diente
Dis
eran
Res
##tada
nadie
desa
comunic
Porque
##vés
regi
##guna
Mon
coo
llegar
##imo
aque
alcan
Unidos
volver
institu
esos
##ris
historia
Has
apartado
##logía
##zó
Ni
Bo
habit
##gó
##jes
aún
##orte
##litar
Tienes
buena
##AS
##ha
ampli
aprob
Sabes
social
##dust
##rección
##ror
##icía
viol
##amá
##ám
##pios
2006
lado
Gobierno
##gre
seguro
##bir
tor
incluy
defin
cuan
31
República
pasado
prepar
mediante
haya
##ry
Ella
2005
meses
##til
Intern
prác
23
##erra
Secre
cabe
hora
##pel
Du
##pre
agr
proceso
som
##acio
Muy
través
cir
muchos
siendo
##ecer
distin
empe
podemos
##cal
##und
Na
##ficiente
hici
apoyo
Fe
oport
encontr
##quiera
jo
sabe
prue
##icip
segundo
oper
Cent
mercado
nueva
##íc
Son
##entas
deben
##tamento
##ut
rápi
acab
ren
##zado
##echos
ejemplo
idea
Neces
Eres
ello
##pas
preocup
##arme
2000
enfer
julio
##dencia
##migo
ejec
visto
cumpli
evi
recom
2004
tri
Do
##olu
significa
Además
##mple
cuatro
##cto
inclui
empresa
zona
Ve
asist
junio
##tel
Min
hacerlo
pel
##end
presu
Ale
inde
##sto
consider
##idos
Is
##inar
##versidad
aunque
26
Aquí
según
amor
auto
Comunidad
Ac
##iado
II
Mun
Da
regres
gusta
compañ
sos
cuer
matar
os
recursos
is
##AD
sino
Ley
##ional
mater
logr
uso
expres
##valu
##onto
Nunca
##segu
lí
##ric
afec
ata
##AN
##ñas
##lación
##tamiento
pie
acep
##pro
siguientes
Nue
esf
Ofici
Ne
##rió
fran
sac
##esta
Gu
ambi
encuentra
alguna
valor
paz
demas
lín
##ológ
euros
##exo
bene
##té
##ribun
ur
##cor
##ho
programas
##cimiento
muerte
materi
sen
via
##bern
sex
partes
promo
##bra
último
instru
envi
guerra
protección
ol
##rando
pár
##ítulo
2003
2001
mío
Lu
##CE
Der
esas
##tidad
regist
sur
Tiene
atra
conven
Todos
ocur
fo
CEE
Hu
gen
conmigo
2002
cui
fon
50
Europa
Solo
##alización
europe
espos
Pol
##ern
##ias
Mal
plazo
##erte
pen
28
partir
##ag
dó
quedar
acu
administra
observ
fund
##ducación
comen
cli
largo
##eta
algunas
compar
##ducir
pien
ór
noviembre
encar
enero
Tenemos
invi
contrib
investigación
debería
único
cambio
##tivamente
ejer
##toria
nacionales
policía
constitu
##tió
cerca
gobierno
##id
Parlamento
##dico
##rate
##gro
hemos
soci
##éj
Pri
intent
##dí
29
##clu
Europeo
servicio
##oh
tec
camino
##ell
##emas
indust
##iencia
dije
Cam
##llos
Can
##aya
decisión
común
qu
##fa
ofre
frente
importa
manten
##imiento
empresas
##inos
2008
##ctubre
##bos
marzo
cinco
##tio
constru
##ares
trata
##tá
cierto
jur
legis
##ts
mayo
##entales
##unci
##aste
##amble
##tion
##remos
sería
Voy
conj
##gles
fá
Oye
##eric
consegui
labor
sesiones
tempor
grandes
miembro
vie
centro
##ches
##rán
materia
cooperación
##rea
##cito
anim
conten
##ptiembre
trad
movi
##diendo
Sa
evalu
##trás
cur
Vi
salud
##iene
junto
necesario
Col
municip
fecha
##mbi
dólares
cabeza
octubre
propor
nuestros
relacion
100
##tón
diver
celebr
suce
##zá
ener
consec
utili
modo
##amblea
demasiado
serio
casos
garanti
tomar
##cin
##ormidad
##ág
##ífic
Fin
priv
pueblo
##udi
##efe
gol
demás
mayoría
serie
secre
pueda
contigo
##turas
real
##don
cuar
##llas
producción
##dito
cora
septiembre
##ula
alim
comunit
##edes
##partamento
ries
muchas
marco
mucha
oí
mencion
benefici
enten
##ler
Quieres
casi
van
pelícu
The
sali
pró
puesto
Ho
Ban
algún
además
##bió
conformidad
sentido
##icamente
salir
##tán
ocup
##ima
Ter
atención
vir
poner
Sh
er
##tran
##char
cr
##ire
suficiente
##brero
Puedo
rad
normas
Gran
ningún
Ob
semana
diferentes
##mar
ev
realidad
Ru
##ific
armas
##inado
196
asegu
abril
Asamblea
libre
lista
##AL
Desp
##tom
última
público
pasó
Grupo
##chi
máxim
realmente
##onales
incluso
ninguna
at
conte
quería
pasar
##gia
##cis
blan
amigos
capacidad
hubi
##OR
Tom
llevar
estru
Ay
Minist
acceso
tér
##uido
Deci
2010
minutos
obli
hermano
Desde
supon
objetivo
asoci
##ap
cuestión
##ON
##gl
consul
refi
##cidad
difí
España
##adamente
pan
ámbi
iden
descu
considera
señal
enseñ
cuesti
perman
##dientes
##érica
40
formación
gru
tele
##oc
the
orig
##ribunal
olvi
##IC
Ci
agu
supuesto
gestión
región
tierra
Podr
1999
##var
Claro
disposiciones
##taría
mano
##gada
##alia
lan
conver
varios
faci
##sted
UN
regu
Catal
figu
Ver
compren
##lica
internacionales
próxim
principal
##tadas
Nacional
confi
calidad
##éis
organizaciones
cuanto
Sé
mos
##tencia
go
2009
jue
respe
cuerpo
Usted
efectos
párra
primero
reco
adi
##ile
##cent
tema
vista
seguir
debido
Internacional
Después
##leg
papel
##stan
prob
##rin
cate
origin
estre
hac
españ
##ismos
tuvo
vig
##cepto
propuesta
Era
Har
Ese
todavía
niño
ustedes
Deb
##turo
cabo
realizar
términ
##ID
resultados
hijos
##cando
##ohn
medios
juego
##dero
##adora
##gel
Nueva
##ablemente
##abas
políticas
línea
Directiva
grupos
Ra
reconoci
##mer
jurí
##bic
mús
conce
sigue
##quisi
mues
##oles
fundam
##tec
##ple
##sia
incre
Espera
elem
modific
esfuer
podrá
adecu
siglo
instal
##puestas
##gim
haces
acerca
##gido
mierda
##unta
anexo
apren
Mé
##ísticas
falta
encan
##lie
procedimiento
##ff
##teriores
##her
##com
temp
unas
puerta
##bia
mode
Seguridad
Val
chica
segunda
cl
educación
cru
vac
suf
grande
##tic
consecuen
Secretario
perten
elabor
##eas
deba
pudi
manos
prome
clase
vari
Tal
febrero
trabajadores
proyectos
militar
##ese
asistencia
carac
##ron
sociedad
principio
muerto
##una
Estamos
##dedor
##má
corazón
##UR
noti
##bur
der
##ly
esté
edad
mantener
##erva
##orn
##pción
mani
precios
interés
medida
participación
naci
##posición
claro
trabajar
tel
hija
acción
##gosto
indepen
Tratado
autoridades
difícil
##adres
##monio
superior
##zco
##lado
recu
##gimen
única
opin
##lub
nuevos
##ificación
arri
##égimen
ubic
cargo
futuro
##dic
actividad
fra
##eno
conta
##umi
proporcion
##miso
bri
dispar
guar
##este
objetivos
seis
ingres
Cap
nuevas
objeto
organización
especialmente
fuerte
propie
##IS
bi
##culo
oportunidad
##imos
fácil
##dica
Sra
##enso
Nada
##bres
##just
##omía
Ap
##ormente
ES
esposa
tenido
##via
luz
##ariño
obst
Puede
necesidad
agosto
##illa
Déj
##cido
##aremos
párrafo
papá
refer
espera
visit
habían
##tida
##rera
Durante
mín
alto
##ándose
##estr
##anas
obra
mamá
gri
cuestiones
dio
cuales
##gamos
norte
simple
titu
##dó
aument
hos
dado
##ósi
60
pronto
abs
tecno
correc
reunión
##olver
tuvi
importancia
dirección
##ácter
ojos
and
abier
pág
##gencia
principales
mec
carácter
##entar
##edo
paci
##ny
hon
perio
pequeño
sistemas
categor
tercer
Inform
puntos
Deber
película
presidente
avan
##cipios
vin
desi
éx
conci
ejerci
relativa
Puedes
Plan
profesional
capital
prof
##tric
cré
##zás
Estaba
conocer
##tículos
##uelo
##teriormente
recor
energía
##ty
Siempre
inicia
régimen
actual
##glesia
##ódigo
efecto
fa
posición
sor
perfec
colabor
inme
distrib
##omin
veo
estudio
sangre
##eran
ámbito
cali
caracter
arti
##dón
propia
##bal
##zada
aspec
##udo
ta
##ph
LA
Mundial
##bé
##oro
Vale
crees
paso
Pas
tro
##erio
allá
pin
estruc
Escu
sitio
órgan
len
UE
propio
##eme
Universidad
##gida
juntos
Según
##IN
##ira
##gando
195
194
respuesta
##eren
creación
et
entrar
verda
##amientos
Esa
Organ
##cina
##mania
##arte
operaciones
importantes
edifici
comb
llamado
Convención
sean
anterior
##quer
hablando
depen
32
Lle
Decisión
rápido
creer
Pues
suerte
Sus
##grama
Tribunal
desem
dele
##uan
siquiera
##isis
##xico
##ritu
negoci
##cados
##rio
##frica
explic
##vent
##có
alma
Más
escuela
Au
##tía
##tiendo
apoy
bor
limit
palabra
chico
resto
comunidad
cuad
##ífico
morir
##taria
varias
instituciones
##ecen
##fía
necesito
función
35
##tales
campo
tipos
Econ
bastante
estaban
buscar
joven
##gent
##diós
elim
##jiste
iba
Go
arm
principios
acuer
##taciones
venta
##grá
bal
##bu
recomend
coord
enfr
Her
##taron
gustaría
calle
conseguir
empleo
##ánto
Nues
Aunque
oblig
volun
##entemente
sociales
provin
hubiera
Quer
detal
come
fre
##entación
Entre
ocas
acom
##later
padres
fil
##sas
artículos
##puestos
##dente
##rido
podía
##cionales
transporte
##dición
terror
lucha
fac
hacen
1998
Francia
##jero
gén
##ley
alre
exac
##ienda
##ACI
queda
chicos
##gados
miedo
estudios
##dados
dormi
##ró
palabras
##iso
espacio
conflic
##éf
corre
referencia
comien
oficial
Sol
##ícti
##itán
zonas
##onia
pregunta
enferme
##gir
##álisis
rey
##mor
##día
Th
##pul
mensa
digo
##dores
##deo
pública
esca
local
Im
##ielo
##nas
utilizar
2011
Cal
libro
##rada
Conven
arreglo
##dez
Don
ellas
tam
jefe
texto
pesar
##tero
Oficina
##vió
BCE
bás
separ
prueba
##guen
##glés
##ército
fui
##mes
intro
inver
Pens
##ENT
venir
incor
sabía
PR
VI
Gre
libertad
Dan
##vidu
pobre
Tran
descri
domin
partido
bol
vícti
##ilo
Parece
integr
resultado
##bamos
fuerza
riesgo
especie
##tarse
vivir
dic
fir
##esión
comunicación
vuelta
pl
##gración
Hasta
dé
Han
##trón
##drá
##ística
viene
##osas
aband
necesita
Departamento
Mor
México
firm
música
Ud
Yor
##uña
partici
cole
establecer
##eb
##uda
éxito
individu
últimos
Les
gastos
Ta
##ibles
capa
nuestras
conjunto
interpre
hice
##rue
##leo
agra
evaluación
económica
##ner
##uera
tur
##cam
garantizar
fab
Ge
raz
pensar
amena
circ
##AM
concre
##lí
progres
contar
##osotros
Desarro
cantidad
##tina
recuer
hom
escuch
pagar
antigu
necesidades
Mad
##itos
estad
##od
tratamiento
##taba
##uicio
##acia
Derechos
Barcel
90
##uales
##ucle
acciones
##table
##didas
Ej
pequeña
Comun
Espe
Bas
estuvi
territorio
Social
teléf
Reino
##mán
dro
destac
ambiente
##manos
causa
az
Ben
COM
##cepción
avi
##damente
crí
disf
Ab
municipio
proces
llama
construcción
sec
##gon
il
reform
ejecu
CON
193
documento
clar
viejo
foto
##usión
demo
estrate
méto
tenga
##rados
##óven
Prim
cient
Estas
Pon
##gues
formas
río
Necesito
origen
adu
Cataluña
alter
golpe
exten
cla
##illo
##óvenes
Cons
ejecución
##au
evitar
interior
##poco
viv
peri
inglés
conside
multi
mundial
##uniden
It
Ste
Barcelona
##ír
Cri
Algun
contr
Acuerdo
##log
Esper
Ori
arriba
Institu
alrededor
serán
Be
somos
##lin
América
sir
fís
inten
##tural
Desarrollo
##rito
experiencia
frecu
habitantes
extran
conocido
informes
Qu
mejorar
habla
explo
funciones
elementos
33
mil
impres
desapar
fron
##tente
refiere
demos
alta
posibilidad
##ime
##iente
ambos
abo
##EC
##sis
director
##lia
nave
ment
conserv
práctica
mus
archi
Convenio
relaciones
nom
Conferencia
##ular
Alemania
locales
Fon
haga
fondos
infl
fan
bro
examen
##are
##dap
estadouniden
éste
##tará
semanas
on
##acción
profun
satis
pruebas
industri
bon
45
Toda
cuarto
##gh
veh
superfici
##yó
Mis
ton
##tbol
Buenos
carrera
2012
justo
consigui
##pl
jóvenes
producto
puedan
llamada
ves
estuvo
##ete
EN
simi
##icul
establece
##ído
##torios
Dr
crecimiento
color
##tró
Del
num
señora
pele
##NU
ens
##culos
sola
competencia
coche
decisiones
noches
Adiós
continuación
mecan
##imismo
Nadie
obras
estim
##rael
##ería
##pol
##tien
sosten
título
Santa
##ramos
##cidente
ali
ajust
Char
esfuerzos
central
desarroll
##tantes
##uciones
perder
defini
##tate
obtener
responsabilidad
doctor
entien
##aro
##erro
Servi
destin
36
glo
Em
Sam
EL
peli
Administ
análisis
oc
refle
nucle
01
médico
red
80
tendrá
incorpor
##jado
entidades
abajo
plen
deberá
presupuesto
hosp
##dita
opinión
aproxim
adelante
banda
##crimin
diab
it
Tras
##alidades
##sion
Centro
aire
deman
emi
constr
##eció
##zan
prior
Esc
Uno
##dios
adap
diez
preocu
enci
##IT
##idencia
##by
Programa
moder
específic
Estos
bienes
gui
38
existe
asunto
lími
corri
vehícu
máximo
##qué
Económ
épo
##mul
mejores
toma
fis
IN
##stancias
teléfono
enter
entrada
##bum
imag
##dy
tales
usar
##ose
##jeros
aumento
género
virtud
pasando
legislación
entender
##aridad
##pia
mari
##tificación
viaje
oficina
##orme
crear
relativo
civil
##AT
##aleza
##talla
sentir
Tan
##land
pago
levan
produ
comercio
Bri
34
ál
temporada
obstante
fuerzas
ejercicio
fabric
área
norma
cariño
Aust
Tor
diciendo
admi
##ane
##éase
Dos
Quizá
##para
##osos
##pren
##rac
media
##ierra
quin
agrade
##dra
Hey
Necesit
metros
Pla
habría
##cra
vino
##zando
nota
hermos
atrás
proteger
48
peligr
fiesta
suje
permite
##cambi
##pular
pertin
lleva
entiendo
##tudes
mitad
lengua
empezar
##dentes
precio
##úa
convir
declaración
acompañ
violencia
Hace
Gar
equivo
trá
canción
español
deri
##umen
##ide
##trimonio
solicitud
Cab
compañía
llegó
sesión
Pu
estará
expe
##cera
##ést
periódi
##vamente
cree
##ong
Estu
##pri
financiación
##icha
abandon
recono
relativas
preguntas
##ció
feliz
##tarios
Están
podrán
2013
##mentación
comida
haré
procedimientos
tío
primeros
##zquier
conduc
Fa
loco
Ri
##bernam
hayan
álbum
requisi
presupues
ido
Ber
económico
segura
formul
comba
Ti
##osé
nega
hermana
desempe
documentos
dispuesto
##turales
cuidado
dicha
ano
asign
##emi
esperar
Especial
##idas
##mio
##torial
export
##est
rev
retir
club
08
Geor
jugar
##ey
##poner
administración
lejos
manda
##uerto
jug
natural
entren
revis
##éndo
Hi
Sur
China
##llar
arma
finales
Dec
época
llamar
Sub
Mer
##tino
##tades
técnica
Cuál
##tividad
##ivo
establecido
ay
curso
material
consecuencia
cere
ocu
Sim
industria
vale
##adoras
infer
##estruc
##tén
Dem
colec
hiciste
debemos
##ím
suelo
Buenas
##dal
repar
39
##rón
cumplimiento
##isa
fortal
##reas
##enci
##tidos
##20
testi
##íos
hago
##quen
##asa
etc
valores
##tín
##ligi
##gal
1992
Cada
experim
aco
intercambi
directamente
político
minist
Pen
Alguien
Luego
modelo
disfru
##gaciones
mira
bu
Mil
preci
alcanzar
sust
concent
animales
fom
indic
ó
centros
##toco
har
exi
misión
mem
niveles
discu
honor
##ical
##10
46
500
cel
categoría
fondo
Trabajo
ciudadanos
usu
hogar
equipos
dijiste
##metros
##rales
generales
edificio
55
camp
##tt
Vas
culpa
plante
##ibilidad
##vid
naturaleza
obten
fuego
1995
descubri
pér
Va
##tuvo
Pal
voz
##vista
ayudas
organismos
##ang
tecnología
##uis
##TR
##ov
Bol
##siera
dices
debo
mantenimiento
participar
##rid
Pac
trabajos
lograr
Organización
diferencia
menor
dev
##ate
buscando
##didos
##stos
transform
extre
lic
Podría
término
temas
##pias
vivo
##menes
Ahí
Norte
mismos
##arca
Discul
Ed
contacto
1996
presentar
teniendo
electrón
Bel
sección
##aliza
tampoco
Unido
radio
quieren
quienes
permitir
debate
##dieron
43
##americ
##ósito
##tocolo
##íritu
dolor
##él
malo
movimiento
##éndose
acuerdos
públicas
Italia
bel
##pongo
fl
Bro
##ordin
cambios
aquellos
correspondiente
acus
##gentina
##bert
circun
##dada
compon
efectu
puestos
cumplir
elev
muestra
##baj
carta
##stico
##anzas
solución
##ámara
autoriz
1994
cambiar
##reno
representantes
habitación
economía
diferente
##viles
Parte
fru
acon
vigor
##sist
vali
especiales
María
publicación
versión
izquier
lec
provincia
ingresos
Central
prohi
instrumentos
AC
##amento
cit
presentación
##estro
Ir
##uri
##ond
Som
##ionales
Super
##my
Crees
efica
Os
crédito
monta
##tiene
escrito
ras
Mientras
gobern
##cés
Aún
##omas
superficie
##gran
absolu
bra
lin
nombr
resta
deten
Gra
figura
casti
regiones
##umo
justicia
crisis
presencia
Papá
recuper
pose
##uls
descon
##álo
eh
exclu
hará
##OP
exactamente
##mbre
##terios
Consi
1990
asesina
otor
grave
##nes
mensaje
Mamá
oportun
contrato
pedir
Podemos
##cía
provo
##lección
planes
candida
##grafía
ejército
llen
aver
vent
##dicos
##esús
prácticas
propuestas
reserv
##ort
92
##rir
encuentran
murió
ésta
discrimin
Nic
##col
##ticamente
arte
03
Dic
bebé
infra
baja
##gin
vaya
Mierda
Ali
isla
conden
grado
actualmente
##laz
Mc
tratar
##monios
##ética
##ite
encima
cuya
Miem
##pir
##dro
pelo
Hoy
vues
cabal
##obiernos
##ducido
mol
##titud
##UE
##gió
##lidad
resi
religi
Mat
pensando
Seguro
aspectos
sabemos
##bara
recibir
##adá
Fi
regionales
##bado
some
EUR
estilo
2014
##fé
urban
suminist
Humanos
Algo
mone
asegurar
propiedad
##tiz
Tierra
##ví
comenzó
conclu
vigil
lugares
vesti
máqu
estadounidense
##ífica
##ni
promover
##gica
Tur
pena
humano
mente
adoptar
encontra
genial
Espero
salvo
ham
ín
mara
listo
órganos
simplemente
Recuer
##úpi
##cioso
numeros
Ellos
##ficado
siete
ll
##cesa
esen
reducción
42
verte
##útbol
destru
dan
44
Bus
hagas
##enas
Vaya
tir
contenido
obligaciones
##jeron
déc
##tificado
enfo
enfermedad
agríc
##genes
##yos
enemi
bos
Supongo
vay
##tería
derro
2015
cama
colo
escon
estructura
##arla
satisf
perj
Debe
asuntos
elecciones
Partes
cuyo
oro
##jan
televisión
convo
##II
##versas
##curso
puta
Comis
192
Eh
utilización
##dimiento
despe
oído
trabajando
Déjame
Ministerio
##gente
reducir
error
##iencias
05
hospital
##date
poten
design
perdido
intereses
principalmente
##usticia
conocimiento
##ficul
histór
regional
contexto
##íble
##istema
Instituto
comercial
Mas
Ros
destino
compues
Lin
apre
salv
adqui
##iva
Vic
facilitar
##agen
Gener
##yas
ár
peor
intelig
idio
oscu
refu
##tí
compromiso
Ol
trato
autom
##alizado
página
autoridad
distintos
dismin
arro
##olas
requisitos
carre
audi
sectores
responsable
enfrent
III
##ung
disposición
##untamiento
incluye
tradici
##fin
asust
##ligro
respeto
descan
Pos
##ático
dificul
##pal
mue
marcha
##icultura
defensa
funcionamiento
##amás
emo
establecimiento
##rag
Francis
recha
deja
amo
##itario
04
rep
mínimo
caball
dem
ga
blanco
##OL
financieros
##ft
Haz
esperando
95
##ster
competi
normal
##ditos
divi
llegado
Emp
desc
##teras
impos
vic
motivo
cuentas
depor
Toma
mane
pudo
dise
deberán
moles
##torno
representa
Argentina
supone
podrían
##loque
velo
##din
Antes
ofer
##ham
1993
minuto
disco
detrás
unidad
EE
Quizás
##ciente
##ém
##guar
totalmente
aliment
pacientes
tí
pobreza
iglesia
tranqui
191
##cap
##vech
bru
especies
dormir
impa
Banco
importe
peligro
Bur
Cos
Cuánto
##venciones
manifes
Bru
85
41
promoción
##ille
estación
diversos
fines
##istán
Oficial
##hu
##lad
David
víctimas
colaboración
Hol
Pat
##lici
abor
dejó
ganar
##erto
anual
02
Fondo
##erta
términos
completo
Pensé
##tamen
criterios
Orden
dicen
hotel
noticias
Guerra
comenzar
chicas
habrá
##deración
selec
Madrid
##deres
niña
Derecho
Cá
nie
##lada
inversión
cielo
Cla
características
recomendaciones
marido
Asuntos
duda
venido
##pan
convertir
Rey
ocho
May
vía
políticos
##mun
##ática
imagen
buenas
ataque
actos
leyes
vio
56
prev
aprobación
Israel
##cesión
##ps
acos
##bes
At
País
pier
Polí
itali
sexo
despi
pros
provis
nu
##ecu
##ecido
arreg
##irse
conex
concepto
Vol
instalaciones
##ferencias
##cidental
bom
emer
inmedia
estabas
registro
sosp
Rusia
##pone
93
##iores
sorpren
destr
##zca
francés
comprar
##uida
histor
financiera
##burgo
mercados
oficiales
##pera
##iendas
secu
original
##deral
estrategia
campe
suel
tren
completamente
pueblos
91
campaña
cic
qued
##ecía
##tia
desper
resist
saben
legisla
debes
concl
pensé
##RE
Van
Ga
matrimonio
eta
##itaria
##tamos
judi
plata
añad
AD
##nov
cultura
Dirección
##ieza
privado
hicieron
##jor
##iales
conoce
##ines
##stitución
96
##elos
##apón
##ivos
daño
encontrado
materiales
comprome
hue
##ió
##igh
jurídico
Fre
fase
menudo
preocupes
##sen
##misión
Hemos
preguntar
necesarias
gt
reuniones
llevó
Pr
gal
desarrollar
Bill
div
solamente
espaci
anunci
Perdón
peso
##EL
recordar
aplicar
propios
igualdad
Soci
convi
ropa
Segun
ensay
condición
IV
boca
reclam
Bras
pequeños
##TA
carne
accidente
##sidad
inferior
independiente
Incl
Informe
mala
##ers
##tual
mez
##xi
##éctr
agentes
relacionados
##illi
tengan
##IA
Real
diversas
contrario
##cada
Gen
europea
tenían
Dame
coordinación
Señora
confirm
realización
hal
pun
##uye
diseñ
recurso
Fuer
pequeñas
anteriores
incluidos
gobiernos
familias
bre
debi
Decre
##íti
##onato
estúpi
finalmente
58
distribución
##ístico
participantes
##tora
Anton
Sec
examin
drogas
Código
##monos
tama
##álogo
##gentes
Fo
##bernamentales
deriv
Pan
SE
##tiles
compos
Llam
probablemente
públicos
Nor
Escucha
Alto
Carlos
##000
afuera
pare
mercan
árbol
##cla
incluyendo
preten
París
DEL
estén
Protocolo
influen
negro
resolver
Sch
duro
Decreto
49
carga
ep
ps
deseo
funcionarios
código
cump
ofrece
obliga
54
razones
##aras
án
Todavía
plane
##one
##iles
cubier
mayores
Será
demonios
Declar
aten
cualquiera
negocio
Ph
mesa
Algunos
profesor
Internet
letra
contemp
1991
adopción
Cul
due
operación
libros
##use
traer
esco
previsto
aguas
##rez
Medio
salida
##xic
Pi
Sud
doble
94
sig
##fric
aprovech
consol
profesionales
capaz
reforma
##ológico
juicio
Vete
##mana
secreto
transi
existen
britán
Chile
Den
##hesión
##portar
identific
Norm
lla
secund
hechos
##vidad
departamento
##oría
bes
conv
planta
dul
sobrevi
59
98
indica
mandato
Sobre
2016
unidades
riesgos
tratando
humana
conozco
Af
##rer
quím
entidad
Peter
necesitamos
##UN
apropi
Administración
52
coment
arres
consumi
##tres
negocios
comerci
clientes
Ayuntamiento
detec
##cripción
transmi
izquierda
Coo
tercera
##udades
enm
comerciales
extraordin
##gencias
grab
presentado
derecha
exterior
desempeñ
edu
aquel
Bi
pertinentes
presenta
##lido
tradu
##villos
##ome
mic
repro
elección
decidió
consumo
vemos
técnicas
café
Dar
agente
digas
##uelas
##áticos
##gio
61
partidos
##legio
perro
hacemos
##lización
##ológica
Cuándo
distancia
crea
perspec
defen
Quiere
enga
sueño
65
idi
##ses
reconocimiento
senci
sucede
ul
##AC
##ulas
##bras
##dígen
51
tier
próxima
##eca
##atamente
##cciones
Otros
tes
Hen
pron
88
##SE
##cionar
presión
diseño
iniciativa
##diatamente
##irma
##logías
##quía
Ciudad
discriminación
localidad
representante
##ervi
haría
tab
##cación
Tenía
restau
##ichael
escol
clave
Primera
ocurre
deberían
facili
escala
##amor
abogado
aumentar
alterna
suspen
incluir
##riendo
batalla
##pati
peti
confianza
existencia
##isiones
##denes
conflicto
Debo
sala
famos
##cus
distintas
naturales
quizá
capitán
discul
recuerdo
##ash
constituye
aproximadamente
antiguo
##radu
exclusi
##ben
baño
##rup
fij
terreno
acaba
oír
prevención
..
...
dep
bur
##erop
##ins
06
determinar
periodo
entra
convirtió
adul
ciudades
Actu
Nosotros
tre
Ur
tex
fuente
##estructura
tamaño
Michael
dedic
dig
estudiantes
Lond
62
laboral
Venga
##esa
99
eficaz
##dremos
cuadro
espíritu
Muchas
##igan
pone
Londres
lab
alum
mía
53
comunitario
##bano
estra
##gidos
queremos
pase
Bal
alqui
Trans
acre
quizás
##licidad
Mir
semi
Importe
doc
##seo
consecuencias
##bilidades
Francisco
salvar
ast
métodos
##iza
ofrecer
monet
##lé
Miembros
Brasil
voluntad
##culación
avión
Medi
##versiones
pul
correcto
Iglesia
##capaci
activos
conec
cumple
sede
cár
relacionadas
medicam
##yan
##ance
expertos
reserva
Oc
próximo
190
muertos
##ames
necesitas
##inte
debajo
##tentes
requer
RE
##arle
##ood
Secretaría
verano
prensa
abrir
reglam
Ped
aqui
increíble
diré
véase
Ayu
##edades
##ombra
circunstancias
##ington
recibió
periodi
escuchar
Deja
Padre
denom
Rom
puso
vien
extraño
prést
militares
máxima
Cer
mejora
aceptar
altura
realizado
India
global
terrorismo
idiota
##loj
residen
ocul
Rel
mostrar
innov
autorización
Asimismo
##torias
tiempos
permiso
George
Sil
pudiera
mó
##arma
Pien
ingen
siente
##venida
fútbol
cuál
##bel
##UL
##llate
delegación
procesos
##alizada
##oluciones
escal
##edor
##taste
diablos
menores
arqui
reac
pidió
asesinato
##uidos
##ney
Roma
División
Fu
Asoci
##af
prove
Srta
Form
verdadero
##oe
##iro
ja
duración
seguimiento
atrib
convers
denomin
##yn
1989
comunitaria
##triz
89
##TI
Nin
fundamental
eléctr
pec
##AP
afirm
inmediatamente
resulta
corte
Bob
##tum
publicado
caja
dedi
necesarios
completa
gusto
aé
prisión
acto
Mari
darle
terminar
buenos
actuación
bio
velocidad
enseñanza
Debemos
universi
tráfico
aprobado
embara
##ábi
europeo
##iló
##misos
conflictos
And
##yen
oeste
##ariamente
regul
##tilla
barco
Die
Cono
##han
disposi
pérdida
sexual
verdadera
##ribe
Ministro
excel
Portu
iniciativas
Declaración
fuentes
funciona
Salud
recibido
americ
Capitán
##tive
##cero
complement
llega
marca
necesaria
juris
leer
espero
Mejor
##arnos
Terri
##greso
fle
Partido
adj
maldito
diga
evolución
modificación
llor
hacía
Bos
##zados
##trices
300
visita
Somos
raro
##tent
64
financieras
Ing
integración
##dice
vehículos
##quia
reh
Dime
banco
habili
##yendo
década
Colom
larga
terminado
##úl
art
dia
maravillos
residu
propósito
indígen
pesca
descar
##giados
hubo
Todas
explotación
Ton
pocos
##emente
Cali
##melo
opción
##ficar
##tador
Tar
vuelto
volvió
##trado
##ED
##vieron
financiero
inspec
dios
redes
incluyen
órdenes
sensi
reglamento
##nie
##jera
##fos
63
Cual
cliente
parecer
aplicable
tierras
ben
debía
dura
Paul
##mó
aus
Men
##mia
distrito
suces
video
piel
irme
Ira
cine
sostenible
vive
presentó
##rami
quieras
desas
##emen
administrativo
cif
caden
detener
hambre
Anexo
hermanos
sín
espi
ubicado
líneas
planeta
excepto
siguen
vul
##echas
económicos
ideas
Bre
reglas
encuentro
##IF
tarje
imposible
comunidades
almacen
orgu
intervención
salva
delante
áreas
preocupación
ech
tempran
Bu
educa
liqui
##edores
invol
só
imper
motivos
Alex
impacto
##portes
avis
##venir
cristi
partida
celeb
contiene
administrativa
Vir
placer
intención
##ésimo
Director
Tres
ileg
##vesti
mando
mecanismos
técnico
geo
##vela
conforme
dur
##pó
##talidad
##ficacia
plantas
nervi
obligación
##OM
za
recibi
tomó
cita
##guay
tocar
habi
Repres
##itas
vidas
negociaciones
##titu
parcial
Doctor
##ardo
Países
alcance
fas
asesino
comunes
requi
cen
deberías
diálogo
Fern
perf
Luis
quisiera
Irlan
permanente
##plic
Obs
Acción
memoria
##iga
##ze
conse
Liber
amiga
Núm
conocimientos
Clar
enamor
piensa
Gol
establecen
86
exter
vuelve
capítulo
Ai
ran
##selo
cercan
##onel
##mático
Vene
##cías
##guno
volumen
cultural
refor
científic
esencial
carretera
##iel
opera
oportunidades
##san
##ensación
decirle
estatu
##grantes
##úsque
solicitudes
límite
demanda
##usto
189
elaboración
##usa
pies
graves
##rios
trabajador
infan
mm
##ficientes
##inta
económicas
grie
posibles
dejado
##derá
Sue
Ejecu
edición
Realmente
##itales
Cui
aun
##tional
coin
nucleares
tuve
pub
Resolución
dispu
órgano
Pedro
efectivo
Cara
amplia
160
Irlanda
##del
Tim
familiar
##mado
contam
legal
motor
selección
##cionado
gubernamentales
archivo
alimentos
consiguiente
##enda
actualidad
Sabe
mod
frecuencia
conocida
##tidas
##ficiencia
existentes
Ram
##TAD
##ense
jorn
novia
##TE
##ónica
clasific
env
azul
##anda
popular
cue
garantía
contes
Asia
ambas
Servicio
concesión
##mano
inicial
##ítulos
municipal
##uno
antigua
nombres
##crá
anoche
segundos
revel
Carta
aspecto
esperanza
##orden
##gias
Ray
tendrán
cámara
Prin
Rich
09
cuánto
bloque
déj
##gráfica
veci
##entado
lech
##CA
tareas
terceros
querido
seas
##imientos
Adelante
eficacia
tempera
##MA
creado
Cru
constante
herrami
soldados
Comer
piso
determinados
Club
fundamentales
Chi
##fas
##viendo
For
método
quiera
bancos
##telo
##ril
preparación
sacar
##duce
pilo
Er
escribir
regresar
oferta
##blio
costa
cán
enfoque
vigilancia
Dijo
Incluso
##pto
trib
excep
disponibles
instrumento
mismas
vel
##cura
perteneci
miles
##ámonos
provisional
##tn
##áis
luch
abierto
##rueba
##vio
únicamente
escena
regreso
Estatu
deuda
##gadas
68
asociación
verlo
##let
inicio
##tencias
justific
Ves
dispone
Antonio
##pes
mirar
##omo
pienso
situaciones
##laterra
examinar
huel
prevé
fotos
necesitan
Lar
##andante
##tame
posibilidades
jard
1988
##cracia
##úsqueda
podido
##tat
limp
comport
Pers
asumi
dichos
abierta
##eropuerto
dimen
##pira
vacaciones
Fui
jamás
Gi
##irá
aparece
##NUD
Inglaterra
Asociación
incluido
tienda
##BI
aman
estaría
desea
##dias
Canadá
##TO
equili
Educación
##tidades
europeos
##ude
controlar
claramente
66
equival
quedó
mentir
similar
##íz
agrad
cubri
divertido
##amo
prima
##ONES
incluidas
traslad
lon
##xili
##ilar
##uncia
propias
Dra
intercambio
##ies
silen
##íes
renov
##orro
Blan
respecta
amenaza
##centa
busca
##alizados
##fon
firme
disponible
Az
##eria
##dría
##IDA
involuc
##ini
mad
Dej
energ
beneficios
##gual
Euros
reservas
revisión
hel
aprender
##cí
Io
##ást
##pertura
ocupar
x
##terrán
acabó
usuarios
Debería
##guas
Cin
representación
##izar
Yu
acce
intento
constit
incu
##pado
##lados
precis
Nuestra
Encon
sugi
##gría
Cier
decirte
deberíamos
##ionado
condado
Corte
Investi
prohibi
universidad
Cat
hubier
##ting
rob
presupuestaria
encanta
industrial
Constitución
##cy
tarea
##abo
establecidos
alemán
reda
romp
Santo
Colombia
cans
vincul
Lan
##lon
##icación
tasa
etapa
##vera
facul
Otra
##lev
dando
densidad
rápidamente
olvidar
##tagon
canciones
posterior
Bra
relativos
pales
pis
clases
posteriormente
##ices
estraté
84
Def
infec
##usos
ocasiones
Bla
rom
cárcel
##ablo
labora
##50
##yecto
dipu
armon
##éro
entorno
Democ
haz
primeras
ayud
ayer
pagos
vivi
directa
##tista
##mate
salió
carb
##bul
independencia
flo
escuelas
Vie
Federación
vuelo
##dis
Din
US
comisión
incluida
##culares
factores
nueve
Tienen
##neo
rode
AL
tuyo
Conside
##IB
búsqueda
##tú
##dré
esfuerzo
prestar
impe
empezó
bille
perfecto
Apro
tratado
##ético
repu
judicial
##metro
corto
##CN
emergencia
##EA
##geles
##entan
razon
##ámica
##rame
civiles
combust
frontera
guer
bases
importación
Sui
##etas
Charlie
##dencias
##rador
fen
##tieron
cál
##istos
Mujer
determinadas
fres
Paz
Segunda
Gal
Servicios
Mac
acor
agre
dificultades
documentación
Económico
prac
interesante
cocina
visión
##tección
Cállate
Cuán
masa
##leta
Buena
resoluciones
##tinos
adicional
Campe
expresión
averi
Portugal
Política
dosis
mercancías
límites
##illas
triste
inversiones
pide
definición
firma
directo
##deros
incon
##anía
situado
Contra
adicionales
adver
##rismo
pac
##cipe
##ilómetros
##estas
##jate
##ello
arru
lad
ros
##terio
ciencia
espal
repe
alguno
maldita
Flor
llamó
piensas
construir
transpar
películas
ganó
aconte
Sara
ace
probar
prefer
responder
arreglar
##landia
nuclear
##rique
fiscal
juegos
decre
desaf
licencia
supervisión
Necesitamos
188
tecnologías
Número
##teca
revista
##gidas
influencia
animal
asesor
mató
person
Austr
Genial
normativa
dirigida
##lace
esposo
Información
apoyar
recuerda
hábi
##illiam
tomado
llamo
##tadora
##gán
elegido
Reci
decía
ocasión
directiva
terrible
socio
##amas
implic
Cristo
cá
##abe
víctima
##rupción
Fal
##ota
enf
brin
horri
empleados
excepción
votación
explos
Fun
Ger
##PA
fantas
##itarios
Nuestro
Vin
petición
indígenas
dulce
##eth
ganado
Dí
contac
vosotros
##eld
AN
##gico
consulta
supongo
considerado
negativo
madera
mecanismo
estabilidad
Prob
cerebro
utiliza
##ji
subvenciones
##ean
##ET
##tz
##IL
victoria
cuándo
##presa
NO
crimen
perci
##ortun
Siento
física
requiere
Considerando
acá
##get
##ges
plenamente
Bon
##versal
sup
trabaja
observaciones
exposición
##rey
luchar
flu
dibu
líder
Debes
conciencia
Vuel
Hun
Había
Mos
Fis
##identa
Fund
##forma
1986
##tern
ví
Chri
##diste
traje
categorías
82
longi
Quería
Ric
aport
##manes
muchacho
Tam
Red
falle
estan
excl
casas
Perú
Casi
##primi
produci
Tranqui
##mbo
aquella
##fron
##die
Oli
subsi
hermosa
culp
##selas
comunicaciones
##timi
##rabe
Vien
ater
contribuy
cena
escapar
Disculpe
colon
Apar
##ity
lun
dichas
##brio
Quien
##demia
lanz
##GC
consejo
vender
similares
##ensor
potencial
ferro
PAR
Sién
##coh
retras
Represent
producir
utilizado
##estiv
##19
máquina
program
juz
##ualmente
Casa
hablas
aden
##rump
complic
encontró
asimismo
sustitu
específicas
contratos
cáncer
Emi
Donde
Cuidado
premio
##trib
insu
limpi
oficinas
sale
nar
argu
Congreso
querida
vehículo
porcenta
eno
pobres
continuar
adelan
moneda
actuar
sacri
##grado
##tirá
Tri
Hijo
exportación
th
##zz
##forn
sencillo
inoc
competentes
costes
realizó
reemp
diario
capacitación
##US
Ham
Sha
loca
materias
tecn
##cida
##brica
ordin
1985
##dimos
##úcar
##menta
sientes
impuestos
##IM
83
momentos
figuran
teoría
ascen
corpor
niñas
Mí
perjuicio
##íncipe
##uega
responsables
plano
Alguna
bailar
restric
calor
tropas
comienzo
detalles
##cturas
Australia
parque
podrías
terminó
elegir
imá
Aires
gana
calles
gustan
irre
llevado
tradicional
democrá
enfermedades
dipl
##rarse
caer
exig
flores
##últi
considerar
##zuela
Comunidades
##inada
paciente
##zaje
ocupado
Dist
escen
Sala
circulación
tratados
##túa
##tios
IS
##RA
##berg
periódico
##grad
enorme
prestación
##años
preciso
piedra
iré
adecuada
Bor
##quete
previstas
institución
##bio
##geno
##jal
nav
ais
contribuir
jornada
incen
##mn
mono
ocurrió
##uf
##lesc
visitas
186
das
montón
actuales
##cro
escla
aplicables
seguros
Imp
episo
##uegos
400
odio
##rieron
Ins
##abilidades
investig
amplio
##ficaciones
temporal
Grecia
pareja
dieron
puerto
micro
entiendes
longitud
imágenes
ign
Rela
Domin
1980
leche
##onda
dijeron
Cro
agrícolas
entrega
informa
Obje
gor
##EM
##olucion
##ída
Cuba
puertas
##arás
puesta
escribió
##arición
corresponde
##dería
##IO
Hel
diferencias
Policía
Copa
##todo
##tique
inm
jugador
Municip
Visto
Sar
protagon
maestro
desplaz
dictamen
compañero
##ológicos
##IV
##forme
Californ
canal
ofrec
quedan
Generalidad
clás
apenas
teatro
##imas
je
verde
edificios
##caso
regalo
##verso
tomando
Marco
vulner
enemigo
adecuado
Mag
69
##trol
corriente
##ísimo
competencias
contribución
##uras
productores
considerable
##úch
barrio
81
clima
frío
##itor
Actualmente
abre
##mamente
crimin
tendría
hin
pist
Sigue
anteriormente
culo
regular
caballo
LOS
cuán
mover
cartas
sho
##reo
cuidar
competente
##ug
hem
increment
culturales
Fuera
declaraciones
sá
pista
engañ
Misión
Cariño
española
delito
California
identidad
##tui
democracia
alcoh
##OD
##rie
Sco
cambiado
Navidad
transferencia
Cambi
##toral
##ueso
##cidos
##tías
##ierno
sonido
conoces
##zcan
conclusiones
ciclo
cadena
suma
pedido
estrella
Primero
ampliación
anun
Edi
Mol
##pens
sucedió
##mpa
##stal
Perman
adquisi
Probablemente
meter
Costa
adoptado
##lida
división
Uste
Allí
pude
elemento
tengas
Agr
revi
cm
suici
mexic
formar
privada
zapa
Star
ec
realiza
gradu
##vina
Ustedes
##ENTE
novio
patr
consist
jurídica
activo
##mb
bote
##zación
ago
refugiados
exce
##rí
##hor
encontramos
centrales
nombrado
conferencia
150
muerta
resca
apertura
##aco
catal
territorios
##radas
fol
preparado
reper
voto
útil
boda
ventana
Sant
##teros
intentando
apues
celebrada
##ósitos
daños
notific
mate
bosque
carajo
manifi
Ambi
dra
musical
Rob
##teles
tonto
reciente
##lán
eli
viven
convoca
Guar
tonel
##gros
inmi
robo
servir
Regi
Basta
llegue
eliminar
##UC
Harry
cantidades
formula
recientemente
Indust
##30
##nia
respuestas
Comp
médicos
autén
inci
##tle
fras
procedentes
##ilip
Bruselas
##tones
##ania
consultas
##erno
##gráfic
estés
tribunal
sustit
estrategias
Día
conservación
Escuela
##ábamos
##gué
##ith
##jó
Mué
organismo
perspectiva
comienza
Sen
incom
##ashington
nació
proporcionar
##ancias
Martín
Finalmente
Max
aprendi
previa
Ce
Mary
empren
##dalo
Inf
técnicos
débi
AR
##celer
aprobó
##tismo
Hor
##enten
interesados
##bios
Agencia
DOGC
inmediato
expan
párr
obtuvo
Rev
causas
humanidad
espiritu
muchachos
##int
cumpleaños
Bajos
Federal
podamos
##ted
temperatura
modelos
estadísticas
compromisos
caballeros
Adónde
Rad
titular
entregar
créditos
estúpido
concer
números
residuos
Hist
raza
Martin
##arial
arquitec
Democrá
adoptadas
Daniel
Robert
Pacífico
cargos
impar
interna
Autor
Austria
protes
usando
discapaci
##tiago
##umin
adolesc
tuvieron
Salv
orientación
estrellas
Vo
compuesto
CN
ciertas
Ara
puente
##éramos
interno
magn
mutu
##bierto
viendo
medicamentos
decirme
liter
Mig
azúcar
determinación
compra
Henry
escrib
TV
Consul
##ciles
sospech
ninguno
depende
##ándome
basado
##adém
decidir
Algunas
##ísticos
##cales
plu
##ds
archivos
flor
adhesión
sirve
orgullos
cerve
##piración
##berto
##dación
Santiago
Sistema
correo
explor
ministro
lasti
reales
##12
EC
presentes
##augu
períodos
familiares
Eli
veras
Diario
cierta
Enten
##jada
cola
amable
##ade
héro
##cimientos
votos
Cari
establecidas
mencionado
##sh
Profes
##bación
remo
personaje
aeropuerto
celebración
hacerse
probable
conqui
caliente
Manuel
##incu
Gui
Lor
opciones
clín
Otro
##ieron
VIH
##tarias
basura
Apo
Liga
Hon
reconocer
basada
agricultura
##drán
##tarme
afectados
laboratorio
##ure
rápida
estados
horrible
##ciendo
numerosos
locura
Sy
medal
sustancias
aclar
múlti
modifica
Río
##úd
alcal
vienen
actuaciones
##siva
##uli
entiende
comportamiento
##cé
Corea
francesa
nacimiento
desgra
##icepres
##bral
recuperación
orient
ámbitos
estructuras
artes
##estival
fues
reempla
emplea
##ld
Bienven
eras
adentro
inteligente
##ess
destinados
Pacto
##tab
Deberías
##tización
recomienda
Fer
nuevamente
miras
hagan
haremos
particularmente
excelente
Comercio
##rida
señorita
beber
##40
investigaciones
creen
venga
combate
basta
vieja
ambiental
remi
peligroso
mantiene
extranjero
Anti
modos
personales
##inados
##rores
electrónico
##éli
tiro
rue
estudiar
situada
Muchos
Esos
espectá
seres
Mel
##undido
estuviera
##ICI
apreci
eliminación
destrucción
##lico
femen
podríamos
##ford
Egi
entró
difusión
mg
subvención
broma
##laterales
porcentaje
respal
bomba
Presidencia
pá
Europeas
Contin
prisa
titulado
agradable
Mic
Bul
brome
Miguel
Exac
##óp
doy
básicos
##deras
cuali
##esto
llamas
encontré
##ME
Venezuela
##III
interpretación
##cerdo
conexión
acces
##tano
Richard
estric
respectivamente
##ENTO
##icales
rojo
Gab
Ejército
componentes
procede
generalmente
##gios
gira
rei
LAS
previstos
preocupa
asociados
demues
compartir
Proyecto
Tre
plena
apara
colum
piezas
prepara
orgán
##ement
##ván
busc
##sar
##reras
decidido
avent
Record
produce
instalación
ubicada
contribuciones
Add
##seguida
Stan
autob
mirando
hablado
##feras
##igo
vecinos
Ren
clasificación
##11
flex
poderes
dirigir
gracioso
peda
descen
coches
##caron
##ples
planificación
lleno
juez
últimas
logró
CD
vestido
infantil
agar
suficientemente
##llante
usa
escucha
##entro
atre
Suiza
temo
generación
##tarlo
creó
Lee
##amarca
##ligión
sociedades
identificación
préstamos
##ling
playa
##ína
evento
##bida
consiste
llevan
impuls
##BC
##asas
##uél
##vencia
baile
ordenación
inaugu
conform
ahor
prioridad
encargado
vayas
Gon
Véase
##bí
temprano
supervis
##zadas
académ
##brado
Iraq
bonito
##gular
tarjeta
intentar
##esper
gesti
transmisión
march
##ah
##tte
sorpresa
##ándolo
legales
##tróleo
residencia
progreso
rato
conclusión
che
##strucción
suena
Maldita
progresos
correr
Asi
##dicción
acredi
Bél
páginas
BCN
saberlo
coste
pelea
emisiones
espalda
document
profundi
alquiler
importaciones
campos
prometo
trate
inyec
##cran
composición
##presión
suministro
publicó
##lando
fenóm
utilizando
delitos
##mática
##ulo
éstos
obstá
##américa
beneficio
pensado
residentes
plaza
reca
Bélgica
llave
ciertos
##fre
##fecto
pronunci
Dile
superiores
ama
fabricación
inclu
breve
SIDA
blancos
integ
objetos
Egipto
Técn
##CO
##agésimo
misiones
agrícola
ocupación
Turquía
Dice
##tara
##otas
violación
Cruz
biblio
Ari
resistencia
infierno
Relaciones
##ix
fuiste
record
Regres
convertido
prision
fomentar
##bran
asc
##IR
adultos
##llan
Bene
específicos
tuya
here
##DE
alegro
absoluto
##IDAD
silencio
destruir
mostr
tum
tej
demostrar
##rás
Primer
Gan
mens
indis
acabar
cursos
directrices
##bieron
Polonia
preocupar
##lle
Popular
maes
arras
##dé
ii
##pin
##dador
##vado
clara
reina
VII
individual
transición
gratui
Estudi
definitivamente
expediente
religión
certificado
Mire
llegada
SA
recoger
censo
máquinas
estándar
All
concep
apel
##gento
Docu
seguido
renunci
Mur
##cemos
tribun
Tel
satisfacción
movimientos
Roc
Imper
numerosas
Debido
rit
infraestructura
discip
agres
científicos
fuertes
té
anal
realizados
esfera
asociaciones
tuviera
compañeros
Eslo
ciento
costos
##pil
invent
##ventud
evidencia
comunitarias
tru
ataques
##ispo
diplom
##dicas
có
candidatos
tera
secundaria
idioma
abordar
suyo
Nuevo
extranjeros
##leza
trasero
sacerdo
romper
suger
##tillo
puedas
activa
Aca
hermoso
cuello
portu
descanso
deli
##xem
amist
vigente
Oriente
diría
impresion
##dadas
ventas
cha
vivienda
enviar
artista
aplica
##gna
##enos
brazo
##MI
llu
fomento
millón
alumnos
##traste
cató
reforzar
subra
petróleo
##tamentos
ignor
##posiciones
Charles
##tarte
Cooperación
penal
##cula
producido
coher
Quédate
suficientes
Pueden
eventos
tol
##ernes
reti
##yeron
consideración
toneladas
subir
errores
evaluar
##dones
##gnos
##desa
anuales
Sería
Sta
envió
cuerpos
##02
acord
parecía
1984
##sivo
piloto
cuch
libres
Representante
185
sustan
amp
noticia
ojo
repercu
pregunto
##cien
jugando
##ientes
aceler
##ólogo
efectiva
ador
inscri
ruta
propone
luna
##lín
incremento
Campeonato
imagin
italiano
##uma
vá
monstru
determinado
##uti
perdió
Madre
esperaba
instrucciones
Gas
consumidores
nacido
compati
Democrática
enviado
##ículo
soluciones
##ville
insi
compu
Parti
abra
dará
polic
rendimiento
introducción
opiniones
##isp
##alter
##ológicas
viento
conjun
resuel
cau
##ctores
oposición
confiar
##roga
##porta
##lectu
desn
enmiendas
formular
consiguió
autores
irse
Presu
certific
gua
apartamento
observa
dí
##izado
Modi
Cré
Lí
viernes
motiv
bajar
Hal
viva
##ieren
perdon
parar
simul
viste
seleccion
montaña
campeón
turno
sentencia
empu
estarán
parecen
bolsa
##tesis
sar
##taña
participó
daré
pertenece
reino
modificaciones
##ecimiento
indemn
alf
ayudarte
cantante
banc
##gráfico
pantal
frances
##itarias
artistas
pene
##ordenadas
Má
mundi
constituyen
Mañana
defender
totalidad
##abel
psic
variedad
##teo
##tienen
billetes
EUROP
evidente
interme
llaman
Ia
Económica
realizadas
sueños
##icion
conducir
prece
##01
fortalecer
pensaba
vuelva
##úc
##ilos
patri
Sección
##fera
##PE
hidro
estábamos
Eurosistema
cerveza
##DO
actor
##andia
2018
##cita
log
roc
contratación
##uena
sujeto
etique
abuelo
##ju
##garse
##mica
##idi
abuela
restos
##pp
normalmente
Aplic
Pablo
reduci
##viamente
irnos
##tions
##cidentes
sat
disfrutar
Ecu
monedas
poblaciones
##tral
divis
fer
garantías
##perador
historias
convocatoria
Regist
##ee
desemp
auxili
gar
##lament
torno
##ruguay
##ezca
cubrir
Suecia
recibe
##cher
asal
##quina
Hos
desastre
##orías
##zamos
escenario
enfermo
convierte
##uidas
##tativo
##jón
juro
sober
presentada
Rápi
preparar
##ándole
##mestre
Dinamarca
Vámonos
##gie
##toriales
margen
Escuch
echar
ingles
##giendo
##jando
simp
apa
promes
prevenir
Americ
##ys
Segui
recuperar
Cualquier
##élulas
aust
extensión
##mm
explica
##úchame
Tony
abur
utilizados
Gir
torneo
##mí
conferencias
Habla
Pueb
vengan
ejercer
##stein
Interna
Capítulo
##quilla
rural
ofen
hones
cami
Simple
Puerto
decreto
islas
cooper
coordenadas
comparación
Premio
ciru
##ller
discurso
Trabaj
autón
tardar
posee
destinadas
vías
##recto
Administra
explicar
##immy
##ñado
controles
1982
adaptación
##úr
##brar
notificación
cocin
600
retrib
equivocado
econom
Penal
arran
experiencias
factor
##eos
Gri
##ish
Tro
violaciones
Salvador
monetaria
pocas
Luc
suya
##gante
pape
##atem
podían
Monte
realizada
##ore
fronteras
Ana
impi
Arm
##tus
humi
habido
##cidencia
##tadores
concentración
ensayo
aves
##art
apun
celebrar
ces
1983
jugadores
equip
prioridades
Luxem
Bern
terroristas
llamadas
##asión
##viste
tradición
##talo
##mios
##taban
correcta
Exteriores
permiten
tradicionales
sufri
típ
pared
Otras
sentimientos
células
##zi
##sieron
acabado
aquellas
sanciones
##depen
ge
##ctur
israel
dom
atrac
ape
##clam
##mula
relev
Podrías
##100
pasos
aprueba
lóg
mediados
Entiendo
lanzamiento
tenías
Ast
ausencia
##ides
coger
Museo
finalidad
belleza
UNI
insul
ruido
legislativo
##carse
Creí
empieza
personajes
##apones
desconoci
solicitar
recomendación
acontecimientos
Empres
##inea
particulares
##TER
Irán
impul
árboles
estatal
signific
Sabía
jardín
divor
convenio
encer
##cili
##su
##gosla
PRES
##99
##éticos
##pulación
##gust
amari
jurisdicción
grá
combatir
cho
captur
comité
##enes
semin
##tese
siguiendo
lectura
prefi
impu
##ICA
##ernas
apareció
perra
Pes
Estatuto
Públ
rehabili
brazos
Presidenta
##timos
siga
Permanente
##pié
sitios
##LE
Estad
llena
doce
hipo
afirma
hubiese
textos
ilí
##endario
nación
Cumbre
Afgan
metro
lago
absor
encen
##cab
##ight
##rones
##terías
esferas
Islas
##eles
##bertura
Ejecutivo
##dea
bosques
pleno
viviendas
Observ
encam
Lam
Carol
##icción
##dri
lamento
pistola
gobernador
combustible
histórico
polvo
guitar
##máticas
acumul
##villa
oriental
intelectu
##lateral
metal
##inando
modificado
##ant
##icaciones
##enio
##garon
##letas
mínima
devolver
fuese
##DA
celebra
##ot
##uta
utilizan
convertirse
##ació
brillante
promedio
##tillas
interesado
expresa
Nat
núc
##uto
pic
fácilmente
maríti
antiguos
##avi
##adura
herramientas
altos
Mayor
Caribe
mili
ritmo
arries
##cara
##rente
novela
cenar
##game
sepa
amar
maravilloso
Dale
fábrica
##60
listos
Tec
Facul
electri
copia
inició
descubrir
##onos
##25
Manten
internos
permanecer
castillo
estuve
equivalente
escritor
pintura
vín
Ases
verific
específica
medicina
decirlo
alegra
actitud
forman
hall
occidental
Investigación
##erba
detención
harás
borra
reconoce
##lidos
territorial
asiento
odi
cifras
elaborar
##idación
Termin
transformación
##onóm
Tele
afric
señala
comis
##uelos
buques
1981
específico
Br
restaurante
persi
igualmente
equilibrio
dime
Cree
Fernando
anunció
adoptó
peces
Afganistán
##arlos
184
Dich
##inebra
tr
OM
vistas
alcohol
lunes
tasas
acceder
##aso
Ayuda
colores
presiden
Cámara
europeas
presentan
Reun
Provin
Sociedad
impedir
##deos
##cismo
aprendizaje
##jestad
Mus
Gro
Ener
unión
comunitarios
colectivo
estaré
Censo
Simplemente
##izada
concreto
##anto
Miren
consideran
cie
indicadores
glob
Villa
183
decide
Len
posiciones
lados
llegaron
publicidad
Exp
techo
##VI
tribunales
solu
var
Rápido
lenguas
Proce
bordo
rid
##uirá
salario
Equi
registros
lindo
Sierra
##sistencia
##dujo
vea
ruso
##bana
perros
rin
QUE
reformas
agradecer
Mich
Universi
prevista
profundo
famoso
querías
##21
dientes
apos
pérdidas
Feli
exces
##tomas
costo
##ponen
Maldición
comprender
corta
enemigos
##lez
bomb
Fundación
Urban
espacios
soft
Verdad
desay
##chel
Entidad
títulos
##tables
combinación
Dije
múltiples
León
científico
dispositivo
renta
Leon
sobr
industriales
crítica
dirigido
##ai
destinado
##ume
##adáver
Ele
##restre
lig
reacción
torm
informar
recientes
##BA
robar
logrado
siglos
My
##iento
##adro
##taré
declaró
individuales
##ux
médica
bara
poli
definitiva
compañías
##enza
señalar
##jalá
Fab
Ambiente
manejar
perteneciente
##eto
invierno
cerrar
superar
anillo
aer
regla
interrump
cria
AS
mapa
##udas
regal
##ivas
##ló
federal
luces
deje
800
##ánico
delincu
mul
reún
oficialmente
Protección
atender
secretaría
armados
transfer
Sir
letras
culpable
cayó
##uerzo
hicimos
quedado
ani
CP
innovación
Ll
Digo
decír
hielo
##iría
Mit
hí
ajuste
razas
continúa
##up
colegio
##lizar
Chica
hola
matado
cadáver
Inte
García
ira
Fan
llevo
congel
Esas
dejes
Ty
Latina
tendrás
recién
hojas
##eza
imple
IF
##ise
trabajan
##rero
beb
nacion
AG
##gle
Thomas
creciente
##izon
Sos
cubierta
##rimi
intensi
meta
##cén
##yes
recomen
Territorial
productor
Unidad
Congo
pasada
prov
primaria
estableció
comprendido
interesadas
descripción
rurales
radi
triun
eficiencia
##fu
espada
Matt
##13
diablo
revolución
episodio
notas
raíz
asent
Noruega
audiencia
funcionar
basa
Luxemburgo
FBI
chi
Roy
##dona
pertinente
##IP
Cierto
##americanos
apartados
Nav
usuario
##mith
##RO
##ciado
recep
torre
Far
Tuve
asesoramiento
Uh
Posteriormente
fantá
##eral
adquisición
emisión
derivados
Corre
zapatos
inteligencia
huevos
conversación
Ginebra
##rantes
##quin
AP
tendencia
tendremos
comentarios
mensajes
aplicaciones
cerrado
um
testigo
##trocin
ventaja
hayas
Financi
Ado
Ima
indicar
conseguido
malos
glor
Ag
corresponden
Oper
prohibición
rico
##tori
templo
depar
Llé
reloj
comandante
ine
##rabes
ilust
Sem
##orado
ger
120
180
aran
satisfa
##graf
firmado
exclusivamente
previo
transparencia
delegaciones
Personal
muestras
ecus
entrevista
héroe
lanzado
Guatem
interesa
##inadas
ilegal
blanca
Espere
Yugosla
termina
tercero
##field
piernas
veget
farma
copa
cuyos
Tex
lanzar
darte
Dentro
verme
Hombre
alemanes
guardia
Igual
darme
contaminación
##áles
paga
calendario
espectáculo
compr
usado
suele
adjudi
arbi
propuesto
cañ
compens
formado
##smo
potencia
Cinco
Recuerdas
vistazo
##vimos
##14
esti
##ámaras
señaló
##mpor
Excel
vivos
inspir
Acabo
Boli
desarrollado
##ritos
deliber
Entendido
entero
éstas
##pé
enmienda
siguió
##cir
##ALES
##icipios
modalidades
anci
acostum
extremo
verla
aduan
Pra
hacerle
fich
llevaron
##rum
minas
vete
capaces
pieza
fueran
Tus
Vall
Lis
Edu
prolon
soldado
integrado
formato
lenguaje
250
hogares
socios
Feliz
##ladas
##ENCI
policías
produjo
conducta
ganas
felici
cuestion
Lim
modificar
balance
llegando
habr
querer
Siéntate
denunci
idiomas
pensamiento
##sito
##ología
Guatemala
##áticas
infancia
inqui
humor
##óstico
diversidad
Supre
quedará
universo
quedarse
solid
Public
hable
veter
representan
auton
mezcla
Fecha
retro
comprobar
HA
Partida
periodista
##citos
guía
vuestro
##uyó
ensayos
Uds
fores
Recom
síntomas
##anta
habitual
Iré
##bécil
##gate
Sp
Pin
rebel
impuesto
Produc
Cál
complejo
viajes
On
extin
##ficio
japones
##sey
bis
oscuro
Españ
vuestra
Depen
##gaste
virus
líderes
viejos
celebró
listas
You
##icepresidente
She
##ensores
precisamente
irá
continua
Uruguay
##udar
colección
intenta
caída
volar
Cur
##ila
##ciosa
##ADO
Año
hablamos
escul
ON
trabajado
herido
##licos
##amentos
contó
Texto
##ándote
llevará
##bernamental
testigos
bonita
déjame
quinto
periódicos
##cadas
##80
practi
hacerte
##tarán
concier
##ans
ingeni
étn
##23
alcalde
cír
##donos
privadas
caballos
Sarah
moral
##lina
##stancia
tantos
##LA
##ridos
Occidental
nombra
acero
##pez
discre
Dijiste
demostrado
##gs
##guir
bienestar
telef
##eri
estadounidenses
Hecho
##renos
ronda
concurso
##ns
reunir
informó
Mucho
privi
encargar
paisa
desta
actriz
Comisario
alimentación
reflex
pasajeros
Pier
cierre
celebrado
polici
desarme
atrapar
you
##drás
Volver
homo
supi
Cha
usos
quise
##15
##icio
tanta
continú
Propuesta
Mill
Cultura
próximos
Adam
##ecución
estructurales
Felici
PNUD
Finlandia
concur
haberlo
##americana
ocurrido
##vido
injust
Milenio
SU
##sie
tranquilo
##hibi
prestaciones
pido
Academia
Relator
molesta
Cuatro
disminución
preocupado
poca
##illos
tía
harán
Quin
rein
repente
##IG
cuotas
aviones
casado
Papa
abst
abon
administrativas
##arl
##lecom
físico
##amp
##lito
duer
aceite
toca
Carl
cerem
embaj
recuerdas
Superior
sistem
lament
embarazada
##ónico
##ath
modificada
Vil
##duras
TR
plataforma
##uesos
acabo
ideal
estatales
universal
refiero
enca
salido
##orld
Quisiera
desen
valoración
vayan
quede
aprobada
ocupa
oh
malas
hablo
perfectamente
depósito
ingreso
veré
pantalla
##ández
oye
##alizó
Steve
exige
Entr
inclusión
cigar
rehabilitación
cobertura
Ucran
##teratura
referente
atacar
suple
vigi
civi
##itz
haberse
reconocido
prácticamente
descubierto
ubicación
Tes
Bea
caminar
##ela
##gara
implan
paquete
turismo
argent
obe
##ñar
permita
##ISI
diputados
concretas
fel
gasto
Chris
hecha
capacidades
Pregun
camar
perfecta
Imperio
Dé
noctur
##ngeles
##sias
positivo
científica
Veo
delic
necesitaba
pasan
señores
jubi
veinte
enseguida
##itan
afecta
domést
##ficada
##jen
bron
##sal
ONU
legíti
impresión
fija
##jeras
##dedores
insta
##ohnny
patrimonio
teniente
lleve
##éano
rango
##16
##cón
Cuar
electricidad
##erry
##ann
perjudi
##ualidad
atraves
trae
satéli
Stu
líqui
encontraron
mencionados
conceder
bromeando
analizar
Bretaña
##camente
##ragón
Viena
Pales
##áfrica
dejando
##SI
agrup
irte
desapareci
perdón
corrupción
británico
uniforme
escolar
##ránsito
logro
recepción
liger
detalle
avances
Cate
##dando
##terráneo
posteriores
activ
ecu
##dras
coinci
##ecían
Fuerza
entrevi
débil
toler
programación
frase
discutir
camión
negra
entrenamiento
medioambi
proto
estren
debidamente
Caball
##orge
##ave
##zones
muere
Registro
limpieza
aparecer
##crito
observación
existente
trabajó
iniciar
trampa
Oriental
Ucrania
Civil
candidato
##undir
##lón
Conf
visitar
sil
##alizadas
urgente
Sudáfrica
viviendo
Necesitas
##toría
consta
##lamiento
CU
municipios
Disculpa
indican
Danny
##ariz
logra
##versario
##cano
encontraba
Hotel
##tiende
##tha
mandar
independientes
proli
IP
Foro
##acciones
cantar
incumpli
traído
marcas
configu
llaves
Autoridad
cambia
dimensión
negociación
bala
patrocin
seme
St
implica
muestran
##aje
Prepar
laborales
escrita
Ecuador
abar
##iería
##ings
quem
cientos
hallar
Esco
Ojalá
Chicos
Lamento
##0000
##económ
Ambos
##sel
##str
##ombi
mila
institucional
ase
identificar
domingo
silla
gay
dign
árabe
caza
mirada
##grafo
mental
calma
autobús
cálculo
parlament
someter
neg
encom
##itar
veremos
tortura
gras
catá
##isten
Hungría
construido
bajas
proporción
retra
ofrecen
entrenador
Us
sensación
##diciones
Gestión
##entimiento
##gén
Olví
fortalecimiento
Glo
##elas
secretario
papeles
##pciones
##lique
##dante
Gobern
organizado
domi
príncipe
##tidi
coronel
##uth
reglament
FR
automó
empleado
necesitar
pelear
##ear
investigar
##americano
##guez
##leto
maneras
suspensión
##bidas
International
Agricultura
ponente
##díos
oscuridad
medalla
espiritual
Total
PRO
aéreo
semej
hiciera
caballero
##cúl
##bien
alternativa
cuarta
montañas
Deberíamos
significado
##ULO
##ian
chil
exitos
fenómeno
##urt
tendré
Majestad
habitaciones
paseo
dudas
##lóg
campes
Ami
restricciones
rique
Resul
Ted
##cionamiento
Espíritu
##icios
Dado
guardar
electoral
mantuvo
Colegio
establecida
sindica
##90
colega
aparición
horizon
Comunicación
relativamente
grados
propiedades
Movi
cambió
##ison
privados
##MP
alemana
almacenamiento
propa
señales
pará
Defensa
enferm
Control
cinta
dueño
##moslo
estudiante
creí
comprende
puntu
aca
donantes
conceptos
asesinado
creía
cero
Urbanismo
pasará
vídeo
pecho
esenciales
climático
rostro
Pública
horario
##gase
##osofía
compensación
##údame
##sec
Coronel
gestion
exportaciones
Anna
##inó
trop
##estructuras
expuls
abandonar
exteriores
##terna
Presupuesto
dedicado
extraordinario
compras
elevado
prostitu
invitado
Hazlo
colegas
obstáculos
Berlín
##ónimo
Smith
amenazas
difíciles
ADN
Tem
nena
cura
román
obligado
Mul
altas
##ST
Rica
##vanse
Evan
##eses
í
relacionado
##ally
##lecomun
##esen
Indepen
barcos
suelen
Tema
requier
dominio
Che
##tativas
inocente
valle
Billy
##ugh
redac
antig
##teza
SO
Gil
##amen
crímenes
cámaras
trami
Radio
##UT
cabello
##óptero
permitió
fijar
quedarme
##bs
##ther
autos
solos
olvidado
##fique
ilumin
tome
demasi
Andre
##ptimo
ampliar
##raron
aloj
Sac
poniendo
cometido
artifici
cien
##elle
##ulio
averiguar
simpli
sentado
gratis
Comen
actores
ejemplos
##mol
##domin
liquidación
prolifer
anex
City
Estaré
aterri
musul
cercano
Ron
básica
enfad
fiestas
fór
ox
anuncio
##elly
##grafías
ayudarme
estrecha
arque
Camp
criterio
##dam
Enrique
CR
choc
desempleo
mundiales
cro
desh
gir
Suél
##tie
griego
muñ
Abre
##orra
supervi
PC
mentira
planos
##gulo
entu
##tistas
pata
##teriza
españoles
Encu
secretos
depósitos
subsidi
permitido
Intent
##old
núcleo
##ariales
tantas
entendido
Mr
soportar
eléctrica
##oo
PARA
denominado
ayude
##úrate
##óx
desaparecido
inú
introducir
##26
naciones
Bran
judíos
lá
conveniente
nervioso
Guinea
Nota
Benefici
bac
vacío
##mann
humanitaria
pantalones
Maestro
monum
viajar
decen
##ganda
solía
dejé
##24
Cór
conocidos
arregl
Pide
refundido
##ae
##ulación
sobrevivir
codi
##quero
neu
##umer
duele
Reco
Exper
convencer
Mundo
electrónica
tránsito
Mont
merece
pájar
llevaba
negros
iban
afectado
jer
##dge
gracia
Quí
saliendo
perdiendo
##fricana
juventud
juega
plá
museo
Cuántos
hisp
jurado
##cionalmente
computadora
organizar
##vada
mag
Valle
##estia
##laciones
Aplicación
##SA
carro
hablan
observar
índice
mencionada
##undi
revisar
Mesa
##venta
mascul
Tay
invitados
Conse
Traba
llevando
tabla
gato
inscripción
profunda
apla
cifra
epi
pierna
discapacidad
proveedores
concierto
expedición
Historia
##dían
##mporán
már
Tommy
##ager
universidades
debates
serían
##ficados
##amilia
##nología
Sun
Chicago
##GL
traducción
inmun
párrafos
Industri
alcanzado
pura
EEE
considerarse
remun
seno
presentadas
debió
definir
realizan
clic
Dictamen
rodi
Boy
roman
franceses
PIB
Pé
Sá
##cana
expresar
Normas
fechas
detective
##udos
amistad
mata
##ady
Bienvenido
conocen
Baja
##viera
eficaces
##chada
ponen
rastre
##mbolo
##camiento
imbécil
confes
Festival
estima
Tampoco
Defin
móvil
Vis
##indo
educ
agricul
indemnización
sujetos
proporciona
chino
Aun
gama
tún
devuel
inmediata
Scott
iguales
dedos
sof
perspectivas
considerando
##18
Bec
escuchado
nutri
dejo
retirada
Cuadro
Municipio
bajos
Fred
corriendo
##bla
##oya
emis
##mond
##inario
##vá
1960
##jun
Cy
##ócra
administrativos
fracas
##ella
interponer
##andro
adecuadas
nove
copias
Leg
hubieran
fiscales
aparecen
##oa
bienvenida
Tranquilo
far
conjunta
##lano
Regional
##UM
redon
##entamente
Blac
##formes
Diego
##carril
conquist
treinta
McC
avance
Quieren
##tavo
hacerme
##tela
Ministros
Entra
om
absolutamente
##cán
referirse
columna
Chipre
consejero
##iner
##viética
regresó
##ivamente
##ifica
depos
conde
lluvia
eva
##tornos
ONG
##emia
futbol
##itación
despa
Energía
ventajas
Hy
Princip
alimentaria
alar
secuestr
##hat
asignación
americano
Vista
distinto
recogida
nomin
urbano
##ua
##cidas
dejaré
jugó
Cra
##CEF
Vuelve
##unt
proliferación
##cilio
##empo
departamentos
participa
guarda
##gaba
Rus
confiden
##ett
noble
##dul
primavera
oral
##pito
ultra
destaca
ponerse
preserv
Encan
trago
##mue
primo
Embaj
Promo
certificados
hierro
volverá
##lice
destacar
Siria
nariz
Leo
corrientes
versiones
##tenta
mete
obtenido
palacio
posesión
habló
##ters
##urí
deporte
emocion
##dral
positiva
trajo
Virgen
##donesia
Reunión
##for
##pendo
apoya
##tense
##BRE
Teniente
contenidos
##ruecos
campamento
magia
proclam
indirec
dirige
##ait
Human
circui
##omé
bandera
##undamente
##gón
sum
##zgo
electro
##tativa
detenido
défici
espacial
estadística
##ural
alber
individuos
quiso
punta
Tanto
disponibilidad
sábado
dioses
ridículo
flota
publicaciones
##his
Marruecos
Pl
consa
expansión
razonable
Ly
Bet
asistir
solar
##eff
##hal
esque
proceder
avanzar
habilidades
post
remuner
memor
##CC
Plata
##diera
##tración
respetar
inspección
talento
modern
arancel
Clas
jurídicos
Comisionado
##35
reproduc
proven
metodo
acusado
adolescentes
sú
Ann
parro
##reros
Sociales
completar
fué
bolsi
bienio
GR
droga
Luna
AM
vid
premios
Dol
dame
##genda
custo
Sex
##04
ponga
##gieron
quitar
Niño
disponer
Sudán
obligatorio
perfil
estaciones
refieres
##hen
salga
aprobar
##corro
##oración
reestructura
teníamos
consenso
dispositivos
##ders
abogados
ambientales
Aut
sabías
habías
CH
Bajo
feder
explicación
Palestina
motores
extraña
##icen
define
satisfac
##ímenes
Cho
arena
desesper
errad
Hosp
aceptación
perpe
incorporación
llevas
aprovechar
adiós
Aque
Brian
Reina
Cli
##ori
Checa
estancia
Bang
cansado
niñ
##cú
##áus
cuidados
persegui
pudieran
leal
Conozco
event
asumir
Bolivia
efectuar
semillas
Indonesia
admitir
taller
##mé
bombar
vieron
Ló
seguirá
EUROPE
esquina
preparados
Patri
consolidación
tensión
metas
estando
añadir
lanzó
linda
##rista
##LL
apropiado
sole
Finalidad
Sent
##capié
arquitectura
Cues
##ms
dejas
alcanzó
describe
yendo
Correcto
Nivel
Isabel
denominación
préstamo
Ciencias
##glos
llegan
especializados
Listo
críticas
indispens
literatura
Suena
finalizar
##zaba
destina
Recur
Líbano
Operaciones
previamente
Mara
##quito
solicitante
Hici
bras
regulación
consciente
recl
entusias
supe
huellas
##garia
estacion
homici
Hac
limpio
sospechoso
hincapié
cuentan
Holly
intelectual
##gy
##08
##ani
comisiones
bici
ácido
##eamente
cultivo
popu
separado
Dicen
entera
Hubo
revolucion
Parque
consecu
intra
##AMENTO
##blica
##rillo
rece
Rol
interro
Plaza
Cle
Torre
separación
Var
intervenciones
125
papa
agencia
##áticamente
suprimi
entrará
cortar
Media
NIF
Bat
botella
dimensiones
bronce
encantaría
constitución
pecado
parecido
##piro
conocí
reducido
POR
podremos
##lyn
Pronto
pó
Fil
Podríamos
##oan
beso
restr
Particip
elaborado
tari
subven
mencionar
descrito
Cielos
personalidad
##lista
sexuales
Arri
restitu
enorm
Pasa
Perdon
décadas
cuchillo
sustancia
Dun
Recon
##coles
criminal
López
campeonato
profundidad
felicidad
Roger
prede
dignidad
Vay
códi
libertades
antece
coordin
##hacer
Bobby
Fiscal
##ctos
integridad
herida
##pla
pretende
conjuntamente
jefes
previs
soporte
carreras
usan
decep
liberación
sabido
Muer
ricos
DOL
Recuerda
##pañas
##ités
##uicios
presi
dama
creada
##ald
recib
rayos
Discúl
consultar
Louis
mediano
##loc
consigue
continuó
##ombros
##28
parce
##ólica
##piente
##lecomunicaciones
actú
Bulgaria
integrada
inca
Llev
comenzaron
alegría
frag
##vete
investigadores
##vemente
Eric
disparar
seré
Libro
mejoras
##boa
felices
Inspec
autonomía
abund
Comandante
conocía
básico
Existen
funcionario
##embol
recuerdos
##tuales
presidencia
judiciales
discusión
cable
Lord
##ícula
digital
Saben
##pio
UNICEF
Filip
convenios
##ilandia
monstruo
debían
##enn
fla
##stica
Maria
formal
Anda
bandas
mam
empresarial
formó
urgencia
pedí
fort
consoli
##traje
Hit
##mping
##rense
ordinario
##ginal
cirugía
solidaridad
nacionalidad
continente
provincias
##eso
jugue
encuentre
adecuados
Algún
participan
plazos
##stitucional
##cate
Agente
herramienta
##damos
sentía
##ason
SL
exigencias
cuyas
##lores
Ante
##az
carn
liga
borde
símbolo
contactos
Lista
limitado
millas
autop
mister
##ght
roto
economías
##fia
Sho
llorar
favorable
Acta
Eddie
Castilla
vendrá
indicado
##pidez
específicamente
satisfacer
Trá
trataba
##pper
##usal
expec
profesores
Bl
##raciones
Miembro
patrón
##UER
diferenci
reciben
afectadas
jurídicas
id
aniversario
caminos
##ast
Odio
nor
Demas
contado
conductor
desf
diam
reparación
Bay
canales
llamaba
cae
declarado
Ryan
insec
Recomend
Pie
sufrido
Llo
##pía
##enme
escas
##adilla
Bah
cuen
designado
Via
géneros
Hice
tormenta
bastar
componente
poblacional
medicamento
##osovo
Art
dirigentes
verg
televis
Beneficiario
##ciar
115
##érico
##ning
utilizarse
Artes
audio
Hospital
##enny
Yugoslavia
Compañ
resumen
##sula
Estuvo
##acidad
##oneta
fri
##29
anticip
Encontr
hol
villa
campañas
##turos
much
intentado
##brada
cruzar
Georgia
déficit
comprensión
locos
##éndolo
juntas
Cir
mencionadas
##itri
manz
moderna
transfron
##ísima
verás
biblioteca
demuestra
enlace
orgulloso
Adi
Cambio
flujo
inicialmente
Lea
##03
##stió
tendencias
later
secciones
básicas
##mem
reiter
abaste
Air
degrad
uh
##enen
iremos
##idu
PY
##limin
daba
lici
pez
nad
##osh
aplicará
libras
##pirar
módu
impulso
ansi
casó
santo
ganador
##ics
calcul
##caba
Pueblo
emperador
químicos
Poco
##evin
dedo
##tari
##daron
Rafa
etapas
tribu
##abora
Mucha
extrem
OC
cultiv
##fac
##guesa
##TADO
Estuve
salón
##elo
Estudios
dada
pendientes
incent
##encio
##ily
hermanas
finanzas
Sali
resultó
##VIII
##uyen
105
Palacio
Gonzá
serás
##polit
##mina
Bosnia
desap
Públicas
cumplido
palestinos
gr
habéis
taxi
magni
##hí
municipales
##mbol
gravedad
italiana
ciudadano
##cuenta
Texas
llevaré
preocupaciones
gustaba
Tru
extranjera
##teriz
permitirá
organizada
Doc
Ano
llamados
permitan
Saint
causar
asilo
seria
##cebo
Valencia
ríos
Deben
Medidas
Alan
prevent
deseos
##vor
credi
COMISI
##ándola
crecer
demonio
preguntó
##ei
delan
European
divul
estadio
Ul
promesa
##gráficas
fundación
destinada
roja
vam
imponer
denuncia
##ligencia
cuento
Sabemos
vine
toque
##erusal
códigos
tumba
Stre
aparatos
##arra
##bren
Pobre
afectan
##UD
OS
gases
##FOR
intercambios
hero
ego
formulación
Nicara
contemporán
pescado
paredes
Formación
##inter
##85
afron
absoluta
ferrovi
baj
inflación
Piensa
##line
celular
desaparecer
profesión
González
Emple
ANE
cerrada
efectivamente
incumplimiento
beneficiarios
aparte
desayuno
transcur
##burg
periodistas
experiment
desempeñar
impera
##ander
intentó
invasión
manifiesto
desierto
inferiores
Isl
Green
registrado
cancel
##zon
Entien
Vig
grabación
futura
llame
concluir
condena
##landés
educativo
##omer
##eco
Escúchame
##oroeste
Nig
Haci
juven
dejan
publicada
Queremos
responde
pastel
informado
quedarte
##toma
enfrentar
haberte
protocolo
destro
encargo
Leván
Felipe
explosión
habilidad
Veamos
##istemas
moda
Alta
Empe
constitutivo
##céu
##pecto
alm
ling
Olí
auténtico
Pienso
Interior
princesa
dile
hoja
##ristas
aqué
recorrido
Ama
Fútbol
##ércoles
contaba
instancia
##tuario
##into
Tercera
competitividad
##inete
veía
oración
into
naves
##iss
mecán
Nuestros
Corpor
sexto
Abra
coopera
Fuente
##ons
##afirm
consign
Arte
abrió
activamente
terrenos
entenderá
cruz
inc
simultán
reembol
Audi
##organ
Ran
debut
ina
transmitir
buque
1968
##ciona
vienes
fabricante
vecin
##camos
populares
limitada
Olímp
##iebre
Oro
PA
Hill
cerdo
Segundo
##22
tos
traicion
Brad
hipó
##gicos
ino
esconder
enferma
esperan
##titudes
IT
fusión
Home
ancho
Bis
trimestre
cláus
lidera
##tár
profundamente
Cuer
Exacto
Dave
averigu
envas
ruedas
informaciones
carbono
tripulación
desvi
##34
##óma
aho
##than
ceremonia
agradezco
quince
##uncias
restable
utilizada
cuesta
##cientes
ejecutar
Dor
estuvieron
minorías
insist
Respon
##valuación
##gol
##ecas
huir
Uti
producen
unir
vulnerables
diagn
##tter
Panamá
coño
##tiste
histórica
redacción
intimi
refleja
entradas
reme
castigo
consigo
traslado
requieren
prisioneros
aventura
accidentes
considerada
sufrir
ofertas
Nicaragua
abarca
Extra
Dal
fraude
sombrero
contrad
##ámenes
personalmente
tuvimos
relie
Shi
deterior
dejarlo
Sor
religiosa
Moscú
FA
firmar
##OG
Mauri
##esu
atrap
eficiente
palestino
plas
Alfon
COMUN
Croacia
Ví
derrota
pidiendo
calcular
##cristo
##xa
##chen
exen
arroz
abuso
##bie
olor
goles
##tría
##gul
argentino
film
Blanca
##vida
química
tiendas
Tío
agujero
fortuna
MA
Eu
compuesta
Victoria
venganza
##gramas
##dioso
Fra
Atlán
ascenso
riqueza
nieve
Esperen
##decer
Bir
vuelvo
##ástima
ése
ibas
##ponés
##gará
futuros
helic
vos
pertenecientes
##anes
movilidad
incidente
imaginar
##sfera
experto
aquello
aguan
promue
llegamos
escuchas
pudieron
Nombre
Teatro
##uéspe
Oigan
##miendo
amas
sello
bombas
##fen
ciencias
##queta
distra
jueves
zo
cintur
originales
calificación
constituir
alu
Cuenta
cuota
votar
empie
rean
Alej
Sie
moto
Amor
chocola
IFM
Escri
fundada
proceda
tomo
magist
leído
vigentes
##uér
escán
Mem
##06
Rachel
##ACIONES
Señorita
impro
comput
##ominación
conocemos
##uidad
limpiar
fotografía
pren
##idae
DES
presta
##ater
cruel
cheque
pareci
##oras
futuras
controversi
reto
afro
Elec
determinada
##drí
relacionada
preocupe
sepas
primas
afortun
Andy
vital
excu
une
consideró
##BL
recre
respectivos
##gri
dirigió
cé
##jano
line
inútil
Acaso
##ngel
Señoría
podrás
llamaré
fili
poderoso
normales
exclusión
invitación
heridas
sacerdote
piensan
transportes
Rico
fundament
##blia
desarrolla
internet
mio
Ash
darse
Robin
presion
psi
aj
Christ
llan
PE
refuer
discos
curi
##imnas
EP
conocerte
1969
huéspe
##gicas
##tuvieron
eje
junta
Verde
legi
cumplan
repercusiones
##vol
hiper
fijado
##abeth
taba
Marina
blog
amante
murieron
##bita
Perdona
##trina
cens
Grande
figuras
incendio
##oder
Segura
camis
Fuego
físicas
consentimiento
eco
##oseph
limitaciones
oli
alianza
sigues
huesos
Nan
ampliamente
##ínea
cortes
diste
reconstrucción
Sea
##junto
##pur
contienen
Acab
enamorado
quisi
##delo
Provincia
Aten
negativa
ocupada
organiza
##esía
descansar
financiar
Comple
##bera
pensamientos
##ájate
envío
##vino
Iba
##rom
vag
##36
contrapar
##inti
dejaron
filosofía
verti
Hacia
##uz
pareció
refieren
verá
piedras
Sebas
logros
Signi
##banos
Córdo
queso
maestros
Rodrí
edificación
mínimas
frutas
presentados
patio
pese
##avier
valiente
##emato
industrias
integral
ejecutivo
Empresa
escuchando
migra
##unción
salvaguar
propon
posiblemente
##nal
océano
Coord
estaremos
Distrito
##jarse
cón
Rodríguez
alerta
hijas
Agua
gasol
promul
reclamaciones
observó
jud
##dario
sienta
##gador
Amy
exámenes
operativo
provocar
CC
##áce
volv
domicilio
fría
atro
agricultores
Oí
cristal
rí
Hablar
ges
estarás
Florida
##thur
Metro
##ence
clan
diseñado
volveré
fuimos
inmigrantes
atmó
##tito
solicitado
considere
sombra
ara
##ep
prelimin
parámetros
##nis
Crist
Broo
Príncipe
reglamentos
rara
consejos
matarme
religiosas
110
104
##restres
Seis
adoptada
compa
partícu
pagan
Alianza
##iy
poeta
privile
perdí
sentí
tarjetas
despierta
afili
Sede
armado
citado
##llado
Vá
vencer
##dadores
reduc
cuantía
vigilar
requisito
impre
ayudó
conversaciones
velar
pierde
Guad
escudo
Economía
manejo
##éndole
Profesor
##fru
vit
preciosa
Filipinas
moderno
Cés
Común
##roso
##tron
##ternidad
estabili
sién
desarrollados
dañ
fórmula
Doug
ulti
denominada
##zaron
Il
firmó
volviendo
##glesias
##cimo
cristianos
##daste
complicado
incur
##VA
psico
Silencio
verse
tardes
Atención
disparo
saque
farmacéu
anda
PER
##rian
Hacer
batal
puto
Recordando
TAR
empezando
ende
autorizado
fracaso
Ingen
desgracia
##trico
Cole
contento
rescate
arco
Lisboa
desapareció
Eri
Steph
Estatutos
armonización
1950
reclu
concedida
series
antiguas
reputación
Agu
empi
##queros
##dney
obtenidos
ordenó
precip
sentimiento
Ejecutiva
urbana
Andr
inex
obispo
Tuvo
chu
paro
presentarse
##tanos
inmo
comprob
dirigidas
##tipo
Oiga
parada
evacu
##unya
##mal
##ette
notable
##95
##hite
##juntivo
##questa
desempeño
##rías
Recuerdo
comuna
originalmente
aviso
Recursos
##éndome
brasile
Perfecto
diá
pira
genio
altitud
##tible
subjuntivo
disfra
##tifica
dormido
##cador
##GO
dor
borracho
##íces
Unos
114
dene
únicos
Rose
##tecto
intergu
##ub
##96
falso
carbón
Pete
Obras
##izan
ordenador
Título
##quera
Sel
adquirir
gris
acuerdas
Peque
##pula
abiertos
##yl
##teme
Cabe
##vez
##tividades
teór
mostró
mexicano
seg
inser
##unda
fantástico
Indi
necesariamente
estrech
británica
##ilación
existir
AT
ayudará
muro
aceptado
##ICO
##riel
##unas
ferrocarril
testimonio
colombi
manual
pertur
operadores
Existe
guitarra
humanitario
pru
despla
corona
círculo
Vine
##bec
utilizadas
##pie
##ámame
Sargento
satélite
concretos
acogida
pensiones
terapia
CL
partidas
lento
Dev
##ínsula
almuerzo
aprue
histori
desastres
Catalunya
##tta
UNC
Hong
porno
asistente
anf
Serbia
##dum
Tipo
Detec
creerlo
franco
asesinatos
escribe
Navi
##98
Rafael
##rus
certificación
Cham
##TOS
comienzos
fantasma
Observa
Claire
##vaquia
Córdoba
cartera
aconse
aerona
Temp
piano
conviene
Pensaba
Oeste
##enaje
enseñar
trató
extremadamente
Gor
##erusalén
enla
lav
estúpida
##fil
Maldito
porqué
externa
plus
##jones
##isco
vidrio
##ECH
Lima
expresó
cultivos
estatuto
Pérez
RES
unió
##dell
##inger
##zarse
101
##asta
##leres
##ólogos
instituto
imperio
Malas
Entiendes
subvencion
discur
Fuerzas
desafío
##vie
Canal
##taliz
conoció
Sebasti
ACP
##sy
distinta
diputado
Haré
estóma
aplicarse
piscina
##íso
Tiempo
querían
jueces
##edi
ml
Diez
participado
atmósfera
Alfonso
regímenes
almas
Laura
detallada
referencias
individuo
Conn
##úme
##ets
Mús
Fernández
Equipo
PYME
impon
##dd
ministros
aportar
##CH
Ang
caído
cobar
propietarios
##05
Morgan
gustó
rusos
Tailandia
by
Amigo
Malta
respira
despedir
sigan
bebida
minister
tono
Rosa
sonri
mante
crítico
##anismo
escolares
dificultad
bicic
Isla
construc
##éricas
hubieras
cuadros
Denominación
asociado
obtención
bella
##anca
Apuesto
##uch
esperamos
relieve
##ídos
idén
aumentado
realizando
##ls
regresa
Hora
obligatoria
tejido
aldea
##izaciones
Sul
suceder
sh
apareci
opon
Big
pensó
lógica
musicales
impresionante
elevada
Enter
Incre
infección
frecuentes
limpia
Imag
Soviética
##idional
tengamos
mintiendo
procedente
patrul
bruto
##dirá
Dom
sucedido
##remo
procur
prestado
fijo
extraordinarias
##iense
mist
disculpas
pendiente
Phil
Carajo
##icar
pasaron
lider
subre
Negro
UNCTAD
llamando
indispensable
##esucristo
desperdi
##rica
Lucas
heridos
cereales
geográfica
##blación
desigual
Biblia
drama
sigo
Natur
##PS
precisión
andar
agencias
National
Sevilla
Déjalo
Dese
Necesita
##tale
centa
soñ
CA
Apren
bilaterales
sufrió
temporadas
##écord
César
visitantes
disciplina
Exactamente
fundador
Aprobación
aplican
propietario
desplie
Bab
japonés
##rano
##rich
dejaste
generar
##aridades
##ij
Eran
Ningún
disponen
cumplen
Revolución
##tiéndose
mezc
americanos
cohesión
quedando
CECA
##vientes
Alberto
subray
verdaderamente
##éticas
cabezas
##chez
Igu
trono
fundado
##ácito
curios
matan
sem
nombramiento
Cuentas
Trin
desafíos
refugio
libr
levantar
derrib
significativa
##ites
presti
Ninguna
antecedentes
aumenta
acondi
alternativas
Monet
claridad
Examen
casarse
constitucional
soberanía
Cel
muriendo
##op
suave
puse
granja
Libre
transport
dedicada
expresamente
martes
Llama
##IDADES
voces
ahi
##ós
Apoyo
leyenda
Movimiento
##igante
##govina
##rese
gloria
energética
temporales
##adi
buscan
permanentes
Viste
##tti
Simon
mito
verificación
Detente
Subcom
parcialmente
Litu
char
toques
##andy
##tea
Permí
multitud
disper
##ciliación
##ementerio
Auxili
fachada
pusieron
izquierdo
alas
capitales
licencias
maravillosa
despre
monitor
ción
##ulsión
Objeto
constantemente
##dumbre
fren
##icidad
navegación
##ejas
Habrá
Cuanto
determina
##ití
##ñal
##dete
cóm
inmigración
##BS
sargento
900
árabes
estratégico
##ulia
exci
hec
sugiere
casco
sensible
comunicado
CF
gala
##utó
##oli
adivin
hech
parado
sovi
corresponda
hechas
institucionales
repetir
cómp
estómago
Honduras
invita
quincu
variable
reacciones
Despi
botón
séptimo
##tch
cubierto
noroeste
batería
aproximación
elo
custodia
##lah
colocar
pecados
agenda
oficio
alojamiento
##93
Arriba
Lisa
ventanas
conciertos
acta
##tinas
Teniendo
cari
Mujeres
favorito
##VD
Africana
inn
iniciado
##94
facultad
##óme
Queda
Dav
clásico
ID
respondió
llamamiento
Mes
famosa
raíces
despertar
116
##its
complemento
##gráficos
##utas
facilidad
participaron
##yle
correctamente
tratan
estáis
plato
aparato
condenado
fiebre
##aren
CAP
Paraguay
definitivo
##guera
##máticos
##onald
##emin
##gale
Sean
querría
ED
Invi
termine
tác
sel
deshacer
habiendo
DLL
##ule
Arthur
Eduardo
afirmó
Cierra
Cuesti
##onado
suponía
1000
puertos
rumbo
sanitaria
encargados
latinos
restaur
mataron
Fueron
Situ
estal
construyó
quincuagésimo
productividad
Dur
acepta
dependencia
Organismo
camisa
récord
reconocida
Ello
daría
##stán
trayec
sustituir
##valo
sufrimiento
peligrosos
pollo
diagnóstico
Alejandro
basados
##íficos
Mediterráneo
Tún
colectiva
##uelta
##letín
Mírame
##pilación
##cieron
Región
encab
sexy
##grada
placa
competición
maquin
##riles
homenaje
pistas
Tour
sustituye
consumidor
solas
renovación
Arge
Sosten
Iden
avergon
vínculos
Larry
Marsh
hablaba
Domingo
entendimiento
##abell
##ADA
flexibilidad
arresto
afectar
Consultiva
importar
aplas
Discúlp
##ather
extrañ
pasión
cajas
mantenido
##hip
joder
descenso
Martínez
coca
blo
##iera
quedo
##isla
publicar
útiles
originarios
##onces
##ezcan
cone
Compañía
##31
tramo
Aqui
plantea
incrementar
inyección
pensión
alent
Girona
salarios
Flo
Significa
Frente
##ortunadamente
sul
##quez
##gation
garantiza
esfor
mueve
ocurrir
rent
voluntarios
130
cincuenta
despacho
Caballeros
guerras
policial
Miami
##yer
precisa
##bus
##portado
revistas
Rumania
##gá
Abri
importes
últimamente
fases
tea
Demasiado
declara
lanza
terrorista
Carter
preocupada
##QU
inglesa
atras
rell
Cué
Conoces
clubes
chocolate
metido
detenidos
Económicos
LO
Alfre
Herze
fueras
camioneta
Eliz
transacciones
labios
Conten
presupuestario
sacrificio
von
cuantos
Dipu
##landes
anuncios
ligeramente
recibieron
##darse
liderazgo
##undo
trabajaba
fundó
##ign
bebidas
ángel
Cálmate
húme
##món
tomas
podré
madres
describir
EM
electrónicos
futbolista
poesía
clínica
##anse
propuso
Herzegovina
##pson
manifestaciones
descubrió
Apen
Edad
racial
##bulo
invers
Loc
evaluaciones
Enseñ
Damas
toman
diversión
##iano
lección
guard
Familia
##adir
roca
Depor
escuad
##VII
bail
robado
Abo
##dical
##84
vivía
##eda
retor
##tumbre
signos
aline
##dole
vapor
causado
##rará
##ique
##colos
1966
CIA
##gil
##acial
tambien
tesoro
Atlántico
retraso
decirles
justificación
##itores
not
positivos
apres
desarrolló
SEC
##ture
fotografías
balas
##eamiento
característica
noven
contingentes
Argelia
##toño
aprobadas
##oey
Geo
Pic
EI
supervivencia
hume
Boo
##jados
Ment
introduci
##hua
ganancias
##pensa
Chuc
predomin
añadido
religiosos
Demon
esclavos
##cedon
pico
##ach
plantilla
salen
ambul
ayudarle
espejo
sitúa
calent
radiación
sabor
1964
##rillos
israelíes
report
##cesis
respirar
MED
##lex
Estabas
Bil
pí
##BN
pagado
católica
intr
delici
##ind
eri
##alición
Aco
##liquen
##mería
cercana
incapaci
imperativo
Gh
MAR
duplic
##ENCIA
Pase
Bio
Feder
rica
prorro
Tab
benepl
cuáles
##ciende
Estrate
##cena
popul
Música
pertenecen
ánimo
##sible
Supremo
##ombro
##yac
beneplácito
mere
actúa
seguía
argumento
intentarlo
parale
But
guardias
House
exha
fortaleza
tabaco
MT
##ragona
expectativas
tuber
destacan
Lituania
Ponte
Excelente
mantienen
once
vivido
Cuántas
PT
##LO
##gat
##ulares
hables
Mediante
orgullo
##ígenes
ingeniería
##ohnson
terra
formada
Vicente
suministros
##erales
##trica
##EP
latino
criminales
denuncias
vaso
fijación
##ayne
deriva
utilidad
##ablos
##óst
EU
Asunto
Path
generaciones
##tualmente
Española
republic
Facultad
##anim
##ball
instante
seminario
sobres
vuelvas
paisaje
británicos
##far
ocupados
magnitud
escritura
##RES
EST
##uyendo
gimnas
migrantes
maíz
efectivos
gigante
habrían
Ciencia
encuentras
MI
##vey
enseñanzas
##locu
Dicho
especific
dispuestos
sustitución
plástico
obvio
legislaciones
Asistencia
fumar
Emily
robó
caz
explí
1945
invo
##ecemos
muertes
Susan
prosper
Há
temor
significativo
acordado
migración
indios
Tarragona
pelota
Vietn
creemos
altamente
territoriales
Fron
Lon
barro
##doro
Guardia
escaleras
BE
##usta
##zona
Disfru
##ámico
ladrón
funeral
misterio
##fal
##mico
fes
casada
muevas
contener
Estonia
Intro
tim
Aman
Marie
supuestos
piz
conservar
hagamos
##har
Tradu
##osex
pedazo
##amba
quinta
mentiras
obligados
##uya
embarazo
fiel
costumbre
alcanza
##diar
##92
Street
aplicado
actuando
Envi
miércoles
##ester
ajustes
caras
hacían
Spi
reparto
terremo
nosotras
sep
arquitecto
comentario
delim
dió
recurrir
##rés
Um
##pent
Olvídalo
restauración
adónde
##radores
haberme
multilaterales
pasivos
proponer
trage
##ígeno
maldición
oyes
encabez
Coordinación
apellido
##erten
exclusiva
culturas
cumbre
Timor
intensidad
israelí
##ágri
Porqué
Emma
negociar
macro
##gad
preguntaba
apuesta
exigir
despren
##ilson
titulada
deportes
truco
##uci
interac
comenzado
Vietnam
Estábamos
acoge
Sán
##phy
bolsillo
solicita
indicación
desesti
olvides
Cielo
Actividades
gargan
Taylor
índole
##tto
sueldo
##heim
criatura
##uts
foro
escritos
Apenas
106
Hern
coherencia
enve
##eña
corazones
prohí
Militar
venía
umbral
describ
##árselo
paral
creando
presentará
orgánica
exili
Av
postura
Garan
almacén
acompañado
debili
Lleva
ratific
##xo
vigencia
Viene
humil
jodido
##pido
admis
cuerda
entrado
##prisa
contras
Rem
religioso
Hitler
desaparición
##ram
Inicia
##fectos
##minación
realizarse
retos
pintor
##86
##riger
Elizabeth
##gués
conduce
obviamente
Blanco
##arquía
Ayúdame
facultades
##ídas
Guer
##tadura
##eresa
tranquila
Espacio
renunciar
revo
##onasterio
ADOP
aro
sincer
direcciones
ayudando
Técnica
Leona
Murió
amarillo
presupuestos
estructural
mix
Prefi
fama
Nigeria
clor
ofreció
formulario
##dina
asquer
Viv
Hermano
Malasia
racismo
mensual
##more
dirá
bebe
##velo
Ross
1965
cinturón
legalmente
conversión
costas
Alcal
aérea
incidencia
##sive
falsa
124
asustado
hectá
##manas
obtiene
##encial
auditoría
##cientos
##ister
lujo
internas
puro
menciona
saltar
presentaron
videoj
vivió
restantes
disfrute
iniciales
fallo
##teria
abandonado
##cialidad
##comun
milagro
delincuencia
Señorías
quedaron
optimi
desplazamiento
desean
excepciones
##gena
##ata
vecino
sencil
fila
Mario
modalidad
ruego
persist
hazlo
humo
señalado
##terrestre
redi
talleres
Cuén
equivocada
Dele
fresco
ilegales
escape
Compren
Hue
##itado
Estará
salvaje
miel
##oncesto
concretamente
sótano
Túnez
Lic
##ónicas
incompati
multiplic
rendir
##xia
largas
Haití
proveedor
conduci
primi
vueltas
justa
tonta
quédate
enumer
implement
aprendido
partículas
##orcio
rum
Igualmente
divorcio
Dominic
humanas
llegué
Colum
anfitri
##ERO
sindic
enormes
##SS
charla
conducto
conserva
##quetes
##ptima
quieran
##EG
Detective
represión
escenas
Auto
Procedimiento
109
espon
desglos
Nar
masas
bañ
escuché
sustancial
homosex
Granada
Sto
sorprende
Abs
##82
citada
exceso
Fondos
reclamación
comprometido
##TAN
Steven
##úmenes
Goo
##émica
curiosidad
##uerta
Roja
##esse
hispanos
matando
Sri
basadas
Lady
Déjeme
titulares
trámi
fruto
Evaluación
PRESENTE
##cidentales
homolo
celebrará
amigas
VIII
1963
disparó
comités
avanzada
##ston
Navigation
femenina
respectivas
diámetro
simples
lástima
ron
Oficiales
Lucy
seguida
limita
frust
salto
rusa
##letos
matarlo
conmem
pesetas
ingeniero
##ato
festival
extiende
##ótico
aumentó
Bell
Mitch
barra
gordo
Concepto
harías
Quiénes
alien
cance
Ramón
huelga
Sat
##dices
Dean
durmiendo
perdida
estuviste
##árgate
##ordan
Inici
Tecnología
maté
carreteras
interesada
envía
medir
elegidos
rever
##hara
asignado
Hablas
adopten
críticos
elegante
Vino
infin
preca
##bados
Boston
ecos
ganando
##tone
gasolina
##leno
FC
realizará
inund
##pientes
Industria
unirse
IVA
bah
Sigui
Condiciones
NC
Senado
funcionando
##venia
legislativas
mantenerse
beneficiario
vean
##zy
federales
compró
caminando
pade
fusi
colectivos
Fri
enunci
Compar
Bravo
Gali
Dre
aprobados
otoño
sindicatos
##ef
representar
cafe
divertir
históricos
##éndice
##tamientos
validez
##licas
suplement
refriger
Armen
contencioso
##lvar
castel
Ey
CEN
examinó
estro
cuenca
excepcional
vuestros
Miss
repi
destacado
encontrarse
Ign
trenes
##polis
##plan
entreten
##amina
grad
pondrá
##támenes
atractivo
instrucción
delegados
compositor
continuidad
orientaciones
peru
ejercicios
##ralo
Tai
desechos
Santos
tomaron
rompió
inevi
reinte
##lamentos
South
Latino
plazas
rebeldes
alarma
ratificación
##33
##ícola
agradecimiento
esqui
##gela
supl
latín
##DI
seguramente
encargada
submar
Subvención
##ensas
retiro
##TM
Cabo
##llería
Grace
destacó
Dy
penas
cotidi
##tánico
cuarenta
Biblio
ense
##nidad
Pala
interacción
Alice
##ull
ciego
reguladora
emitido
Coun
aliados
concili
restaurantes
documental
asiáticos
ave
empresario
Lleida
exposiciones
Shel
126
vuelos
Libertad
asombros
peligros
1940
Creía
detección
hoteles
trasladó
líquido
ala
Hom
Recomendación
1962
##our
##liza
cargas
abandonó
##urope
guste
cansada
parejas
tirar
##reste
Sánchez
sumamente
##identes
precioso
sirven
orador
ADOPTADO
separados
Eva
asegurarse
tratos
conces
observado
sonrisa
Gru
trayectoria
Tome
Municipal
Gén
dieta
jurisdic
neum
Revis
cí
estemos
Virgin
Linda
naran
participante
supra
centí
judío
grabado
concedido
##antil
Annie
guión
suicidio
156
##if
Lui
##oreste
lágri
mínimos
Levántate
usó
pil
examinado
##ring
damas
éramos
Gabriel
##biste
descubrimiento
Come
empezado
básicamente
desfavor
Aé
oxígeno
culto
repeti
defensores
celda
##mad
gratuita
1930
acuerda
ficción
restrin
Mala
Recono
libremente
##centr
##ioso
##omen
Rojo
Calla
Oliver
CAR
##gelio
mortalidad
Albert
diarios
seco
##ólico
140
garganta
exención
CI
largos
Olímpicos
darles
penales
##tándose
Eslovenia
Nie
##tiera
juzgar
##olv
demora
##sin
serlo
exca
Ninguno
afici
##gí
Islámica
estratégica
Allá
Desta
##terapia
emitir
American
##dora
apariencia
Estrategia
estrechamente
ISBN
cú
Siete
Prevención
vuelven
mandatos
Ras
##landesa
sucio
visual
##igantes
cielos
incorporar
Luz
dejen
reproducción
jubilación
guapo
marcado
contabilidad
continuo
Bá
encuesta
anexos
definido
renuncia
falleció
extrema
empresarios
001
planific
av
solitario
rosa
Of
Bruce
otorgado
##chill
Noti
salas
poseen
##dilla
realizaron
##rilla
Niños
##onancia
##rish
Mah
Castillo
##omos
resultar
considerados
Empleo
veinti
saldrá
sangu
escalera
vimos
cubre
peligrosas
percepción
aseguro
##ony
##ev
##nto
escritorio
devo
sucesivo
compuestos
construida
##stro
Philip
Excepto
##mirante
peores
ocasion
##tell
aparentemente
disculpar
sencilla
capilla
##tita
Spe
retorno
PS
incendios
femenino
##58
##itter
##ulie
hierba
coordinar
absur
Confe
##jam
quedas
ocurri
Pam
##cadores
##illy
##ép
formuladas
docente
##lidas
##TULO
sucediendo
cargar
faltas
demostr
deudas
practicar
emb
cabrón
golpes
OMC
pareces
Embajador
canad
llegará
IC
franqui
concede
##eja
transferencias
Franco
tin
hipótesis
hosti
necesite
Bun
actualización
intentos
##blar
##tecas
frecuentemente
##ñón
rocas
circuito
Gord
voluntario
Archi
##orar
Hall
##onía
luchando
pesado
captura
emociones
met
Ep
oportuno
prevén
##irme
##ars
OR
asalto
gl
Glor
Andrés
evan
Bienvenidos
pasaba
Obviamente
##ñe
reyes
organizó
irri
Hizo
recibiendo
Diablos
secreta
tuviste
distinción
anualmente
secundarios
Ayer
##hibición
hormi
hun
bola
abrigo
103
Barry
Blo
Bren
Amo
variaciones
muchísimo
Solici
semejante
Alé
colonia
sometido
1958
coherente
observadores
accion
fur
tomará
##apar
North
lobo
túnel
conmo
extranjeras
##ary
disp
desconocido
desagrad
vestir
prohibido
chinos
confun
##trad
United
##91
democrático
Datos
intenciones
Cl
##sell
medias
cuántos
Modificado
elector
##ramento
pacto
Carmen
ads
cometer
ciudadanía
publica
marina
vicepresidente
externos
Autón
108
Etio
##reza
154
Calle
totales
resuelto
deser
vinos
empezaron
##chado
##ceboo
Andal
ocupan
Universal
helado
despliegue
##cedonia
enseñó
enfermera
invitó
Alma
platos
RT
##ombras
residiendo
AB
Estable
pinturas
Escocia
concreta
distritos
DVD
sospechos
egi
##quín
ree
negar
vínculo
mutuo
temprana
##ñez
educativos
exager
frutos
funcionan
episodios
duque
proxim
Instancia
1961
guion
pongo
cil
idiotas
dólar
africanos
imperial
campesinos
Atlan
integrantes
##ip
ptas
manio
Guy
##mita
debida
Bush
##derson
dero
matarte
exhor
Ib
##stian
proviene
Ens
esperado
##tizar
preparando
adher
pones
percibir
Eslovaquia
adecuadamente
Poder
Ricardo
Guiller
esperanzas
democrática
bastardo
Ford
Categor
Chan
crey
##df
estimada
pedirle
aplicarán
##rali
##cino
Cora
PL
Ata
##ordania
Arabia
tradiciones
atraer
paciencia
##dimientos
##ándonos
Tener
costum
estudió
DC
reba
Records
cementerio
mezcl
##deste
1936
rol
##lis
##uca
Subcomisión
gros
clásica
sorprendente
convencido
Vegas
sienten
##ib
lesiones
socioeconóm
##seguí
taza
Vía
Vengan
Paris
terminal
empleos
Menos
catálo
Gaza
##versión
coincidencia
reunió
acercar
Estre
bebés
Quinta
##jé
sois
cómodo
mué
exista
móviles
##beli
##irman
##ors
despacio
Etiopía
egip
##ándolos
seri
Anteriormente
##thy
##dill
directora
deliberaciones
eléctrico
##cista
presa
papi
pregunté
Perdone
Documentos
especialista
rodillas
Mantén
##ser
##dest
Castro
Scho
diamantes
monte
encuentren
directivas
FM
##iley
honesto
##aros
blanque
abastecimiento
Alban
mortal
##fur
##gano
verificar
atrapado
##fri
recompensa
sacó
expresado
imagino
Promoción
míos
UNA
sindical
Gobernador
Vd
Hil
##uertos
QU
##TES
Avi
Vicepresidente
##drome
levanta
##38
cierra
Times
##zob
Pesca
##bilización
etiqueta
molesto
Pierre
##ienen
rebo
factura
encontrarlo
##raba
misiles
Oscar
Liz
tomé
académico
##dre
rutas
misterios
seminarios
ilícito
##onde
utilizó
limitar
##ruc
Nu
acaso
##teos
formulada
parto
##ezco
existía
lleven
recomendó
##velas
habíamos
tonterías
químicas
secuencia
antelación
saldo
conocidas
aler
cadenas
vom
regula
ple
autorizados
frecuente
##mental
verdes
Teresa
natal
confirmó
Vera
##venen
##alitat
sirvió
editor
Evi
estimaciones
directores
derivadas
inquie
remuneración
encaminadas
##bina
rele
mataré
Gobiernos
intermedi
dijera
grabar
##tés
Naci
enrique
aumentando
##32
comprimi
prescri
dibujos
compi
falsi
enojado
unidos
globales
dispuesta
seguimos
éxitos
aclarar
Date
##izados
tablas
formando
##enzo
adopte
indicó
basándose
sens
Habl
rechazar
consecución
cinemato
Lyn
tragedia
##rudencia
cohe
fuga
triunfo
esclavi
descrita
explotar
presupuestarias
ciertamente
entrevist
##oni
regalos
supiera
rechazo
guapa
tenia
Secretaria
armada
##erbaiy
##54
bienven
that
parcela
barrios
editorial
##ecé
##ínas
##UU
añade
desee
encontraste
Isa
Amigos
UU
exhaust
demandas
ACN
planeamiento
deberes
espere
penit
licitación
automáticamente
notificado
apropiadas
glu
vendido
##nado
##NA
civilización
##erin
cima
senador
integrar
aceptó
##feros
##ímp
Frances
Net
invitar
##une
mataste
romano
##cad
Pho
ramas
tecnológico
Somalia
diaria
##tear
Prome
traspas
vocal
confusión
mostrado
servidor
##lum
Gary
Nego
rastro
##tim
##lana
avenida
orilla
excusa
POL
verle
##IOS
Levan
##acos
solucionar
Anne
Hanna
preguntarle
compara
dependiendo
arbitr
##gli
sometidos
defensor
Dam
##terias
vende
automóviles
Acep
##ADOS
Dependencia
espar
1948
ingre
Cooper
##ation
funcional
INFOR
casar
##tines
##eting
artístico
giro
Atrás
Fuiste
Viejo
##enco
Uganda
arreglos
prever
hospitales
fascin
favorecer
##curs
Varios
tax
##illiams
Orientación
llorando
terrestre
contamin
voluntaria
destruido
dibujo
Elena
##denal
homicidio
Encontré
iraquí
signo
próximas
directos
imaginación
Mayo
cumpl
##enciado
encontrará
primor
Int
asesinos
##iduría
1949
muchacha
##mante
Dígame
##nic
armadas
pares
repos
sufre
Young
lentamente
##brí
##FA
##trans
antici
##tua
reconoció
Encar
preparada
noreste
Guillermo
##64
Suple
Demonios
interlocu
reír
rumores
Pregunta
octavo
comunicar
sales
##hy
forestal
rueda
músicos
Ferro
rama
hueso
dejamos
muebles
Vida
##ieran
Compro
fundamento
Faceboo
contrapartida
detectar
compatible
realice
##pata
Base
músico
##pso
neutr
ejemplares
CONSE
Fox
alo
reconocidos
sacado
alrededores
cuantas
aplicando
iii
Sher
liquidez
peligrosa
##gelo
##cie
península
Turismo
declarar
solicitantes
##sterdam
Macedonia
conjuntos
##terial
brindar
##espe
justificar
Aver
Tenías
ducha
Roberto
##canes
Cultural
damos
##nam
arrestado
pastor
naturalmente
##financi
Población
multilateral
##udación
debilidad
teléfonos
SP
##UCI
##ohan
llevarte
elimin
##racciones
presento
##dese
empa
Avenida
Pere
sindicales
apuesto
ahorro
ACNUR
alivi
creencias
Campo
##cionada
sube
Valent
Productos
matr
contando
desma
Bud
##ficiencias
incapa
confirmar
japoneses
Patric
pensamos
creados
urbanismo
tercio
competir
manifestación
extraordinaria
expuesto
cuartos
##dt
##desh
Miles
melo
Ase
tubo
Vigil
docentes
onda
##áp
remon
designación
##cante
Cuestiones
Nathan
intervenir
Palab
##gregación
Pón
Detén
ove
ari
cach
##cic
marcos
persecución
REGL
coma
Singa
##fan
ínte
mur
Punto
##ficante
##éanse
##raste
Gordon
dinámica
mire
lealtad
cometidos
Arro
enfermos
ayudarnos
juvenil
musulmanes
fabricantes
neto
reglamentación
presiones
respaldo
capítulos
canto
interiores
##acientes
Loui
supo
vencimiento
poquito
pudiste
contemplados
catalán
gall
tomen
negativos
Fabric
UR
Rin
transmis
mina
manteniendo
##elar
reduce
Haga
espaciales
acoger
combin
##temos
Stra
explosivos
convención
abusos
protagonista
##TOR
iglesias
lágrimas
monetario
Eura
Generalitat
Enfer
retiró
Lleg
SEBC
##pher
##dula
camin
pánico
ésa
contratado
costumbres
dejarme
marítimo
Pág
pop
chaqueta
SI
##alos
localidades
algodón
cristiana
agresión
Grandes
Resuel
adelantados
Aragón
escoger
descentr
solicitó
Reconoci
##quita
herencia
condu
infracción
llevarse
coron
Dejar
maestra
corrección
pesadilla
box
china
huevo
preguntarte
##gers
reconstr
gubernamental
hig
##jui
imposición
gigantes
Fro
Desarme
panor
Catalán
parroquia
pasillo
helicóptero
especialistas
##daje
mires
maquinaria
comido
Llegó
establezca
##peta
##deas
asientos
salarial
##antos
contribuido
recoge
apropiada
ayudado
Resulta
##acob
1920
##ecos
1939
Dicha
agro
copi
1944
##ótica
grano
supresión
vayamos
matemáticas
complementarias
##bon
##cería
hidr
vegetales
considerará
interpretar
##rena
Abajo
abol
##giado
huéspedes
neer
tenéis
Pese
Expertos
incapacidad
list
##terno
caro
Creemos
gráfico
dulces
Rio
##éndote
hectáreas
Colle
acaban
caracteriza
Bad
comprado
extracción
EEUU
neuro
tejidos
permaneció
configuración
fibras
155
deso
convergencia
##tene
canta
##fiquen
bestia
##dela
baloncesto
comarca
protesta
saco
##uses
finalización
óp
crean
##89
insol
enfrenta
##abellón
consideraciones
Instru
quiénes
coe
bruja
erradicación
pájaro
##edy
deportivo
estrictamente
bolso
saneamiento
Miller
##puestamente
parezca
secuestro
##orios
envenen
Euratom
CAS
presos
##the
cumpla
incluía
gritar
cabec
prisionero
inmor
invertir
producida
##rona
afectada
##aza
complej
órbita
RA
incluyó
1955
prestando
##stem
crucial
preguntado
corregir
Operación
registrada
genera
denominados
casualidad
priva
mantenga
llamé
tron
temer
##enses
visible
escúchame
gobernanza
matri
Magn
inmobili
##FF
Ejecución
enfrente
Socorro
aportación
##tonia
demandante
semestre
limitación
REGLAMENTO
Nació
Mec
##rést
pusi
Marshall
esencia
distribuir
variables
ná
vinculados
Azul
##quería
retirar
descarga
medición
unido
griega
catedral
contestar
Final
sufra
Selección
##een
lac
bloqueo
##hire
encontraban
##erías
crece
conquista
##bica
136
Díaz
mexicana
obligar
halla
alimento
azo
##istencia
reafirm
urbanas
##ómez
Armenia
##laron
criaturas
pedazos
##uez
módulo
##garo
Ox
##nar
bicicleta
circular
medioambiental
##sela
riv
metá
By
Gómez
operador
Day
vinieron
armario
Modificación
Encantado
esposas
permisos
obses
##culan
protector
reemplazar
contratar
Normalmente
##pico
Sum
##ledo
íbamos
dedica
gem
##cosa
presenten
distingui
##cinas
amaba
Busca
transparente
preocuparse
##alla
dependen
dictadura
habrán
##iti
##adme
##gamiento
Azerbaiy
Increíble
golf
Defini
PD
##IDO
tolerancia
tarifas
aduana
Figu
disparos
cobarde
depresión
Ocho
##alizando
incómo
Nicol
##IEN
filas
##ariedad
escucho
disculpa
aburrido
Paso
sed
##ficos
cañón
tramitación
Ev
mantequilla
muel
despierto
Oa
registrar
Maggie
minor
123
metodología
sabrá
dejará
##mail
entrevistas
FIN
implantación
sostiene
intoler
promesas
Tendremos
Pel
##ush
##animidad
Singapur
iría
##qués
Transporte
mural
seguidores
débiles
gre
cláusula
queja
Trinidad
contractu
##pers
pere
Salón
horror
municiones
arren
presidencial
vendría
devas
montar
afrontar
zar
subregi
decidieron
Seguramente
Disculpen
##gari
##larse
arb
oficiosas
rapidez
diversi
##tif
comiendo
1956
distinguir
preguntando
ayudante
criti
Descripción
##jadas
especta
variación
##bricas
argumentos
conexiones
pasta
Cuerpo
ME
desembo
Mercado
ocupó
desfi
negó
concluyó
colaborar
##udal
sostenibilidad
##tol
provocó
inflam
##zoso
advi
##minente
##mus
PU
Azerbaiyán
publicados
Prote
Esperamos
##izas
Virginia
Music
autoriza
##bierta
##yd
aliento
Apa
Angel
Love
164
Vive
mama
forestales
##éisbol
##fobia
1959
pegar
estudiando
temperaturas
masac
divisiones
cambiando
##ápita
##ericor
avanzado
##jara
Escuche
machos
periódicamente
tratamientos
calific
tesis
referentes
artística
llevamos
adaptar
muestre
ópera
revela
##tala
práctico
llamamos
Anoche
pad
llevarlo
Tendrás
end
claras
incluya
Regiones
retroce
Facultativo
cápita
americana
discí
##ucía
minerales
##osidad
leyendo
remol
podías
literalmente
DA
experimento
Op
decimos
variedades
irás
salvó
miti
##óxido
Davis
Chil
poderosa
ocultar
Sube
##ERA
revisado
##vados
##bac
##lot
##0000100
admisión
Acaba
dirigidos
sexagésimo
reúne
##adía
ángulo
ejemplar
vengo
##jaba
localización
abiertas
mencionó
firmemente
amanecer
estupendo
##piros
suscri
Tr
##ganse
vaci
volvieron
adulto
regrese
afroamericanos
Alre
Nación
lev
pluma
##lora
Diga
liberal
predi
descubre
auxiliar
EUROPEAS
contribuye
restitución
##jimos
sobrepas
justifica
##lazamiento
Cuáles
estructur
comedia
centra
##lago
Lugar
gustas
curva
inocentes
102
Torres
abandono
puntual
Industrial
##rison
##izó
Querida
##try
Respecto
encontraremos
Muévete
invis
importaría
curioso
otorga
sta
COMUNIDADES
audiovis
decírselo
definen
nubes
##endas
##quili
escapó
##caciones
Buc
Ayú
Gregor
asisti
ocurra
##entados
retirado
gara
encuentros
desembar
situados
reflexión
distor
Dá
Repu
marchar
causó
mandó
funcione
Reyes
NA
hún
tortur
DIS
Alteza
precedentes
insuficiente
peticiones
Global
tox
cerebral
especializado
positivas
automóvil
pato
extinción
Víctor
siguieron
repent
retirarse
incons
textiles
cooperar
sureste
extender
profe
##med
enví
##tete
impulsar
volúmenes
##osep
Introducción
monasterio
FE
grasa
##usas
complementaria
##udita
sostener
prometido
australi
Soph
dieci
##gantes
estrés
civiliz
subdi
Atra
modernos
ancianos
ayudarlo
Terry
racional
suro
desplazados
plenaria
Socialista
##ross
##88
##ards
Angola
desarrollando
quedaba
##ERC
veneno
bolas
profesora
##orth
nac
beca
localizar
colina
consolidar
##ánd
Verás
##osamente
Trae
##ader
Aran
sabiduría
dotación
pasaporte
turistas
##mando
miser
##tase
oídos
##ray
##mada
acusaciones
desac
##fusión
asentamientos
mención
##bour
Alrededor
higiene
compañera
##alu
##gne
reconciliación
exacta
##orio
gus
insulina
registrados
discrimina
Solamente
##grados
##iff
Tol
##iéndose
involucrado
subcon
ambulancia
receptor
sobrino
Prepara
##ceae
Cuí
adolescente
##cionó
Tratados
caos
adquirido
lác
Clau
Aseg
tropical
##amaica
##GET
##pole
bahía
1954
nerviosa
Mantenimiento
Constan
Pit
vendedor
##eho
quie
Pom
urbanística
fide
Rosario
publici
Firm
interven
confirma
salsa
##nan
##aca
sofá
Prefiero
transcurso
PP
probabilidad
explotaciones
##bíd
sopa
Asesor
muera
amerin
vámonos
Volveré
veamos
inclusive
Aeropuerto
romanos
saca
ST
Conserv
verlos
manzana
dejarte
Liberia
##loe
##dense
MON
112
##tem
Helen
Arti
quedaré
darnos
muñeca
##ufac
Tóm
neo
High
##53
350
curar
Personas
##tricos
1941
gerente
##unes
rendición
die
unanimidad
##trop
extraños
##gámoslo
Hugo
entab
Victor
lumin
disputó
desempeña
Lou
previsiones
disminuir
pienses
Sír
Conde
viajeros
Google
##acimiento
sentirse
Andalucía
##sea
reunirse
dependencias
sujeta
prose
supre
Letonia
odia
##brados
medallas
##mu
funcionó
##patri
bendi
Definitivamente
seca
estándares
oso
Vio
Decide
##MO
sensibilización
Felicidades
##vación
134
##ionada
IR
Refu
##érpre
##diz
becas
procesamiento
Hum
##inidad
lío
escribiendo
arriesgar
Nel
suelos
confirmado
TE
habida
##idor
pedi
seriamente
permanece
hombro
comparte
ms
olvidé
##eller
entrando
embajador
Idio
hígado
data
digitales
Islandia
contrar
##ANDO
acordar
ministerio
probado
prej
liberar
investigador
catástro
Long
altar
Resuelvo
##ights
Allen
##olf
preval
##ástica
Adjunto
Camb
##idal
Libia
Suplemento
Greg
Aparte
evolu
##formas
Rural
eligió
##tían
Papi
##seos
complejidad
##GA
sujetas
favorables
##paje
Legisla
difundir
Cristi
rigu
naval
camiones
pasivo
preliminar
quedamos
minim
##facción
Royal
interpretó
Laur
Centros
alfabe
inesper
##tramos
##tona
resal
típico
##uérf
top
ingleses
volando
##mones
pertenecían
INTER
acabas
proteínas
ic
insegu
cuentos
##hit
McG
blancas
acelerar
creciendo
escándalo
##unior
##deci
dedicó
atravi
supervisar
##mestr
ciclos
reten
argentina
Consejero
Régimen
Cualquiera
##certi
##cta
matric
pacífica
Mauricio
sinté
obreros
amparo
favorita
representado
Gold
meridional
Deportivo
Ala
coman
metab
##55
tanque
Fla
provoca
##ESCO
asegura
monumento
niega
##boro
pasé
potenciales
##81
resultante
resumi
enjui
Burundi
ficha
corredor
Llevo
Natural
llé
Créeme
portugués
mato
Iniciativa
Tenga
##uco
deterioro
confía
trasera
##prudencia
auxiliares
Descu
Vincent
##chester
centímetros
físicos
popularidad
Absolu
##tómica
quejas
TARGET
jardines
##urs
##cron
extrad
autorizada
Pareces
inspector
166
lluvi
pasaría
nominal
estadísticos
##bón
correcciones
portal
use
Muévanse
colonial
horm
Arre
catálogo
llamarme
##hel
##lins
metales
Expres
cruce
equivalentes
manipul
##terizos
astero
##clatura
Montene
##mela
##urado
##guardia
obstáculo
Confederación
##IE
muros
Charlo
identificado
##leños
movilización
##rían
Emer
patria
venez
##ísta
flexible
cabina
tortu
én
orquesta
##dol
Ace
Land
alivio
Noche
Nam
oscura
especialidad
##mbolos
barba
##udicial
provincial
Continu
Pregún
##andal
culpar
##iana
Christo
Encontrar
Glen
emitidos
manifiesta
crema
##arización
ayuntamiento
preservar
##áramos
mejorado
sientas
##lash
Sú
##ENER
Montenegro
Compe
AF
Lorenzo
nace
estipul
actualizar
sacerdotes
##OT
marinos
homologación
Shin
salieron
meteor
medianas
##ueve
prór
Cele
debí
subpro
inus
Lincol
indicaciones
Plus
lecciones
sentimos
tecnológica
Agra
oigo
recibo
estrope
Querido
integrante
##ambia
marino
destinos
Nicolás
dudo
cardía
malditos
implementación
doctora
danza
medianoche
cristiano
Mexic
columnas
lucro
Qa
cuadrados
enamorada
estimado
creció
planeado
operacionales
LE
enfrentan
citas
cobrar
partid
interrumpir
lámp
Dominicana
Estación
realicen
Discrimin
1946
##set
despo
discursos
venezol
NL
##uventud
##hr
orígenes
correspondencia
##róf
hablé
ONUD
Bangla
##CIAL
reinado
Hable
##alt
circunstancia
220
sincero
explicó
##tima
Asso
despedida
alienta
1951
##álv
llego
provi
fijan
cabecera
centr
Christian
preparativos
masiva
amerindios
##tánea
gestionar
Acu
Lit
traición
League
Llámame
terremoto
Llobre
##licen
pilotos
italianos
##tag
hip
dominante
##cindi
Agust
usada
gent
caridad
##sten
tramp
autó
pájaros
##vs
vial
finca
sanitarios
suyos
vendió
Blue
Slo
cantón
122
emoción
##ersey
transn
siéntate
##celes
Conoci
exponen
Hacienda
##fol
molestar
liberalización
alimenticios
simultáneamente
vela
Lily
Hiciste
cercanos
suponer
nombró
##etero
suroeste
poema
Administrativo
Matthe
##bando
estimación
inspiración
Venecia
##dumping
Hablando
entran
Paulo
Anth
demor
pesos
Llobregat
##limi
terrestres
Confi
irán
Despe
Lucha
Tercer
##ceptor
perdieron
Fantá
Católica
##lita
esperas
Island
Estadio
derrotar
cobre
existencias
pongan
estrecho
fenómenos
artificial
embri
sólida
sensibilidad
##TIV
cálculos
externo
intenso
##cru
dedicar
espectadores
Bangladesh
mudar
emocional
Marcos
peregr
estrenó
1952
interesantes
Herman
sacu
apoyado
Territorio
univers
aislamiento
subterrán
obsta
fijados
FED
Tig
##arían
Muerte
Eugen
dormitorio
hey
maternidad
fuertemente
equipamiento
##fle
##gram
##ODUC
Acer
convencionales
contengan
demostración
encantador
contenta
Sabías
incidentes
romana
##dura
rap
radical
feo
centen
selva
Dro
Inspector
celebradas
Quítate
##anie
Cient
rup
coalición
Disposiciones
talentos
CONS
Merce
Biblioteca
advertencia
1942
##quinas
caba
##irán
Tyler
análo
diera
arquitectón
Antigu
UNESCO
intérpre
Nas
Guía
coleóptero
##birá
Despierta
separa
comprendo
divide
apu
practic
Autónoma
ponerme
inverna
##olvió
caca
##uestra
Felicitaciones
Lincoln
Armada
##guila
noveno
sano
alegre
viniste
##alizaciones
deficiencias
Ambas
elevados
doctrina
pisos
##sch
acusación
Sebastián
Conclu
mensuales
Compan
expulsión
Labor
consideren
liti
impide
vernos
CB
##56
##carb
dorm
are
denomina
regularmente
Estaban
##UP
corpora
##andra
cónyu
bolsas
rebeli
bl
viniendo
decor
alejar
Beat
creas
111
patrones
Flores
disputa
capi
tocando
amado
escasa
lograron
Finanzas
incerti
casados
concentraciones
rodeado
Aléjate
sumer
##uelto
culmin
expon
olvide
expedientes
obede
portada
FOR
Albania
Puesto
entregado
Eras
aceptable
1943
inmue
jab
Serie
OEA
produzca
compatibles
falla
autónoma
urbanísticas
DECI
Play
consideraba
emocionante
##alizan
serpiente
oradores
Alexander
Stephen
Valores
esencialmente
sólido
viejas
Canarias
##elanda
protegido
inicios
Políticos
colgar
salvación
defecto
##gresos
Tendré
sufren
seleccionar
NAS
participaciones
Vayan
Ass
##83
##lip
moverse
Golfo
aspi
insuficiencia
PNU
Piensas
lesión
##talizas
##ped
##enz
Chad
payas
vuestras
remedio
Estudio
Especialmente
resultantes
hortalizas
protocolos
salariales
acabe
Torneo
vege
##uencia
ángeles
empezamos
camina
Rui
##SP
humedad
convirtiéndose
contingente
Objetivo
refería
Suprema
deud
Mej
bó
japonesa
entienden
Financiación
SER
estimular
experimentado
autopista
cueva
##inero
supuestamente
recibidas
encomen
dias
enveje
##inal
antidumping
##doras
máscara
core
sistemática
asustada
emitió
pondré
arrepent
##onados
conscientes
vivimos
Prueba
pongas
costado
Beth
conducción
PPE
##ándoles
Marty
salvado
duró
quedé
huérf
deven
Proyec
hospit
aduanero
vegetación
##rác
Gloria
consistente
ordenado
fisc
Dispar
dispara
##nm
furi
trigo
coro
##rino
##gró
epí
Prést
especializada
sabían
pdf
1953
pozo
##46
barato
gab
##urias
continúan
Armas
marcar
fruta
##ules
deca
fotó
orgullosa
provisionales
##ory
##jese
debutó
sepul
biológica
reporte
cham
multa
isl
científicas
Augu
Stone
##radora
absten
hábitat
surgió
DER
mueren
torpe
##efes
Doy
cica
errón
digamos
operativos
Nuestras
Bin
mutuamente
dela
recinto
genética
huele
##reos
cadáveres
##politana
##tuoso
inversores
##uss
##vertido
raras
llenar
##lac
Honor
escasez
símbolos
##raré
concluido
sever
##ety
eléctricos
servido
Siéntese
paquetes
distribui
escritores
USE
aportaciones
Propie
nervios
siglas
##ONAL
protestas
Camboya
Ces
atacó
vengas
sesenta
Conoc
empresariales
pasamos
fauna
administrar
encarga
darán
situadas
cad
emprender
montaje
secretaria
##culas
Nancy
##bab
##51
participen
sospechosos
Hé
corro
jefa
##UES
comprobación
Trata
encanto
evolucion
descom
##tain
reorgan
espía
##dale
NT
tibur
viabilidad
profundas
universitario
tomamos
enfoques
volcán
universitarios
##gaban
Alicia
bode
##yanse
constituido
Nepal
décimo
superficies
reembolso
concepción
##elli
conexas
ART
enmen
Estadística
Tranquila
viuda
rú
refres
bauti
##arago
cuartel
rayo
negativas
##board
##mera
confidencial
##zobispo
estatua
Port
School
resulte
##árra
radic
amplias
##grar
##estra
Cerca
desequili
ligero
dispararon
corporal
virgen
efectuado
modernización
rival
##citas
estimul
##bimos
excepcionales
Pod
tira
matriz
fantasía
enterrado
Associa
ratas
Defensor
MAN
PES
famosos
##beros
comprometer
alumno
verdaderos
joyas
occidentales
Comien
insectos
construcciones
MIN
och
deportivas
prostitución
Discriminación
East
Escuchen
##ganos
##ayo
galard
nocturno
saldos
combustibles
118
desagradable
convento
suprimir
ferti
rota
Capital
máximos
Podrían
masco
##ógeno
lleguen
Ill
sintió
escar
##viente
##eman
##dena
gatos
brillan
producidos
detuvo
otorgar
Fom
Consorcio
héroes
##ásico
superado
adjunto
##xon
nacer
tanques
parientes
##amie
inneces
##CR
cazar
##39
Mora
Deje
Sigo
Directora
complejos
desearía
Spa
automática
Saudita
obstacu
introducido
Entren
##baste
##eciendo
Charlotte
despues
dividir
##OE
acumulación
cubiertas
Gib
Moham
cese
##hes
cocinar
investigando
Grand
Página
Coordin
Gun
explorar
naranja
experimentos
inventario
energías
Harvey
##AMI
trabajas
trimestr
botas
exhi
Aérea
desple
##enia
apuestas
##xter
ediciones
##aduras
##ariciones
suspender
bonos
adquirida
matrícula
asociadas
pabellón
gustado
##itro
##gulares
reducida
definidos
indígena
encuestas
Ganó
Pá
concedidas
Corporación
hoc
exploración
##ng
##quel
incentivos
anterioridad
##uminio
##ísmo
bin
##lético
jugado
teorías
crán
mision
interlocutores
##mel
dedicación
cartel
impone
electorales
Hur
##veda
##pus
Buda
volví
Muést
volvería
##bada
analí
eI
prefiero
ascensor
planteamiento
Agar
usados
tac
colaboradores
144
##ARIO
almor
predic
Bes
##hn
Chloe
ahorrar
constar
ayudan
victorias
despedido
desorden
inco
palo
##ércitos
realista
postu
entro
miren
##fato
retribución
cuidadosamente
Pose
regulares
OCDE
ética
difun
Good
Confía
grandioso
historial
relevante
aéreas
nadar
cale
##BR
aspira
argument
enér
mejoramiento
pañ
##randa
mejorando
ESP
Clay
Dere
masculino
##uld
urbanización
veas
Comunic
PN
##árez
mentiroso
aerop
Chico
porta
belga
paté
Terror
aeronaves
agraria
encantadora
silves
ofrecido
Profesional
informará
Eliminación
##túan
fér
intentas
##iac
seguirán
aprovechamiento
Fac
señoras
olímp
armonía
maltra
incum
Estupendo
interino
fundamentos
cables
desafi
fusion
ligera
presentaciones
mapas
msnm
previas
impuestas
comunista
Análisis
romántico
Categoría
decida
Original
Pele
controlado
Trato
índices
propici
Estruc
Federico
##gimiento
llevarme
ame
Hablo
##jería
autorizar
vence
conocimos
placas
provenientes
operar
intensa
labores
pecu
compensa
##tory
Escuché
Conoce
chim
disciplin
Dul
decente
experimental
Absolutamente
claros
1938
##tigo
Alimentación
##tizado
disponga
barreras
##pica
apliquen
asignados
maldi
playas
nomen
artificiales
vaca
##elandia
sospecha
##bury
autobuses
divisas
recibida
Sostenible
leí
rector
Case
chis
compré
deton
directas
auténtica
Prepá
recta
azules
SS
dinas
mail
acusados
tóx
inacep
##zaste
CM
##gibles
concedió
##OC
integrados
##íferos
hayamos
conectado
basan
asigna
imprescindi
digno
Lament
muero
Leonard
espaldas
obligada
bancaria
##listas
azar
verán
beneficiaria
patas
##rill
Objetivos
mecánica
##sil
Ever
compleja
##esco
comienzan
automo
##institucional
digan
Consegui
proporcionan
Patrimonio
metió
##cuerdos
detallado
convenciones
##MIN
##ult
resistir
ponerte
decirnos
Mendo
pasara
pion
buscas
entregó
##ueva
expuestos
tocó
controla
asqueroso
apéndice
pur
desar
##órico
sanitario
incluirá
Michel
Enseñanza
##cies
SR
Sistemas
cuel
materna
##entre
##chan
Relájate
piense
Sport
centavos
corporación
renovables
tumor
##ratos
##esis
Perdóname
sagrado
presupuestarios
cuero
##bin
automa
Atenas
##fonía
veterin
paralelo
College
marcó
comedor
sentidos
Toledo
##ócratas
##ells
cría
##52
him
Abu
acontecimiento
Usa
Estaremos
haberle
narra
Valor
Estatal
Tir
##porto
Luci
puntuación
adjudicación
tomadas
FAO
Vel
Nico
my
golpeó
misericor
Belar
fantasmas
lateral
aliení
Insta
PRESID
rotación
clínicos
pizza
agrupación
##citamente
Solía
sindicato
##rita
pale
Thor
cobr
Margar
Notas
ISO
robot
##galo
Milán
Culturales
desarrollan
##tentri
saludar
Investigaciones
Sas
Adri
empeor
tapa
Lex
crecido
iluminación
Fabricación
apagar
Regresa
excesivo
Ejer
Suéltame
##cente
cáps
CS
##ustin
Deli
globalización
BA
encantan
esclavitud
rata
griegos
Ivo
Foto
mand
Catalana
##trea
cosecha
manufac
pudiendo
maravilla
aje
golpear
vertical
146
extras
calcula
cubiertos
divulgación
enloque
heroína
restricción
Tuvimos
##ribución
asamblea
##nica
Tendrá
One
##erem
desempeñó
ajustan
estreno
buscaba
acordó
encarcel
invernadero
##ócrata
##ou
Determin
certeza
Exc
##ónima
fósi
comisario
destacados
##aragoza
porte
mami
enviaron
mediodía
##ats
prácticos
Sene
119
ruinas
entusiasmo
dale
gravemente
seremos
horizontal
llevada
extremos
exponer
suscep
biodi
Anim
Lt
mutua
Samuel
##ficios
Constitu
informática
intersec
aviación
estarías
mercancía
Sigues
álbumes
llamaron
Bogo
##PI
##ocidio
Nad
fabul
Bienes
##gno
eterna
Reserva
Destr
##icht
semanal
potable
Línea
##cima
educativa
operan
Uso
Benjam
estacionamiento
salvajes
Cather
Carolina
extrañas
decírtelo
Suficiente
interfa
France
FMI
Marte
contenidas
concentrar
Top
##sivas
##fort
religiones
conlle
candidatura
cuidad
chileno
confirmación
definiciones
saludable
propósitos
INFORM
128
##urar
afe
Myan
dictámenes
compone
alucin
autora
billete
deportiva
##uston
Caja
vulnerabilidad
químico
orgánico
Spen
cañones
##fero
mesas
improvis
súper
votado
síndrome
##zis
##sable
Obama
duerme
Fantástico
Bry
bul
Debí
vuelves
pesada
##viene
121
cerdos
PO
##leos
únicas
Vivienda
Castell
COMP
novelas
constantes
##cionario
##tania
Habana
buscado
tíos
alimentar
consideradas
asumió
##ING
rasgos
Arn
cocaína
conseguiste
ladrones
contempladas
actuó
béisbol
capas
frac
francos
prosperidad
preferencia
canadiense
indio
##gono
rechazó
tocado
apreciar
camiseta
Desearía
seamos
bebiendo
inmunidad
rompe
computadoras
turco
Perten
Iremos
vuelvan
PM
##aime
macroeconóm
habitualmente
##tosa
Delito
valioso
recomendar
##ípro
Vienes
cuántas
Estarás
sonidos
Ian
divorci
rebelión
edific
manipulación
callar
dictado
Bac
Calma
Pascu
intes
##usura
defien
observando
asesinados
##tipos
establecerse
##teto
Español
cuerdas
decenio
##toras
reconocen
##vard
lógico
gratuito
lastimar
vigésimo
Boletín
fresca
##psis
demasiada
historiador
Programas
desgraciado
perdidos
##éticamente
definida
##ulos
acoso
##ueras
Perio
Amer
octa
controversia
##allas
deseen
uniformes
Marcus
Hombres
##day
Myanmar
ayudarla
relevantes
temporalmente
jurisprudencia
ejerce
flujos
##ehová
chal
##tánica
##ensos
esquema
##utos
Russell
Alon
cortos
síntesis
finalizó
sentarse
mantendrá
conseguí
credibilidad
##udy
preve
arrancar
aguja
videos
reconsi
coincide
servirá
##als
residente
persigui
devolución
flam
varones
atmos
residencial
##feo
tesor
adquisiciones
tembl
inac
##íqu
Mami
##ficas
##eval
Modelo
promovido
1933
secundario
AY
cesión
impugn
legislativa
eliminado
##tena
adaptarse
invas
Amanda
##atch
convencional
aplique
urbanos
adoptará
susci
sher
desin
##urrección
pate
Inversiones
socorro
Hans
confron
cigarrillos
##RC
bondad
tomada
continúe
Independiente
Constitucional
continuamente
espectáculos
113
eficazmente
exacto
Argent
##igma
Donna
Bau
Vila
complace
Hard
alentar
asegurarme
OIT
Molly
bello
artillería
Puente
##gata
comodi
##vate
infracciones
refuerzos
aluminio
##ariado
confec
ances
añadió
##issa
prestan
piedad
escondido
Lé
tela
SAN
vec
utilicen
exclusivo
DOC
##arcal
trauma
cancelar
##olo
pastillas
privacidad
1931
entes
vestidos
receta
experimentar
Catherine
Descan
Viol
rehenes
##000100
revés
pagó
hambri
publicará
energético
vives
galería
compensar
Esperaba
Florencia
482
Amén
##net
Center
##penha
##cht
tó
Mendoza
olvido
Intenta
Observatorio
incorrec
racion
Road
Enseguida
Considera
dividido
adorable
académicos
##urbios
habituales
Pad
intenté
jazz
Clara
Parecía
españolas
asesinar
##ving
decepcion
Tí
llo
estilos
parroqui
ubica
##ticia
párrs
tomarse
plomo
lavar
subs
##pón
OF
Bogotá
extraer
indicados
Sing
concierne
##ansas
aguantar
Documento
casarme
##manía
contribuyen
##bate
##curio
##etes
equipaje
##jamos
##rato
asco
mueva
##CL
pasaje
disi
legado
introdujo
magistrados
Cic
Hago
derrotado
sobor
Antigua
espectro
harto
Deseo
psiquia
sierra
examinando
litros
Desaf
juguetes
precipit
Estar
Betty
sepan
##cidades
elegida
feria
permí
Batman
acompañada
##bridge
Inglés
pedimos
vacía
ligeras
administrador
horno
escuche
llamaste
##lula
primordial
contactar
persu
Izquier
##andés
premi
sugirió
comenzando
recípro
aterrizaje
transacción
##tana
##chate
reparar
Ral
significativos
##tancia
automático
##lem
Company
provocado
resultan
catalana
vecindario
##tit
##dure
Bron
Independencia
cambian
hablarle
gi
considerables
nombrar
tenerlo
##bis
Salvo
Técnico
deban
Itali
##ímetro
Corona
fianza
degradación
atas
apete
Vega
confesión
212
íntegra
Rodri
##mir
tendrían
estuvieran
tontería
Documentación
presidenta
plataformas
Senegal
empecé
apas
comidas
beneficiarse
juzgado
Press
Fá
chiste
##vania
inal
consolidad
Aprobar
transe
##astas
dejaría
##vich
##jec
Vari
Margaret
interroga
negras
OTAN
##posi
artefac
demostró
hier
prórroga
##ártelo
rutina
##house
Tomás
paliza
reunidos
asesin
Broad
acercarse
poseer
bilateral
retrato
decoración
##66
##yase
gimnasio
describen
podéis
enlaces
anfitrión
##dom
##emo
Brome
##vision
contraste
producirse
margin
crearon
Dise
##bet
##pef
Matar
empiezan
docena
##essica
##uo
##mbres
Gio
sexta
prohíbe
adivinar
Clo
Directrices
##fasis
merecen
##bula
reflejan
Minister
nieto
confis
cerámica
encantado
##estias
prohibir
Thom
deportista
cantando
derivado
podíamos
reproductiva
enfadado
Ref
maleta
fieles
liberado
Pun
fallecido
revesti
círculos
sanción
gritando
2019
confío
USA
##torce
ingredientes
consultivo
##rence
Prefer
tenis
##guer
patente
receptores
ordinaria
continental
aparecido
noción
guardi
Comenzó
Ciertamente
adjun
deposit
diseños
considero
##didamente
asim
ofreciendo
collar
turístico
renal
permitiendo
##QUE
apropiados
REC
públicamente
acú
producciones
suceda
reconocidas
Adop
enviados
inciso
voluntarias
promete
sonar
cron
perseguir
##cían
Clin
vacantes
Cine
humanitarias
semifin
proporcional
##vame
disparado
Disney
probabilidades
##ennedy
tími
metál
Dim
PNUMA
ruidos
cigarrillo
River
precedente
observador
enfrentarse
enseña
##chura
laboratorios
Bernard
PRESIDENTE
##genos
notables
planetas
##nell
iran
##gible
##adecu
mediación
diagnos
SAL
agarrar
amantes
Noticias
comprobado
buro
solicite
inest
Café
sentada
agru
sucesor
fatal
Belarús
135
Comunista
afueras
seleccionado
Mada
propi
absorción
Rei
duradera
##pulos
aeropuertos
surge
gritos
poblado
heredero
Dig
Yan
CENTR
##tton
Miranda
Supervisión
castellano
##óso
Cuarta
advertir
Angeles
##ties
concluye
francesas
Colo
Arqui
##fina
subasta
##ariana
etiquetado
brinda
tensiones
Bella
monstruos
Tanzan
pudieras
##éricos
Idiota
corrup
falsos
Fort
indicador
afirmación
Sally
protege
##jaron
condicional
Brun
madu
infecciones
sabia
Cuarto
##tibles
itiner
ésto
Bara
Diari
Bás
Nich
elimina
sufriendo
##enya
garaje
Montre
redu
enz
##onatos
refuerzo
Alba
talla
integra
1929
alternativo
Anthony
Grant
torres
visitó
Déjenme
Raci
ochenta
examina
mir
logrando
vinculado
márgenes
espíritus
ejércitos
##omi
penitenci
Ltd
santos
Hoo
Princesa
Perceptor
estatus
encontrarás
##ays
##hidra
##deme
absurdo
##uana
delegado
escritas
comunicarse
Cosas
autent
EUROPEA
##ísimas
##rest
##tives
##drez
retom
comúnmente
suav
invad
##vale
vientos
lavado
contemplado
reveló
1934
peculi
##zara
##core
##péu
##ceno
##crip
##ól
sucesión
abord
##TS
contradic
exigen
Instituciones
actitudes
##imbab
há
##hl
Elector
preventiva
énfasis
obteniendo
milen
Nelson
reunido
Sector
entraron
##timo
Espec
sanidad
adición
##gancia
edades
encerrado
Desapar
Str
muri
rechazado
Trabajadores
Dylan
minus
lectores
reciba
AUT
accesorios
vegetal
##cribe
turnos
Medicina
##ORI
##ridas
educativas
nova
##riz
recopilación
Ultra
llames
isleños
##eal
desfavoreci
grabaciones
intervalo
convocar
fos
tribus
notar
Gam
socialista
arruinar
estarían
elef
creencia
prometió
sugerencias
comparten
##gable
##acques
##enni
extremi
cráneo
poemas
reivin
Dep
##enofobia
despro
desayun
dumping
pronóstico
controlada
##ciosos
sheriff
pesquera
##ild
Caracas
Producción
Moz
dinastía
transportar
colonias
fax
Sheri
recibirá
Gente
##grafi
correos
Rumanía
time
estudiado
##sivos
Post
vinculadas
permitiría
Digamos
macho
reflejo
foment
eléctricas
##afirma
fábricas
confer
contempla
ordenar
castigar
facilita
eman
Principios
sensibles
Hermos
##VE
reglamentarias
convin
##ximo
cállate
frá
##primido
FAR
desnudo
utilice
##pefacientes
Creen
Harris
protegida
manus
COR
Gales
influencias
Discúlpeme
inevitable
1935
Señores
olvidó
portá
repatri
subraya
ayúdame
##ele
##ilipol
tetas
propaganda
referido
hilo
narco
postal
Ruth
##ológicamente
EF
##MS
TIC
almo
Ivoire
##onathan
gradual
humilde
##posa
Hugh
paraíso
depre
Refugiados
modernas
Ingeniería
Avan
##vern
Copenha
arruin
ratón
transcurrido
Ignacio
##fí
1918
##gam
##ficantes
Penny
produzcan
Bom
##boy
designados
logo
monetarias
Paci
auditor
incapaz
incertidumbre
1932
reconoc
ilusión
coraje
establecerá
demuestran
Pari
mide
##tientes
cuanti
##ONA
respiración
echado
localizado
aparcamiento
BR
anciano
pelotas
trascen
Are
urgentes
BEI
Ocup
registró
Proble
firmas
Navarra
descono
Camer
aventuras
clandest
##pic
Aum
bloques
vampiro
filóso
marítima
Philli
Spo
dial
híbri
ruptura
Tara
from
Dir
alturas
nomenclatura
ajustar
Adol
salimos
atentado
cintas
inconven
conozca
compasión
Aparentemente
monopol
interfer
tuvieran
inadecu
morirá
Agustín
intentan
EUROPEO
deseas
efectuadas
Tech
Semana
##atie
##TUR
titul
cogido
##linas
##bidos
##45
precep
fallecimiento
atmosf
lee
nobles
Diri
reflejar
##gg
##samente
petrol
santa
contable
Federa
ecosistemas
hablemos
##azaj
normativas
133
laterales
Hernández
##rúr
potes
##lidae
##PM
vivían
inad
##sol
Houston
tubos
levantó
cabaña
Sudamérica
pulso
Prensa
exitosa
traidor
consonancia
Darfur
sorprendido
ausp
Gastos
felicitar
gesto
dirás
Vengo
matará
optar
Tin
bendición
eventualmente
##ORES
definidas
instancias
Mó
excelencia
inteligentes
parques
pref
repercusión
cilin
Atlético
##acas
Haya
##200
solucion
450
tomaré
separadas
galletas
##oaquín
Mercedes
##bata
mediterrán
Monter
foros
##vase
Ios
gafas
nó
Fle
cayendo
sabría
sana
movilizar
aflu
##ísica
Ghana
mundos
satisfecho
quemar
hablarte
delincuentes
Catedral
reflexion
##istic
abus
Depende
pedidos
acondicionado
aborto
conocerlo
Abraham
SOBRE
salgan
University
Olivia
Impos
judía
presun
##gascar
accidental
incorporado
alzada
adonde
Televisión
Abran
psíqu
prestigio
Puerta
##quesa
torn
Estuviste
singular
Pros
establecieron
cartu
Hábi
##salo
anunciado
Norman
trajes
vers
describió
sabiendo
exportadores
sólidos
##lló
##ffy
Chap
##vy
Recor
queridos
preocuparte
instalar
explicaciones
sedi
##aman
REL
Martha
Precio
Vati
Habita
manga
introdu
##izadas
##amora
ola
duras
Stal
extradición
molé
##zbe
oculta
Fortal
Ruiz
Situación
##43
ecles
##48
##ob
tontos
ole
afirmar
mentes
queden
infil
##video
comunistas
##umiendo
##tts
preste
Arturo
Camar
empo
Mirad
impunidad
Michelle
Vlad
minoría
brillantes
escultura
Gray
contaminantes
dirigirse
graduación
vice
Olvi
##ladel
crónica
##dillera
sucesos
batallas
apelación
Haremos
posicion
##cle
OMS
trastornos
universitaria
crist
Teníamos
supera
descuento
encontrarla
disolución
centrado
##dren
periodos
tabl
Cristina
proveer
##bell
##biertos
Batalla
##vana
afortunado
DERECH
##iblemente
nacidos
Tomando
protegidos
recopi
Emperador
eslo
desaparece
Norma
asistentes
echo
Cr
##sau
ofensiva
cualidades
puls
litoral
llevarla
patatas
tecnológicos
UNF
ocuparse
anchura
sencillos
ida
##ganme
comprador
vacun
guerrero
juicios
asociada
##ova
##árma
prefiere
partidarios
acento
##gener
sudor
Habida
acabamos
mali
engaño
faltan
república
pescadores
##dem
Tos
recompens
TA
ingresó
desventa
##onna
coco
Harold
requerida
##tropo
acreedores
influy
crucero
patrulla
inta
decisivo
excelentes
acreditación
Madagascar
reguladoras
aero
trama
brutal
##DR
merca
indefin
obligó
Spar
comando
autónomos
cerro
Interpre
insigni
impac
##59
falsas
##ced
alza
pagas
impreso
panorama
tripul
##lvarez
ondas
##cistas
aprecio
genocidio
aci
tenor
##zamiento
duros
##urus
adopta
Alt
Henri
##áser
actúan
Nina
sombr
Lem
fracción
hacerla
Corr
Ruta
##verg
obis
inconsciente
Beij
Unas
violento
tropicales
excluir
Holmes
OI
Montreal
fáciles
360
continuará
Listos
aquél
vais
representada
setenta
##TRA
##42
descendientes
Gus
TI
restablecer
vencido
##ANCI
ECU
págs
horarios
variar
subyac
compatibilidad
gradualmente
##estable
Publicaciones
comerciantes
bodas
Montevideo
grabó
arrastr
ocurriendo
Lang
recal
mecánico
tienden
Lois
medieval
##mino
transferir
Soo
182
##uni
alianzas
previsión
Marce
condenados
Mata
Bellas
llevaría
##laga
Bou
brevemente
hombros
pidieron
atractiva
##ichi
juramento
policiales
capturado
Chá
Beijing
ingresar
rojos
asombroso
caracteres
##gadores
##sieur
240
vano
telefónica
determinará
##ATIV
enro
apag
Fol
efectuados
tristeza
forense
apuñal
filial
admite
Lárgate
varía
##colmo
##chu
manifestó
fic
Alonso
sacaste
bando
privilegio
claves
##ICIONES
##ñada
reside
Francesa
Holanda
residuales
recorrer
villan
representados
##tty
compres
interpretado
did
prometí
##medi
##tenstein
##pina
##vero
Civiles
Ps
equivocas
Rap
encargó
legítimo
##GB
repor
hambur
trozo
asusta
combinado
Ellio
ester
diseñados
Tomé
instan
Anderson
Internacionales
Lec
indicada
##hop
guitarrista
##geo
Estocolmo
alejado
zorra
salidas
##hab
##cali
sonora
##zu
Público
##ái
ef
emble
Forma
conectar
##OPS
##estan
Habría
formalmente
sueco
Napole
Columbia
Camerún
##NI
músculos
OP
biodiversidad
creador
demol
quedarnos
comparti
SV
##ote
Salva
oíste
Traducción
##thor
##aneiro
Diana
Abby
dueños
electo
##cord
escenarios
doctorado
convirtieron
132
1928
propuestos
Fí
importan
Hannah
sentencias
llegaste
Mana
Corazón
estuvieras
Fen
##biera
Tuc
rescatar
##right
Memor
conexos
debatir
##taje
doctores
cómoda
138
Adu
hard
huella
Trabaja
muelle
Serv
colombiano
veterinario
Anto
Dejé
obtenida
Vasco
Conce
##zate
llenos
##rendo
interrupción
Llor
Group
rumor
cenizas
Yemen
catalo
##toriamente
alér
lazos
##gueme
económicamente
Mano
radiac
personalidades
##GR
garantice
miseria
Eurostat
LL
Carre
Ye
Local
sustituido
reducciones
ensal
##alim
espantos
bancarias
brasileño
UF
apoyando
Pasó
dejaba
Concepción
congreso
chist
agregar
vendiendo
comunica
##énez
apoder
Hablamos
##aval
##zer
femin
##corpor
##grafos
pulmones
lava
viajó
olvida
regresado
Hagamos
Políticas
exigencia
##iras
intolerancia
traigo
Contrib
230
marrón
extrater
convirtiendo
sanguín
Naturalmente
Valenci
Pró
redujo
Copenhague
vampiros
neta
causando
trazado
Calidad
rosas
balanza
irlandés
bill
Dia
##BE
mudó
promueve
BAN
Sexta
empate
bil
encender
alfa
Cortes
metabol
1914
noventa
##trá
embajada
##ámicas
traves
Deberían
Sust
##etta
CEIP
Ayudas
ESTAD
descargar
divertida
Gene
##tificar
opuesto
secues
actualizada
proporcionado
deportivos
##portación
intercambiar
##rias
Islam
##genas
polaco
recordó
Préstamos
##ICAS
##liga
Dijeron
oportuna
Amsterdam
tenerse
Encuent
pasas
dobles
adquirió
conspiración
Deten
relato
Alcalde
proyección
convierten
##denme
##oven
objeciones
simb
##ambul
Estudió
##gicamente
Tó
##íe
Arizona
activistas
Bahía
discusiones
gastar
bendiga
##ciación
Retro
cerrados
excur
##hattan
expresiones
##cter
comisaría
quirúr
##drául
Vent
Salam
ejes
##jaste
lluvias
PMA
emplear
poderosos
sectoriales
Gr
Rena
brecha
Recu
210
atracción
clasificados
Vince
agradecido
##iménez
##bby
##lera
Vaticano
Bastante
peleas
##valor
##énico
maten
dragón
Reforma
##tizaciones
escuchó
riguros
##pton
entendí
liberales
Eritrea
##gramos
anorm
blanqueo
ib
##éñ
inspecciones
adoptarse
bab
Occidente
Palabra
Sophie
out
neur
##tariamente
pudimos
panel
estatutos
Harvard
Lane
Made
formulado
##clo
prema
##ERS
habia
reporta
orejas
véanse
reen
Llegar
Ath
Fos
opina
multin
##rico
surgir
efectuará
invisible
##etti
##micos
circo
fluc
agrado
estupidez
##daba
##61
Correspon
DG
monto
arreglado
terribles
velas
constituida
##stes
choque
establezcan
##tentrional
reclut
lanzada
##zol
externas
inusual
hábil
actas
129
irregular
Dices
diócesis
informáticos
dejara
Apel
Vac
circuitos
Universo
ratificado
espectacular
Elabor
##usse
##idamente
SEG
sombras
##sul
##andes
tatu
ONUDI
Dichas
defectos
ilimi
adecuación
##drías
Auxiliar
tiros
Moder
##erato
##ppy
decían
intentaba
Excelencia
##demi
Chávez
blin
operacional
luchas
enfa
Ec
Participación
encontraré
SC
desempeñan
motocic
ecológica
##eremy
Seré
trece
##cá
##movi
Manhattan
##ambique
plurian
1919
influir
Bienvenida
##sional
hermosas
enviada
Ore
lidiar
parlamento
##65
adversos
imprescindible
organizados
Latinoamérica
corral
regulan
##irámi
Agár
##mbito
Patr
relevancia
guerreros
proyecciones
##carburos
combinada
león
interrup
diplomático
barrera
mostrando
inher
Hmm
aval
interre
nube
acompaña
hallaz
Conta
componen
entretenimiento
##borra
##velop
carece
Camino
involucrados
##huana
Ethan
##áu
Admi
##derías
##63
Dubl
##ónicos
fibra
##gus
topo
inundaciones
Oce
orina
vacuna
advir
determinan
derra
email
Mateo
célula
testamento
##bil
##rys
##gunas
presidentes
rápidos
##valos
escapa
nativos
coinciden
enfrentamiento
perdimos
Lago
Neil
esperen
magnífico
caballería
Fantas
válv
excluidos
atrapados
retribuciones
citar
##ciencia
asentamiento
Quím
Párra
gabinete
##enciales
##eis
##ruebe
menú
progresiva
declarada
sp
##terizo
desnuda
pescar
variante
opinas
colegios
concesiones
recaudación
##vit
##jante
sabio
activas
plantear
atacado
dedicados
patentes
engañar
##doso
flora
asesores
##gins
volvi
inhu
##ECCI
##crib
lápi
##cilla
##ppe
decidí
estupen
Hart
Relatora
##41
conciliación
Beach
intente
pertenecía
Acuerdos
Ry
extensa
vigilando
mentales
lácteos
Posición
Largo
académica
participando
bí
atribuye
quieto
##esp
asesinada
noci
acomo
##ragones
estratégicas
##ury
##tellas
Vier
Créditos
##pista
1910
Shar
Carlo
preocupados
##tren
Ellen
hábitos
destinatarios
artesan
irregul
OIEA
abundante
IPC
garantizado
triple
Educa
hil
##NO
diplomática
instalado
satélites
CES
##guaci
##ICOS
##ICACI
Siendo
permitía
Comunicaciones
Duque
excesiva
##vic
meti
dependiente
líquidos
intercep
piden
##úrese
Héctor
Vivo
asciende
Republic
incorpora
proseguir
fingir
Ris
insolvencia
Empieza
Tall
males
##pate
invali
alegaciones
##anti
perdiste
##tricas
amplios
fundadores
##tremos
Vayamos
ejecutado
pintar
juguete
Representantes
asume
dejarla
sumas
Vigilancia
tiende
Association
módulos
horizonte
Armadas
titularidad
##grante
andando
##ereo
protegidas
cualesquiera
pelu
Evangelio
mercen
conejo
Habiendo
motivación
exilio
produjeron
compartida
accesible
reposición
alea
apoyan
torne
cortas
reaccion
##voca
calefacción
Stanley
seleccionados
creyó
dados
empiece
presidenciales
##tho
GENER
Bag
##ármelo
##itch
deseado
##bias
valiosa
##amelo
llamarte
lenta
##mont
Infancia
##rishna
Christopher
##vial
America
off
Mois
mantengan
Mallor
##quista
Liech
suyas
comparar
madru
Izquierda
avanzando
censura
quedes
estuvimos
hepá
Electoral
haberla
CONF
Fall
armen
##litos
##dros
inauguración
yu
Nueve
condujo
doméstica
##ondo
Resumen
##sado
asignar
##ejo
resuci
bancario
contrató
Mm
131
Náp
Claude
##zzi
Hábitat
tribut
redonda
delicioso
Syl
sustantivo
usarlo
##TC
desemple
tratarse
1924
deseaba
##less
urbanístico
museos
atar
deprisa
planeando
sucia
provisión
protagonizada
Cuéntame
##éndola
embal
Raymond
Margari
graduó
delantero
dobl
ov
Már
alias
Nápoles
manzanas
Teddy
Fitz
soport
miro
Proyectos
Chen
épocas
privilegios
cuente
##arre
pali
Alfred
rie
almoh
norteamericano
139
Moreno
145
Có
perímetro
revolucionario
seda
notado
Randy
Little
coeficiente
Eco
infe
Mason
pilares
ponerle
RO
estadístico
Med
Liechtenstein
Perdí
católicos
aportan
Encontramos
voluntariamente
desenca
pais
reas
divina
##lite
Billboard
atendiendo
emergencias
enojada
online
transformar
inserción
puentes
Pul
Faci
arreba
Colonia
up
radar
##ásticos
guantes
##gras
cruci
llegara
mole
enjuici
Orle
uñas
separada
arbitraje
evacuación
ingenieros
oyó
Agrade
completos
Mongol
##acios
USD
Volv
busco
##ianos
##ustos
##els
##lid
trabajadoras
contraria
esclavo
queríamos
cerró
llevarán
apartamentos
Alfredo
MERC
gripe
autorizadas
ideales
bares
Diles
originario
Asturias
burgues
##cenas
Mírate
Cuídate
ejecutivos
Condado
llamarlo
##éndonos
ponerlo
tranquilidad
Grupos
enfrentó
miserable
marginal
genes
##icho
contenedores
compitió
##hai
efectivas
159
Innov
pinta
Theo
significativas
149
intermedio
Nami
hidrógeno
1925
##aciona
escap
pensarlo
Directivas
##quiá
Octubre
##nist
Ceci
mexicanos
fallos
aparente
consideramos
parad
Ame
revelar
##gulos
viniera
detenerlo
restituciones
Desgra
completado
Aguanta
Dennis
terapéu
##RI
coordinador
subió
atribuciones
##éndum
##prise
##yoto
prec
aseg
médicas
buscarlo
NI
ajedrez
##62
##unio
TH
##arren
apor
celoso
policia
textil
##culosis
expi
##ecieron
campus
Ronda
Trad
fárma
alquilar
Hablé
apoyó
##tecnología
Caroline
169
introduc
invito
Silva
rema
Caray
Nova
puri
Rebec
pega
tuvieras
AEL
camas
##gimos
frases
Igualdad
lesbi
usaba
apruebe
Estim
Años
compartido
##giste
fastidi
golpeado
válido
comentó
intelectuales
Pur
##landeses
Ponencia
culpables
clásicos
jaula
orillas
intercon
aplicadas
Isaac
olas
exitoso
##non
Antár
sofistic
##arcas
rigen
maris
especifica
controversias
##INA
mini
Asegu
casino
mágico
##ione
encendido
##traba
##49
científicamente
Participó
flan
católico
prestigi
egoísta
rodea
ovejas
construyendo
mineral
##ennifer
anul
complejas
##68
sostenido
cív
##izos
##atson
evitarlo
Lad
enc
##árqu
##ñones
potente
insecto
##gur
Chu
conjuntas
pón
Monterrey
calificaciones
##ceta
Pleno
ansiedad
reúnen
causados
Continúa
Simón
transpor
##cede
eros
simbol
virtual
Málaga
##iremos
vacas
Planificación
##ige
insin
Bond
existían
exactitud
##días
Alas
convocado
perfección
enterrar
Schen
convic
vinculante
pusiste
Seguimiento
seleccione
##omal
Brin
vasos
votantes
##alie
##gulación
tap
Pás
Ampli
viable
insulares
Bancos
sugerencia
prostituta
##dae
produciendo
cardenal
Intergu
adquiridos
recibidos
costar
risa
colocado
retención
modificados
Union
Cantidad
contables
vist
##ópteros
cortado
suscrito
Prác
viera
equidad
parcelas
Aaron
pediste
Nacionales
colocación
estableciendo
##ículos
adoptarán
confundido
##ged
Funcionamiento
##élix
romance
Coge
querrá
pintores
escribí
##ont
apostar
161
##ISTA
Tuviste
salí
adelantado
catorce
##terizas
santuario
##hist
Volun
suministrar
1900
ordinarios
acorde
volveremos
##ineros
NE
articul
volante
SH
visu
##zcas
##blame
desconec
sonre
acudir
##dicamente
fans
cambie
Praga
exhibición
cooperativas
##nol
ucran
##ium
##stad
costó
venden
##micas
videojuegos
patrocinadores
Sác
contribuyó
##quese
abrazo
Donald
Oxford
soviético
##dú
sam
Imposible
Tina
ocasional
típica
anunciar
portuguesa
aporte
desech
botellas
inaceptable
edificaciones
Salgan
cumpliendo
##cones
Saca
estratégicos
aldeas
quedarán
submarino
comprenden
Transportes
agrupaciones
Rita
##dorf
citados
caen
##inda
desarrollada
Connor
vulnerable
equitativa
Cen
armamento
caudal
marchó
fragmentos
##tuve
Scar
Nú
Gana
Catalina
limitados
sostenibles
vacuno
detiene
modifican
conseguimos
lector
pretendía
Rebecca
crá
##icom
salgo
Mitchell
incorporarse
Carrie
misa
protagonistas
prete
atreves
jornadas
oir
Aj
escasos
postre
legítima
alegr
##úo
Dígale
desgraci
niñera
pra
Provincial
Esteban
otorgó
contenía
Guardi
ministerios
##doc
vér
duelo
Andrea
##inga
elevar
aliviar
##mín
##pulo
Rh
dirigen
DIR
mediana
Madame
aficionados
teatral
facilitará
Sici
derivada
compromete
quita
designar
##erie
ER
##colm
indu
colonos
Senador
##arías
letr
##entada
Vosotros
conductores
CER
hidrául
visitante
hemorra
peleando
Douglas
cercanas
Bár
Proto
callejón
Viva
Mongolia
llevaban
##uyeron
##ments
Uzbe
atentados
Guerrero
cotidiana
trabajamos
##gaz
caña
jugo
##hoa
lema
indirectamente
Lab
almorzar
##títulos
Mozambique
##urídicos
dc
Ambiental
##44
##trales
Malcolm
TOD
ritual
##blas
leve
oliva
plantean
burbu
buscamos
Muchachos
Spencer
mero
rezar
trucos
celebraron
##timidad
Quedan
Generales
sancion
##ois
violentos
##AND
barras
identifica
##plo
agotado
##critos
afecten
abrevi
##rgano
Queen
indique
Acabas
soledad
estricto
indicios
1926
reintegración
funcionará
apesta
##ii
diabetes
##sburgo
céle
sometida
Novi
Delegación
##rell
demasiados
clasificado
preso
##mular
trasladado
bomberos
misericordia
##onada
Mixto
NBA
desci
rentabilidad
AELC
raros
putas
salía
decenas
Chal
alcanzados
##lén
RP
preferencias
Respira
Mam
Serán
novedad
subrayar
Logan
Time
CAM
imprimi
múltiple
Dilo
2020
Efec
suba
##gla
animación
bau
##cionista
141
requerido
gilipol
##ires
Ful
ordenamiento
##side
elenco
git
globo
Graham
jugada
Prof
Hig
sectorial
previos
deseamos
Tribun
dividida
Rab
Chicas
PAC
pesados
permanencia
intensificar
publicadas
conveniencia
Todd
rellen
facturas
Océano
láser
afecto
grito
Romano
hacernos
##chaste
sequía
reservado
Decisiones
lej
atravesar
escuchaste
sanitarias
##góg
erradicar
Américas
capturar
mostraré
Premios
GN
casarte
fijos
##UA
Pir
conté
Transi
asistió
Americana
##roe
Consol
reconstruir
##gemos
Sti
nacida
autorizaciones
##éanos
##hard
supri
Galicia
Empresas
UNAM
Mmm
Democra
Cala
##tillos
##bao
Minas
desarrolladas
chanta
Aquellos
Subdi
harían
tern
Fuimos
volvamos
Pagos
sentim
pensaste
nido
aceptada
##GAN
numer
##drían
State
Trib
innovadoras
trámites
Naturaleza
dedicadas
haciéndolo
Sad
##ISTR
Norteamérica
constancia
pp
##asen
Gonz
baños
Napoleón
confundir
##zaban
1923
Seat
emborra
respaldar
Liberación
presten
históricas
rojas
Manos
##canos
hábiles
retener
##pra
deciden
gustar
contenida
##ícolas
marcador
##carriles
152
##aminas
##PR
bóveda
temática
##anna
drá
serios
1922
oraciones
dren
traducir
busque
restante
soltar
competitiva
ganadores
hablaremos
##gby
##ved
ministerial
Bour
fluctu
Ohio
Ralph
##cultural
unida
hierbas
celebrados
##09
Suel
Simpson
Team
UNFPA
calculado
Garantía
plumas
tali
cirujano
CG
##quillaje
rubia
determine
elevadas
Firmado
esperma
circuns
montaños
ortodo
tirado
aplicada
gozar
lote
Indic
estran
sentados
enfri
traeré
fósiles
inestabilidad
##eith
Encargado
separar
aga
mago
agota
Griff
exceda
cráter
##uman
Extre
maniobra
Maravillos
Golpe
sabéis
budi
arreglarlo
##onario
algor
rodilla
competidores
elevación
Quinn
Massa
Ejemp
Observaciones
Lamentablemente
ESPA
##nu
traes
Saba
Medios
Peña
recomendado
aguar
Acceso
Colorado
huyendo
##dere
desplazamientos
Falle
##macia
##cui
Varias
empeño
cojones
151
hechizo
Alf
Collins
Conclusiones
hembras
manifestantes
Crédito
eternidad
##ólicos
Casey
articulo
desprende
agujeros
epidemia
sincron
envases
eclesi
desactiv
Sindica
recibí
monos
##estes
importaba
1912
Siga
teleno
tuyos
chan
informático
Alcan
test
orto
chimene
generoso
asegurado
##ensis
dinosa
##atía
Apúrate
rega
Castel
donación
Labora
Félix
mérito
marihuana
porción
##financiación
cualificada
anar
coloca
##eléctr
ayudaré
Salida
estuviese
Decen
Apertura
monumentos
Disposición
galaxia
diseñada
##nación
Salta
Contes
delantera
Py
Guau
##peras
GAT
oculto
embala
Murphy
donaciones
insiste
supuso
consolidado
trámite
Recientemente
cláusulas
justificada
pierden
BAR
fugi
apunta
Guti
##eche
gorda
precurs
Turner
##atori
perdedor
disminuido
aterrizar
logística
##lir
Mama
botánico
##yente
ordena
alam
Monta
financiado
logramos
farmacéutico
posibili
nutrición
someterse
NUE
##cencia
Ech
Cass
Ibíd
Peg
secos
dadas
segmento
legisl
##ness
181
curr
pila
##nett
necesitará
manchas
Hot
durar
colinas
dato
hembra
Ein
Qatar
calientes
construyeron
Maya
Nacido
Ingeni
delicado
incorporó
Inteligencia
153
filos
Inc
detente
##politano
Reconociendo
evitando
átom
agrada
videojuego
Haciendo
sueldos
##luencia
vería
##enna
subesti
sorprender
##att
concienci
##stone
##brales
surgido
##rándose
enmar
nazi
frescos
hala
legislativos
contesta
##tanme
porquería
Salom
abonará
manifestado
5000
##quino
DECISI
Excmo
ordenadores
Vienen
evidencias
cuestionario
148
desigualdad
efectividad
##arto
gráficos
fallar
lograrlo
##bró
ocurren
Calder
diarias
Hazme
Reglamentos
complementarios
grasas
arra
Moisés
Viernes
remitir
engan
conseguirlo
contenciosa
gratitud
Castle
integran
mel
ln
Centrales
trajiste
Sigan
hebre
Cádiz
##quis
perif
ceder
##cionalidad
Fomento
hur
Lucía
fec
AI
iv
mereces
this
capturas
bromas
orbi
nazis
##VER
##illie
Hier
##ámicos
centrar
##iona
##ucemia
escondi
corren
vacante
##hol
calentamiento
queréis
determinó
comprimidos
##ampar
sera
Bruno
primarias
señalan
dividen
Conduc
Instal
DI
sensores
descui
procederá
ampliado
Angela
PAS
aparecieron
vendrán
Sole
Industrias
parano
Conte
supermer
permanecen
revisiones
##bach
##vaste
sodio
Reafirm
##erve
##TU
##anne
perturb
pedirte
unán
colecciones
Doce
frescas
desembol
##cié
oler
generado
Nate
##ndice
##ube
##estre
domingos
familiari
transitorio
##banes
pasen
Atómica
Ern
INFORMACI
compor
tipi
Mensa
torneos
válida
Territoriales
##OMBRE
BBC
equipamientos
fea
respetando
PRODUC
Inspección
single
André
indicando
predeces
##curos
prestados
registradas
Tas
elaborados
especializadas
vinculación
alberga
legalidad
Dímelo
ecuación
Titu
robaron
##dista
##abar
##ciosas
Mani
##uerte
Deprisa
fum
convicción
usualmente
papas
olví
Negra
estricta
maletas
daremos
gota
misterioso
tomes
date
técnicamente
Terrorismo
##PO
##VEN
##onte
ayudaría
set
Hermanos
##SO
considerarán
violenta
terminaron
Sid
critic
piratas
Espar
Giovan
##ívar
árbi
malvado
vecina
sujeción
Indígen
campamentos
astron
Exhor
vivas
dolores
##lógico
BM
cén
Abogado
Antiguo
físicamente
complicaciones
geográfico
moviendo
##ítico
aren
existan
alba
novedades
alfombra
xenofobia
estereo
##guacil
bate
SOL
Apár
rebotes
atacaron
Raúl
Bart
emplazamiento
excav
parlamentaria
rechaza
aba
causada
##ius
1921
formaron
143
notablemente
Grey
coar
étnico
hemo
Alfa
Repito
desfile
Craig
obedecer
hueco
otorgada
transmite
exportador
PESC
hallan
arroyo
trabajadora
Hem
##abul
Vos
##brios
Coordinador
mortales
étnicas
recuerde
anillos
sustituirá
Constru
ferroviaria
##ded
CV
molestia
##familia
escapado
signa
Enterprise
Abe
visado
aceites
Mix
elige
##enlo
financiamiento
subsidios
pornografía
literaria
##ieras
##tavoz
TN
##inois
transfi
Marta
Fax
valer
jar
encargaré
Recopilación
doméstico
##iosa
infeliz
##hue
apetece
diseñar
##rina
Omar
indign
Sergio
Cay
unen
girar
##ertan
Innovación
Lie
Dici
espes
terraza
legitimidad
ulterior
relo
Namibia
##grando
mataría
##LI
##ilómetro
acepto
juegan
ahorros
cafetería
##íficas
Rayos
escritora
Hagámoslo
sometidas
expone
domésticos
traducido
volvemos
Pop
Rid
Tortura
geográficas
tarifa
proporcionada
aumentos
162
ofender
derrotó
cálmate
decisiva
##jarte
referéndum
adoptados
vocación
rea
interfaz
##zen
reemplazo
provisiones
Hijos
##claje
Louise
infantería
divino
##pero
##ohannes
plural
soca
##ournal
diosa
##cinco
contabili
##ficil
pudiéramos
##media
Seminario
mostraron
bachill
ESPE
Permi
Yang
##ceros
atraviesa
planteado
Mali
abarcar
banca
envejecimiento
Referencia
##quisitos
turística
destacada
Morales
recar
##pedia
farmaco
sabíamos
ber
Artículos
inminente
Unida
salch
Micro
pasados
##lios
##énsalo
consiguiendo
descritas
combates
inauguró
aporta
pagando
levantado
legen
##ANA
##ellos
tramos
arrestar
responda
##dear
marinas
Yugoslava
comparado
semilla
FP
##TAS
Intenté
accionistas
reunieron
abundancia
Salió
##caban
aprendí
convierta
basarse
Aud
vinculada
ponía
sugiero
SG
conduciendo
lastim
entregas
##anás
Guadala
fitos
##contin
Colón
llevadas
deudor
##duciario
Lev
adversas
incomple
Chur
##onización
llevados
borrar
inmuebles
your
##mission
##ORA
trastorno
genérico
Estan
alcanzando
pap
##emento
Motor
tiroteo
poses
Intento
MC
normativo
perd
Shane
Open
reciban
productivo
originarias
dimos
volverás
cometidas
##rencia
enseñado
chip
lleguemos
superficial
cubano
IB
fiable
conservan
precaución
##astr
interpreta
matas
frecuencias
aroma
Amber
Agui
pida
lavan
Emilio
audiovisual
##quil
procu
déjalo
##lismo
##abuena
copas
Life
rabia
Seattle
Deme
baterías
aspir
Roca
##banas
inspirado
sensor
##vé
vulgar
ponder
enre
inclinación
Cumpli
Paritaria
Dio
Gusta
abogada
Mate
peste
##biliario
hablaré
encontrados
Raj
pudiese
##uga
Caballero
levantamiento
casta
fantástica
BT
##69
sentarme
manifestar
arzobispo
solicitada
indicadas
vitales
efectuada
reemplazado
Marc
progresivamente
negociables
Dallas
MU
PSE
jodida
boli
280
##dillas
juveniles
##ilton
conforman
requerimientos
capit
recuperado
##tore
Hermana
Cris
malenten
agregado
Estras
africano
Alá
Premi
##tuosa
Váyanse
serias
##cipes
íntegramente
PG
##sio
##ánica
pesqueros
1913
Olvid
obtienen
Guadalajara
sexos
balón
Sheriff
ceremon
descans
cuadrado
caute
Harrison
##iten
enfermería
##cible
arcos
aéreos
maquillaje
persigue
disu
contribuirá
institutos
recrea
instinto
nat
##elamente
acervo
algorit
bajando
pill
idón
desvan
Him
destruida
inaugurado
celos
Tecn
##ometraje
Squ
##áceas
distribuye
pierda
Schengen
163
denominaciones
Medina
hidrocarburos
conducido
conecta
Imperial
vergon
plana
proteína
aceptadas
aso
Ned
Cher
##ESTI
Ernes
vagab
sugieren
payaso
##foro
Cameron
##veme
viaja
tronco
incómodo
eval
redactado
Illinois
Murcia
Rivera
contemplada
Quienes
##tats
Hagan
desencaden
periódicas
165
Plataforma
##campe
Estrasburgo
agi
cancelación
Paula
sánd
informal
Barney
respi
quedaría
##tten
lobos
Bolívar
lagunas
Brigada
158
sacrific
sacarlo
Shan
traiga
Monetario
##dará
hered
genu
Pequeño
anticipada
rebelde
##guió
goma
carnes
Fel
##monial
##tificaciones
Pent
centrarse
efectú
Duer
sangri
desmovi
Estáis
escudos
reno
##diencia
resultaron
llegas
aeronave
cobro
festivos
Sheldon
evidentemente
Sofía
preparó
##deremos
cuida
320
Llamaré
Centre
Marino
##tabilidad
otorgamiento
System
prioritario
adelanto
polígono
formuló
##gina
Frodo
##patía
##ueles
contestó
desempeñado
##zono
anuncia
aliado
soltero
sucederá
sr
psiquiá
anto
##inaje
##ullo
aseguró
Acabamos
##pones
Society
##azajstán
reclutamiento
potencialmente
séptima
hídr
habrías
ideología
Deportes
consiguieron
142
TRA
lamentable
solares
espirituales
##mantes
financiados
Gala
168
audición
urbaniz
REG
Alber
cristianismo
otom
bienvenido
##aná
##eidad
Vé
Delta
mancha
Fr
##ometría
##yera
subiendo
Déjala
contrarres
##ain
Coment
Dispon
agradecería
cés
Avis
Dejen
digna
pregunte
Vallado
indirecta
##lizado
##ENA
bacterias
ofrecemos
estir
Precis
significaba
##ming
adoptando
##tah
verbal
##OSC
océanos
Buscar
Cristó
Tempor
Quieto
presentando
##deric
vientre
psicó
regener
neumáticos
calmar
milagros
pesquero
##vena
plasma
##END
Rodrigo
servidores
##eah
expresaron
Adios
criado
Roman
discípulos
dándole
##amin
estallar
260
##dentemente
ferroviario
Reich
Provis
encontrarán
chilena
recolec
vís
provecho
inhibi
revisada
flecha
##distas
Conforme
desconocida
prendas
Edgar
##tez
infantiles
Monts
expro
lentes
##asis
fotógrafo
quema
prometida
sorpres
Live
democráticas
introduce
fero
Añ
miró
Impres
##dalena
orgánicos
notificada
prescripciones
Salamanca
propagación
cómputo
subsist
araña
humanitarios
bailando
transbor
inquietud
acompañados
demasiadas
pende
##gamento
##fun
##ífero
sabrás
trin
periodismo
##fet
Ribera
Malí
Night
filosó
estipula
Seth
antepas
Christine
soltera
vibra
Lá
recto
##laci
Leste
Lléven
emitida
permiti
Summer
hacienda
creído
Mariano
Cuen
##ganlo
FI
Rat
Rand
##anual
filo
Augusto
despleg
Lloyd
Travis
muestreo
##iamos
Valladolid
numero
arrastrar
Septiembre
coge
preferido
parlamentarios
productiva
bodega
Bilbao
##ímulo
##horabuena
Divi
nobleza
quiebra
Cú
vocales
##discip
armadura
##orros
interrogar
##lidades
##osotras
razonables
herir
##ingue
preocupan
diariamente
maldad
forzado
presentarán
GM
perfiles
Report
catástrofe
##jala
comprendidos
FEDER
enfrentamientos
##box
hábito
corredores
0000
repugn
galle
Moore
afer
##icante
##anova
enviando
operativa
##ARIA
rifle
anomal
terminará
fitosan
empleada
Rights
seguían
autónomo
Origin
invitada
sobrevivientes
Bebe
acostumbrado
tobi
Proceso
##trate
carecen
colabora
acabaron
##tienes
Apple
Out
núcleos
Amaz
oreja
echó
COP
Estadísticas
##dimen
corbata
##rusia
fati
alemanas
Esperemos
bruta
concern
Vuelvo
Polo
Almirante
Chrys
Auxilio
terminamos
brillo
avanzados
##fra
cohetes
##villas
Frecu
##ienses
case
Petro
Up
Alab
Palma
trom
Busco
acredita
increíblemente
Abi
Corri
favoritos
despreci
divir
cerradas
lata
masacre
fabricar
Gem
gano
abiertamente
Filadel
embos
Reno
cargado
historiadores
Acerca
ultraterrestre
Maur
##rosoft
Comarca
contemplar
##trógeno
sentar
##ertes
##iness
##adillas
##ásticas
gatillo
INF
prestó
perjuicios
Bonito
escuadrón
##pura
continuado
colegi
tuberculosis
Fores
##íodo
Hale
afirman
Faso
eterno
Discúlpame
llegaba
combatientes
conocerla
nombrada
fascinante
recogido
##erción
##BER
medicinas
Cristóbal
Lance
manuales
paisajes
Trastornos
creatividad
adaptado
##zel
depender
antibió
alli
quimio
inseguridad
asom
##cey
Habéis
Generalmente
Fair
portero
1905
Orleans
##amita
acostumbr
##INE
cúpula
coy
excedencia
laguna
##star
intimidad
aterror
sobrina
ejecutiva
Cerro
Tales
##usiones
anulación
firmes
mandado
étnicos
amarilla
embarazadas
conectados
miraba
##rófono
chantaje
consiga
consistía
implí
Fuentes
comenzará
preliminares
Pet
Silver
satisfactoria
Clasificación
##tega
Bale
Administrativos
##ucar
pirámi
micros
br
orientada
directivos
proximidad
##TICA
meto
Morris
escogido
tio
##ervo
cónyuge
llevara
Identificación
Món
terminales
freno
estabilización
Vivi
forzar
informativo
##difusión
Sno
tent
desear
registra
respeten
Debió
reclamar
realistas
##py
acompañar
extendido
recicl
corteza
primario
Enví
##alista
tendríamos
##írez
Econom
subsidiarias
MO
varón
terminan
##ih
finalizado
Inten
##ding
##ragio
DISP
##ert
enterado
Agre
Fru
campana
Aren
mantenerlo
reitera
Lenin
promovida
Regla
##allace
##sor
danés
##bot
##magn
echa
Sicilia
varían
celebran
enfadada
Cale
semejantes
##enne
false
inadmis
IND
##dova
Anual
Design
Presentación
##HA
toro
Mid
Here
hacías
encargadas
distancias
Hud
##abamos
individualmente
London
Aga
##ranos
parás
anular
originaria
##dromo
##itt
dil
Rober
##ful
ocupando
##vila
##dieran
##urídica
franquicia
Filadelfia
Resta
vídeos
vener
mares
responden
Say
champ
pagará
dijimos
expuestas
comprometida
Ax
Burgos
SM
Hablemos
Apre
figurar
Ramírez
reparaciones
expulsado
frontal
terminación
oscuras
psiquiatra
iniciaron
Partici
Incluye
psicología
ganadería
Acér
Constantino
have
metil
niñez
020
Hicimos
vanguardia
Leonardo
ermita
##europe
fichero
##velopment
##bría
complicada
##teli
##ómi
oce
##isfer
Cairo
Schmi
##érrez
subordin
ua
Subra
aplicados
anotó
Toby
Señoras
disculparme
encontremos
##quillas
guarn
##blan
desacuerdo
Elliot
##uris
##tíbulo
Earl
baratos
Diputados
gallina
Tabla
1911
impo
##izando
franja
llevé
alternativos
Colabor
dirigente
##guero
sinceramente
##hrer
necesites
subpar
exhorta
##ADRO
##zosa
contrabando
septentrional
pague
prohibida
ajustarse
objeción
implicados
##icero
Hacemos
membran
cazador
averiguarlo
daban
Querías
deses
##talos
Afric
Cartagena
##uración
innovadores
pacíficos
Adams
cortó
trajeron
disparen
##ódico
plie
Tira
Court
Criterios
##SC
tigre
Balcanes
sudeste
dependientes
pases
##inamente
ocio
IM
leván
Dexter
##ery
valorar
Stalin
Ríos
jugaba
911
##feld
imit
##uncio
calibre
Creación
opos
SN
URSS
escuchen
entrenar
Dada
folleto
estímulo
mostrarte
examine
disminuye
##anet
botones
##rane
variantes
entenderlo
##dosis
pertenecer
significar
horribles
extermin
##brando
reprimi
##ervos
peruano
Africa
prescripción
eventual
autode
doloroso
Viet
ganaron
pandilla
Hein
orgullosos
Gutiérrez
propu
Line
termino
nombrados
triunf
tercios
regulado
##crita
Cerv
hubiéramos
##racán
fiabilidad
inscribir
Exposición
Palmer
Sydney
##ARE
cualificaciones
Ses
sillas
Construcción
##gáis
netos
suponen
Otto
salvador
Sav
Vill
##propi
Lara
aspiraciones
##mbH
mutil
tremen
Roth
Chase
miran
##mentaria
correspondan
Acoge
##zzo
Estrella
Supon
Ava
Totalmente
Clinton
1915
##gestión
##cli
##inaste
Tae
aduanera
propiamente
comunicará
Lana
encontrarme
harina
##llamente
##tish
##trall
podria
normalización
Deuts
sirva
Invita
##piélago
aduaneras
Gall
Bautista
##asi
Racial
aptitudes
##quillo
nocturna
##laste
academia
biológicas
Centroamérica
escaso
efectuarse
Metal
Guay
Bernardo
aerol
bizan
colapso
Thompson
querrás
##endy
Pino
mírame
MD
comunas
cambiará
gráfica
presentara
Baix
decidirá
##vinos
##zquez
boletín
injusto
Blair
Ernesto
siner
pagaré
democráticos
salgas
##entía
NASA
pierdes
matarla
mamíferos
micrófono
organizadas
estelar
Moon
##llón
Atlanta
tenerte
Duración
rige
##ató
Fiscalía
complementario
AA
respondido
DERECHOS
usamos
madrugada
promotor
Dinero
subrayó
Hat
suble
##untamientos
formaciones
ropas
Series
furgon
Comisaria
desobe
conquistar
hoyo
##drich
subregionales
estaríamos
disputar
AUTORI
SIT
asesinó
Valenciana
continuaron
parciales
enormemente
##bulos
Fuerte
##ANOS
granos
acreedor
ambición
225
##logy
##haus
lámpara
inmensa
1916
cayeron
trián
##damiento
Feria
##ament
locu
concedidos
reduciendo
enumerados
Emiratos
##eus
cosech
teme
##itty
Decenio
huyó
entré
Negocios
incompatible
Sué
Acciones
Paral
justamente
Num
consum
ciudadana
Rod
2500
formales
COMER
filme
marcada
iraquíes
##ESI
comodidad
discapacitados
cometió
Prima
obrero
fichas
orientado
Horas
Carne
Microsoft
anticon
licor
Barbara
hicieran
non
rese
crueles
porcentajes
equivale
Estúpi
intentamos
##ries
quitó
morales
pierdas
Margarita
lis
##caras
restaurar
##uele
Lagos
navi
##cton
mías
alteración
destruyó
llámame
Opera
Sangre
Aquel
##efa
Falta
##bración
##vora
Informes
arterial
##yar
##nship
bá
fuere
ayudarlos
biológicos
Teo
celebrando
soñando
##ómica
esquí
Rea
electrónicas
caiga
##diéndose
sacarte
armamentos
disfraz
Revolucion
intri
Andes
Libert
##bú
dificil
Isi
endémica
comprometidos
Tracy
ganan
sinte
Iván
##ándolas
Suelta
problemática
adyac
ud
##ductos
##ilado
incendi
Gustavo
Alqui
consuelo
leo
recuerdan
impresionado
probarlo
jurisdiccional
permanentemente
deshacerse
feli
despido
##ubi
Pea
##lógica
rectan
detalladas
admira
predominante
Sois
pedía
montes
Vargas
oírme
cortesía
und
##pectos
afi
feste
211
pariente
##allo
##tome
Nairo
McD
Prince
expropi
ECB
mágica
Bromeas
holo
aper
Solid
productora
civilizaciones
##onesa
rentas
intentaron
estables
That
diamante
##pha
Benjamin
portugues
destacando
##éndez
Superman
muertas
Andor
venció
##ordi
oportunas
Baby
Maldi
costeras
Asegúrate
sorte
##ALL
Cár
##isy
prioritarias
Días
Fiesta
##anista
Vali
aprecia
estúpidos
##úe
pesa
Problemas
envié
Puesta
Spring
Diane
##tele
August
bibliotecas
##braltar
húmedo
dudar
acent
##imir
dormida
capitalismo
Pay
202
tratas
intui
maric
robando
celulares
generador
Gin
programado
aislada
constituyó
Nobel
generalizada
aceptan
marqués
Observación
Marcel
huracán
MAT
diligencia
##ulian
puestas
Master
mansión
Despacio
IES
Hir
##íbles
shoc
##ponerse
OTR
renunció
pulgadas
larg
fijada
Maxim
extendió
dióxido
Neu
Spider
luce
rivales
Seguimos
chef
contraer
amables
explícitamente
cemento
corazon
giras
césped
niebla
hermosos
llamaban
##ife
Vam
continuada
##tomía
Edición
enseñaré
contenedor
##itariamente
etiquetas
ajena
Especiales
óx
dúo
ponte
##ógrafo
envase
emisora
##silvania
God
##ciocho
Permiso
##quetas
examinará
Doro
transferido
mercurio
Cuenca
conlleva
funda
repas
impactos
soberano
##amar
caí
Podrá
##íl
Chin
Guarda
Huel
ayudo
helicópteros
beneficiarias
Llám
abren
##BO
Sla
abras
ejecutividad
Ts
inocencia
insur
aprovechando
frágil
ído
Sino
constructivo
seguras
representando
##ornada
Nairobi
prototipo
Orquesta
##ríe
hicieras
promoviendo
leves
##ENTOS
enteramente
##head
Estaría
esconde
informativa
cohete
##orias
##cisión
Monum
Multi
visibles
cruzado
Consultivo
restring
genéticamente
Sep
auténticos
LIB
siem
GATT
ponemos
exclam
oficios
1500
March
cabra
parecían
Puebla
sufragar
##ols
##sabilidad
asumido
dedican
Bienestar
anticu
pasear
Exhorta
gustará
pé
navegar
quemado
##yi
Reed
revelación
normalidad
expresadas
agit
mantuvieron
##denciales
lineal
Vul
hemorragia
ates
intérprete
laborables
Abril
tinta
rodaje
##hiri
##NE
quí
##tativos
ganadora
oriente
lú
Serás
##guito
puramente
sincera
Maastr
disfruta
Perry
Actuación
semifinales
procedencia
proporcionó
rastrear
combina
logrados
Audrey
Romero
oscuros
fino
humill
Colin
revelado
subsidio
romántica
##IDAS
vengar
fé
vinculan
denegación
apetito
rollo
estudia
comience
insistir
estrib
##bit
Espé
partió
vestuario
##vidas
Comprende
mafia
apreciación
##CEL
##uar
prometer
verduras
Aband
Maravilloso
Garden
Santan
prioritarios
pavi
Naval
honesta
comprendidas
Massach
Nora
aislado
Potter
contarle
Mach
sorprendió
tour
Sandy
##oman
enteré
ET
búl
##émico
indemnizaciones
##VO
innovaciones
respeta
Finn
##IFA
##tini
crecen
Hunter
utilizaron
##cum
dorado
MP
GmbH
gusano
navegador
relaciona
Devuél
desesperado
Tía
llevaremos
Curtis
Permítame
zapato
Institute
##naval
subcampe
##ilia
Sand
Dejó
##uster
CUADRO
tumbas
##ltico
consecutivos
##troit
lamenta
Comunicarlo
sugerir
##ranio
subida
Mono
mueven
administradores
##inetes
##versa
Fase
##só
cometa
##nio
poseía
Pis
##nab
adquiere
salvaguardias
descritos
##lanos
##ueves
profec
##exión
sentarte
equipar
coartada
Sharon
Arquitec
desliz
analiza
carteles
amplitud
embarcaciones
##ilea
Pudi
Definición
Much
alteraciones
##esui
ascender
bla
sabremos
ventilación
potencias
##iler
ilícitos
##coso
encerrar
Falleció
arranque
gilipollas
##habili
alzado
Stuart
Salomón
3000
demar
235
citadas
nitrógeno
Huele
##tizados
acabará
contaré
desplazadas
Competencia
obtuvieron
deducir
equipado
cuna
táctica
##pea
recogen
modu
emisor
brujas
cumplió
alcanzan
estrenada
##chadas
controlados
##sson
PUOSC
AE
llenas
contex
##ava
##uimos
##effer
recordado
Haces
simplificación
##plica
##tasio
coordinada
decirse
pilar
Empezó
##escol
créeme
##uza
##ENTES
construidos
retrasos
Siguiendo
##fón
visiones
funcionales
Contro
Import
Nicole
##see
supere
irregularidades
Austin
Alemán
orientadas
equilibrado
hadas
##cienden
atrope
ESC
incondi
intentaré
conociste
Vicepres
##nistía
periódica
entendemos
buce
sacrificios
percep
René
pilas
centavo
imposibilidad
garanticen
##inson
bombardeo
intensific
Estra
Organizaciones
Tendría
recogidos
compla
##aldo
Fir
estética
gestiones
huésped
lana
##balo
tendrías
Necesitaba
contractuales
Pasé
observancia
##titas
alfabetización
##vaca
aduanas
limpias
Hones
##plas
astill
contraseña
Champi
Serra
Principal
##lee
alimenta
Magist
avisar
Ortega
trampas
imagina
tatuaje
uva
túneles
##ónimos
Detroit
Acom
cobra
Coch
imposi
pana
Interes
arruinado
Lion
preservación
urbanizable
Pav
conmemora
instaló
##sovia
##pita
milenio
identificados
Bauer
profundos
Requisitos
apes
atleta
norteamericanos
incul
especificar
##essa
aprendiendo
Financiero
Glas
llegaría
tomaste
saga
Campos
Cán
##inato
acercó
Precisamente
hospe
aguda
disfrutando
##ómico
##gales
facilitado
##AMIENTO
explicado
##irgui
cercanías
pelos
##isferio
extraordinarios
Log
##siana
deform
Potencia
permitieron
transmitido
##cillos
gro
##señor
reactor
##ulario
devol
firmaron
##estivales
Amp
ajusta
rodean
Mantener
PH
Moldova
porcent
203
matarán
interpretada
durmi
óptica
incluirán
masculina
482000100
Verá
esbo
Dana
afecte
mascota
Terra
editado
##áceos
ubicados
desaparecidos
volverse
alega
lagos
apri
VER
cuader
##ólicas
proceden
rodeada
encarce
posterioridad
Varsovia
invertido
iP
susur
imaginé
camarada
Leí
justi
trataron
Escrib
domicili
ocurrirá
obtenidas
prospecto
Ny
coun
memorias
##mall
cápsula
ultima
Templo
Trabajar
Andando
Foot
radicales
bonitas
requerimiento
discográfica
tarta
##ísimos
##siete
competiciones
utilizará
tutor
##psia
Posee
Enséñ
indul
Adrian
acepte
robots
##OGA
Ayúdenme
hubiesen
Resultados
ignorar
literal
masivo
TC
oírlo
sensa
Obispo
GE
cosm
ejerció
3199
diplomáticas
prudente
##males
remoto
SD
480
##lly
surgen
inmer
representaba
avanza
cebol
potenciar
opone
socialistas
fuegos
atrae
Gibraltar
apodo
testimonios
psicológica
interrogatorio
Infan
sintiendo
##shire
Contenido
representó
##onio
contagi
semanales
huérfanos
almacenes
Lom
REP
Escúch
ataca
mora
glaci
volviste
1908
##fónica
didác
deroga
bande
subsidiariedad
##ducto
Levanta
abrazar
##ardín
Caramba
colaboró
terminando
estrictas
terminé
incluían
turísticos
##ILL
comporta
distribuido
##lands
aprendió
octava
Repar
guías
méritos
extraterrestres
Rojas
##éndoles
turcos
ametrall
fina
Ellas
portavoz
dedicarse
diente
abandona
protec
aprende
Hablaré
##gala
formularios
Mónaco
usas
adulta
Traté
Opin
##xis
cazadores
Depar
alboro
Adivina
adoptan
generan
ente
Piz
gam
Ashley
##eli
docenas
desconfi
africana
estres
toxicidad
acompañamiento
##tine
afluente
transitoria
corrió
dialec
Bishop
fallado
Ear
##laus
##dric
AV
Fas
disciplinas
##rector
provocando
Mejora
expresada
alejarse
Maríti
piensos
Tonterías
descubrí
COND
##aj
allan
contemporáneo
paneles
regimiento
Aguas
reproducir
dila
##tensión
Neo
existido
##etín
Guyana
Mancha
matrimonios
ladrillo
fracasado
Ivan
Detrás
delicada
patético
Rub
petro
riego
integradas
HUM
##ltima
pechos
##ody
pavo
publicaron
escultor
##eado
Mere
Sanidad
TD
sangrando
reinos
Cambridge
Corporation
sentimental
planea
suspendido
pulmon
contemporánea
ensalada
Impues
pacífico
competitivo
matanza
eficientes
adaptaciones
Mona
informados
Magdalena
Hisp
Octa
mixto
Dolores
##íp
injer
Mulder
manipular
GO
unieron
renovar
ascendió
latina
asocia
hormigón
Clase
recortes
##ilas
pesquer
vertic
soviéticos
##ertas
bené
pleg
Confío
Cuan
creadas
Respuesta
proporciones
##mosle
doña
Flota
##etos
Tesoro
##laje
contentos
agrarias
acababa
Editorial
desigualdades
##radura
Edicto
bailarina
concertadas
##testo
##zie
frau
Giovanni
comand
##olar
Game
quitado
Rho
Revista
gentes
encontrarte
reaccionar
multas
volverán
251
alcantari
##anciales
YO
Gust
abono
##coc
bigo
besar
hallado
Calderón
Dormi
retar
##ílica
Rue
empieces
doler
Encantada
breves
UC
lactancia
carpin
##gresista
vomitar
secundarias
##gión
Villar
acercamiento
distribuidos
equilibrada
visitado
##tainment
##chila
Sírvanse
Universidades
discutiendo
##INO
##hou
##ax
##úrense
realizarán
##010
Fór
sider
concentra
venían
cambiaron
UA
Franz
madri
monetarios
Mom
ampliada
corporaciones
cuidando
Contencioso
Fres
Nave
tóxicos
pondría
suelto
escaños
concursos
Marzo
cálido
##ende
imparcial
ESTA
Apos
recopil
Mauritania
Reafirmando
lanzaron
dominar
tiró
Maastricht
Riley
mintió
##uig
Chel
impartir
Scu
##ollo
electromagn
bár
regularidad
transnacional
firmada
sobra
realidades
Bárbara
Frie
desalo
period
subcontra
emite
admisibilidad
ambicioso
proporcionando
##igas
Tayi
Gav
remode
1906
sospechas
Tren
mencionan
cajón
##flu
mixta
gobernante
##ítica
catas
activista
Noviembre
Pér
Argentino
male
##tilidad
Comisionada
Especi
tutela
Caso
descrip
luchador
Maurice
consiguen
campeones
marx
convertirá
FNU
versos
##mne
Ní
engañado
##espeare
parezco
aumentaron
Filosofía
desv
increíbles
Procur
notificaciones
Respe
despertó
célebre
sientan
Robinson
serv
simpa
bastantes
reab
extien
Brandon
remisión
Principales
templos
disturbios
creyendo
producidas
##quet
Disponer
gole
##blico
Ponente
Toronto
quedara
##rara
Cis
mantu
remonta
secuestrado
serías
hablarme
literario
##ITA
grueso
Barbados
perpetr
desesperación
##poli
Doha
cuén
206
Manual
Ias
ozono
llores
Indígenas
##gé
##tigu
decírmelo
obispos
##ute
tiras
arrib
Claudio
Indiana
##lízate
##HO
islam
pureza
##CULO
##ésame
requiera
sobrevivió
tributo
Mia
maletín
Massachuse
crediticia
bajó
Agrícola
Saj
descifr
filósofo
CAT
aumentan
Alpes
subvencionables
Santander
Sín
artísticas
ecológico
Lindo
políticamente
empac
tablero
Utilización
enseñarte
##ox
Sammy
Mónica
Mallorca
Montes
campan
asegurarnos
Alienta
Destaca
Cross
diur
Serena
bolsillos
siguiera
osci
dígame
abejas
##deraciones
netas
##lía
RC
April
foco
mezclar
anfi
armonizar
contribuyendo
##NUDH
combinar
Hamilton
##mund
Hamburgo
reflexionar
##ámbulo
astrona
dejarán
miento
mármol
transfronteriza
Adelan
aniqui
Viz
revalor
sentirme
stri
##dér
##rene
Presidentes
comet
suceso
fech
##mea
entablar
##001
1898
Venus
##ionados
preguntan
Encuentra
Gobernación
Boh
velocidades
##ANS
parlamentario
metálico
##ANO
##ágalo
Massachusetts
##gard
cubren
##sticos
##émonos
transeurope
lecho
contenga
dirigía
##burn
chimenea
##rase
Tomaré
Cuida
trabaje
##onistas
amada
filtro
pror
Stefan
Boca
##inc
##caste
preco
##taremos
Suécia
##ñan
##idel
relatos
Conver
##oods
Dee
beta
##cionados
desayunar
##UG
Tari
firmeza
##ticar
lejano
##itante
Necesitan
Pap
subje
martillo
favorablemente
Transición
##teado
pieles
Pudo
ayuntamientos
especialidades
impr
##ésemos
concuer
importadores
205
trabajen
simili
##dore
Bissau
drogad
desmay
averg
actuado
defec
##bb
##bete
devoción
distingue
privación
protegerte
##uró
##icular
204
Pach
arca
##iri
##plante
Vit
reanudar
Luch
##tation
liban
terminada
progen
cervezas
Ministerial
Hero
ciega
##zano
##tures
cristales
Gay
tomarán
proveniente
Diam
brigada
ped
replic
estaf
##amiliar
##ertos
bancarios
matricul
Monsieur
##formación
asteroide
boleto
Cien
supuesta
cres
cicatriz
prometiste
calcio
informaron
##veland
Explor
Bonnie
vacunas
derivan
clari
Herrera
autorizó
gobernar
cartón
subprograma
##rein
Box
supervisor
##CUL
enum
redonde
insistió
protegiendo
preventivas
requerir
hetero
actualizado
energéticos
combustión
##urio
##dismo
confesar
madurez
hacerles
Leslie
Depósitos
pronunciado
sábados
Recibió
Formas
trayecto
repertorio
convertiría
Salgamos
0802
balcón
Taba
ecuatori
##mados
sueca
Democracia
aislados
complaci
Propiedad
conservador
Comienza
##red
##lvaro
abrum
transforma
Ofre
rami
alumnado
Chand
extensiones
mundialización
##tex
biología
desconoce
bebido
jam
billones
especialización
Sey
inestable
##lava
desperté
Free
barb
ácidos
volviera
##errat
gemelos
descubrieron
Aproxim
ACNUDH
volvía
norteamericana
Pensamos
FEOGA
mantenía
Asunción
##tórica
húngaro
masaje
##táneamente
creativo
##lli
Hogar
cardíaco
migratorios
herb
Funciona
completas
acusa
odias
inhal
composiciones
merced
Nena
Decir
ancha
afiliados
##dable
Comarcal
furioso
Caracter
##ANTE
cubo
asistieron
valientes
persistente
Ovi
Luisa
Corran
Entertainment
IG
nietos
perjudiciales
DP
Consumi
preferiría
Freddy
procesar
##risas
##ffer
Acero
sagrada
discreción
cloro
déjeme
##cándose
violín
raya
##jarme
entienda
concentrado
##DAD
##MINISTR
arsen
##lab
Ple
dañado
encontrada
audiencias
invalidez
##minas
fijadas
solista
##arrea
CAD
##mulas
vestida
##joso
falsificación
##tadoras
Sitio
cito
engaños
aborda
Siguiente
Olvida
Tenéis
estall
Baham
Duncan
fiscalización
ejecuciones
Ball
##IAS
instructor
esplén
desviación
archipiélago
filiales
##iev
Meridional
transitorias
##gham
subido
renom
convivencia
##rix
Gregorio
calificado
delimitación
##AMA
##rete
llamarse
señoritas
##cala
subespe
impuso
usaron
levantarse
##peuta
Gonzalo
rectores
apariciones
##vando
contará
desestimado
disparando
exceder
Obra
traen
merecía
##met
Embajada
atribuir
linf
Malditos
perdona
IMP
permitirán
tecnológicas
meterse
aprueban
inspectores
Coca
pedagóg
olvidaré
adjunta
provienen
1904
##toc
Plu
geme
Madison
##inten
unif
crudo
Campbell
##lantes
##tento
##viano
dinámico
Bailey
moléculas
Mez
Preo
enjuiciamiento
Suerte
almirante
estarlo
envuel
consulte
redist
contarte
homosexuales
mach
Liberal
sacaron
Odi
Hija
GPS
Europeos
desarrollarse
merezco
##trición
fidelidad
enunciados
##paron
conste
Háblame
mercantil
##estría
##urios
monarca
Provisional
Arch
tejado
vagina
incluyan
fluido
advierto
Andorra
sopl
buscarte
1909
Daisy
Porto
resol
denunciar
Aus
decepcionado
Duran
Data
festivales
PV
Luces
##ashi
##ubio
instin
##quio
moción
mitigación
Reducción
ilícita
térmica
##rentes
Valentín
esculturas
británicas
Barre
Quito
adoptaron
Megan
guardan
implementar
##chet
abuelos
eleva
segmentos
Aur
vuela
cumbres
Pregúntale
espor
riquezas
indirectos
##lard
representativo
##andesa
##estial
##ebe
uranio
Canci
Llamé
injusticia
Alvar
puñado
dependerá
expedido
ayudarles
misil
Id
Aguar
dete
creyentes
prepararse
##lines
Indias
circul
tuviese
autopsia
acogió
Período
representativos
Ida
253
blas
siderúr
Shir
élite
debidas
Rum
ball
golpea
desaparecida
Pira
presidido
litigio
##any
Helena
UNM
ausente
colocó
Tanzanía
usadas
pistolas
EMP
Drogas
##alias
unificación
##xy
paras
plurianual
silvestres
visuales
##BLE
antis
##parte
proponen
furgoneta
##TON
tácticas
Párrafo
AH
intermediarios
derram
Empezar
Ooh
pautas
##tiza
Financiera
narices
clausura
pegado
torturas
bienvenidos
mantén
aburrida
##icon
##alina
##interrump
reconozco
espir
vestíbulo
preguntes
implicaciones
eru
##lea
subcu
requerirá
dramática
plaga
accesibles
garantizados
Barrio
seguidos
Diciembre
##sticas
Natalie
soviética
nas
Núñez
psicológico
melan
Common
pausa
Hermandad
monjes
##enix
empleadores
listado
##tula
lápiz
Ejerci
pierdo
cheques
significan
##sha
comunicó
##ADAS
Ronnie
escuchan
paraca
Reconoce
jerarquía
queria
1800
diplomáticos
profesiones
desconocidos
##ástico
Medal
cardio
fuesen
Compu
##séis
Benny
altern
incluirse
##laba
étnica
vendidos
##mpi
ascendencia
establecerán
clon
cotización
ayuden
Harper
##enton
levante
supiste
##him
prisiones
Resistencia
temáticas
rincón
cep
Conferencias
##odo
proposición
##dulo
portátil
##PER
barata
notificar
##óloga
Planeta
imaginas
EV
##pool
sigas
chic
Cleveland
Liter
Conserva
Arnold
directivo
asiático
##pest
objetiva
subsistencia
Lengua
##calo
faltaba
Bastar
dimin
trozos
perpetua
democra
ignorancia
imprevi
aur
Soft
Quédese
Observando
emergentes
ininterrump
sucesivamente
cancha
Ola
Basilea
Diálogo
sostuvo
buscarla
suizo
consultarse
artefactos
incorrecto
modales
##seudo
Activos
encaminados
Satur
refugi
Cami
valles
interesan
Deberá
Claudia
Puta
emocionado
pequeñ
Hallo
homosexual
designada
concederá
Conservación
atrapada
##íneas
inscrito
Tómalo
geografía
estudian
trasladar
localizada
biológico
Const
usarse
mensajero
sobrevivido
##GE
Guz
##ati
bec
aceleración
concienciación
under
elefante
escru
descripciones
##tarra
Pascua
supieras
resistente
pobladores
Lud
porcina
recuperó
valentía
diversificación
268
localiza
desmante
##cruz
Under
dieciséis
sustancialmente
gramos
Básicamente
##gru
perfume
pulmón
enviaré
privilegi
calzado
##zio
Chang
mentido
clasificar
suscripción
##ht
jodan
solían
autónomas
##jita
##dantes
formaba
cualificación
positivamente
callado
Abuela
Comprendo
faro
suelta
extenso
reactiv
Inicialmente
##mundo
dejaremos
Llu
Lunes
Cere
buscó
festi
avanzadas
incluyeron
riñón
pasadas
Producto
cómplice
presuntamente
Bots
ornam
músculo
medicación
##ress
##livan
encubri
brus
abarcan
alterar
amistoso
Dipl
pretexto
resulten
tamb
tiburón
##esel
214
Llegamos
serpientes
enviará
abandonada
envían
deseando
Universitario
215
Allison
burguesía
suda
mochila
explicarlo
1902
privatización
FS
Coopera
asignada
##lones
##poder
Benito
auge
republicano
##lógicas
intervalos
Monroe
embalaje
##nea
##americanas
equivoqué
proporcione
perjudicar
##pard
bellas
##ais
efectúa
estimados
Revisión
neerlandés
persiguiendo
precauciones
reorganización
##TEN
tiran
escuadra
Dámelo
ofren
Romeo
aclam
óptima
encuentres
atorm
presentaba
Preferiría
##nen
inclin
concejo
cariños
vocalista
##calipsis
desarrollaron
prolongada
##itud
Imagín
intraven
Flash
Humanidad
latitud
##hum
ABC
##biré
Meg
##dard
414
1890
forzada
PRIM
médula
388
##órica
característico
gané
Testamento
desgar
pirata
demandar
##lene
proporcionará
Marca
presentimiento
desb
existiendo
Iron
contractual
sonda
logran
##dame
Satanás
fiables
cotizaciones
play
brindis
##ugó
##thers
Tomen
incumbe
HD
226
calce
escucharme
Had
Expe
aquéllos
Light
ful
desertificación
Casas
limitadas
Nevada
Comercial
##pide
Old
PRE
INGL
italianas
##lov
med
Pueblos
estam
arquitectos
Pelo
Afortunadamente
Ramos
malditas
##CIP
interpretando
contador
orques
causan
conocieron
negligencia
entornos
eu
gase
##mentado
magnífica
inun
Piedra
minería
excluido
##LN
agregó
comportamientos
cordillera
Grado
bañera
##africana
##eg
saludo
##atherine
venas
ejecut
rigor
Promover
##taro
##tándome
ciones
Blas
pondrán
mezclas
ADMINISTR
mera
Buscando
practica
compradores
necesitaban
Muerto
##tuar
nací
detri
Disco
salgamos
INS
##ACION
##copio
poetas
##toso
llamaría
provinciales
reple
##edicto
##quitos
renovado
##erna
inversi
emplean
negado
Sig
equivoco
telenovela
##alupe
sell
##iat
asteroides
veredicto
mandí
##ffe
nava
flexibles
cinematográfica
funer
sacando
habér
desmor
miente
debiste
desinte
Trabajó
##óticos
resbal
##FC
oxi
libra
murcié
reivindic
Budapest
##ffrey
Báltico
transparentes
Subtítulos
prejuicios
decidimos
profundizar
amino
batallón
preparatoria
mov
Llega
vómi
cordero
zan
mitología
Alicante
susceptibles
YouT
comió
##jará
##bourne
impiden
cromos
bombarde
bea
Marx
irlandesa
rar
fabuloso
##fonos
chif
Neal
atento
ré
OFICI
regulador
toalla
Valley
suicida
jabón
Presupuestos
ruina
Irene
##mil
##andeses
##TRUC
prós
defiende
##scar
##ñoz
quisieras
arrendamiento
tic
##vinas
retira
Parad
##itanes
concertación
estupenda
evange
blando
recibirán
##enson
atado
Dichos
derrum
Hunt
vitamina
##pelo
Consolidación
preav
inspira
Grá
entraña
Guadalupe
desmovilización
Tenían
muchachas
iso
Scien
aras
##pta
cruza
indebido
injustific
contradicción
Capaci
graciosa
##ures
Belice
disminuyó
elaboró
1903
infarto
nór
suplente
Propor
Llévame
confiado
prosi
Abuelo
Señal
Noel
marea
Monetaria
repite
progresivo
##YP
desafortun
##gradas
huh
sirio
Corrección
##fus
teórico
sucesivos
instó
##tizada
detectado
prolongado
munición
diseñador
moleste
profeta
299
tas
Medic
barri
baje
Interpretación
##bai
##onaje
visibilidad
##jez
Míralo
Bahamas
Aspectos
honorarios
Enero
festivo
empleadas
CENTRAL
hormonas
rodar
Veré
equitativo
bachillerato
obtu
registraron
Relación
##reme
##uru
##tares
saqué
Váyase
##elor
Cola
quedaban
CAL
impaci
mastur
mercenarios
angust
conversar
##ársela
honra
208
castigado
Evans
alcanzaron
Nuevas
aumente
##CIA
Lind
historie
Fay
decidida
dramático
##esus
profesorado
poseedores
erupción
Bloque
evita
conservadores
##alas
placebo
supervivientes
##chón
##zador
ataúd
inflamación
nómina
##fete
209
##useas
propuls
CRC
Corn
Sebastian
repetición
##bino
340
##aa
Sullivan
##hoo
YouTube
abu
antepasados
alist
abriendo
##idea
ejercen
Eth
repatriación
Estudiantes
##ciner
##vienen
Frederic
Development
melodía
##cules
espé
Tratamiento
tard
escolta
estri
supremo
muñecas
##dn
##mit
contaste
dotado
##arner
##lices
disolv
milicias
negativamente
##vira
Publicar
icono
crono
suicidó
BANCO
##anato
cultivar
mostrarle
Maris
sucesivas
harta
consigues
glucosa
Reti
coral
Hudson
metí
##very
electr
##antha
##ionario
Treinta
221
Lauren
palma
Sandra
Coci
polémica
Siglo
Benin
afectó
##vet
##ésima
Descon
More
Hierro
austría
Punta
ascendido
##here
Diablo
##tenlo
Memoria
observan
SIS
inofen
sencillamente
fotografi
ilegalmente
Honestamente
##umos
Agenda
espesor
unilateral
Sale
monarquía
telefónicas
Debiste
completó
muscular
tratamos
dietas
nec
antibióticos
dieciocho
fórmulas
defenderse
318
Baleares
malentendido
soliciten
caprich
ganancia
Grandioso
##gem
##lier
redo
uruguay
##oel
ní
Tul
Nucle
despertado
##centes
construye
##eronáu
coloniales
disponía
moderado
mecánicos
##ículas
retrasado
seguiré
##tariado
destinatario
sic
habita
##josa
Rig
##ranca
equivoca
##giera
involucrar
intracomun
holandés
parlamentarias
molde
desmon
despropor
Recibí
##ADOR
radios
Nicholas
sedes
##usimos
sop
##yentes
rehus
ardiente
##eños
213
refirió
despejado
Balti
permitiré
robos
viajando
Hablaremos
Iglesias
##ficadas
Selec
Muñoz
llegues
canje
máximas
Debutó
##chevi
gane
ofreci
Volumen
##estern
Unidades
hablaste
inapropi
orales
caracterizado
Booth
hostilidades
maneja
##eet
Doña
espadas
Von
Baviera
mediciones
Linux
sustituto
supedi
ventan
##zn
##lógicos
enteros
clasifican
CONTR
arrojar
##IOR
repartir
expir
desglose
polla
absorber
matemática
##ARR
Mantente
orientales
Cry
irres
contratantes
paralela
hostil
cuevas
comparable
excusas
carros
enteró
##pino
Phoenix
##EROS
hongos
DS
Subs
Dulce
Loco
Fíjate
venezolano
Rever
meterte
Program
grabada
##iv
verdaderas
desal
cubanos
aban
confiere
debu
Plazo
Lau
Parecen
costera
##ciano
destruc
campeonatos
subsigui
Queens
Promé
confuso
##tarle
Ober
##mph
liquidar
##graph
matarnos
Distribución
sulf
##furt
hacha
revolucionaria
lea
expreso
navidad
soporto
##bó
infinito
##ñó
gobernadores
Gy
decl
defensas
comes
Escal
Part
Mecanismo
Montaña
Sajonia
controver
dirán
insuficientes
prorrate
farmacia
olímpico
cesación
##ost
Barb
##dadura
British
Tomó
traerá
recipiente
Espi
##apa
##ecretario
Física
combinados
##iao
abundantes
instrumental
condecor
##elles
repetidas
Femen
elu
lagar
acerques
##ners
INE
espías
Enferme
relojes
##noc
analf
quimioterapia
luchó
##omor
Franja
tirador
##DOS
planet
##vens
SEPA
contribuyan
corporales
comerciante
chofer
biotecnología
distintivo
##turación
reformar
Troy
ping
Desper
milí
ricas
##tsu
insignificante
preguntarme
##lete
Eve
gastado
294
Puig
trian
determinaciones
repti
procurar
sendero
bovina
rehén
##cons
sanos
apagado
convencidos
Letras
Delincu
percibirá
boletos
DR
miré
directorio
Mún
Podía
logre
leyendas
clam
Aven
atentamente
encla
relájate
conseguiré
Molina
##yon
##earch
Fisher
##lese
Pompe
Federativa
trope
palestina
jurídicamente
Médico
celdas
##ERR
intersección
exhaustiva
facto
stan
árbitro
discapacidades
223
Función
encargará
fundar
limitan
cogió
bende
adolescencia
perdonar
guionista
grosero
##ív
recolección
anticipo
descansa
##úrpura
atmosférica
sabrán
hubiere
##fiere
aprobaron
Estabilidad
bordes
triángulo
justificado
asequi
Centroafricana
superh
pertenencia
##IST
atañe
hilos
resplan
PDF
contarme
falda
Vanessa
radiodifusión
##tablo
aportado
geomé
mineros
delgado
telesco
paradero
inscritos
Rex
acogerse
##lus
arancelarios
218
Vivir
##ugar
innumer
Enhorabuena
Hid
revit
automovil
Laure
Níger
contribuyentes
Imagen
aparezca
formatos
pesadillas
Flu
##beria
##PL
casilla
Suite
ordenada
concluy
enseñarle
simplificar
242
pom
##tedra
Togo
Leopol
guerrill
Tito
motel
1880
##tics
256
##pora
##entena
reportes
titulación
##alth
Teléf
dañar
##udiciales
funcionado
##glic
mates
llevarnos
Heather
Laguna
hepática
sirvi
perfor
ocultos
dentista
##mascar
violar
##toli
##rillas
##ildo
prestará
Tun
Dispara
diploma
Supervis
atacando
asfi
angustia
rebas
incrementado
concebido
alla
Banda
Apla
rectangular
veterinarios
##uárez
Prado
astrón
Americanos
##iental
Interamericana
##tox
grandeza
TU
fruc
republicanos
cooperativa
ocupe
clínicas
Pia
Pilar
Llegas
rápidas
##bilizar
recogidas
clasifica
goza
cuadra
precisos
##uario
dirías
Chrysome
genético
asistido
adhi
##inería
Interesante
##igue
Debbie
Doctora
##lynn
dispens
cedido
Abel
ts
##uven
##letismo
desesperada
pretenden
salta
##viales
garantizará
compatri
Serge
india
Gabinete
Chrysomelidae
Medell
ocasionalmente
##ITO
Piénsalo
depri
talibanes
saludos
Montserrat
vincular
Bagdad
planteadas
comparables
Infra
donante
Ayudar
iraní
evangelio
Entrada
tocaba
deportistas
verb
tirando
Conjunto
señalaron
Das
Sugi
alineación
Múnich
inversa
reclusos
brasileña
advirtió
Aire
Recibido
postales
Muéstrame
incorrecta
indo
temáticos
Velo
yaci
Ayudante
##rosa
Bh
enano
paja
Ocur
escuches
##mendo
DIREC
acústica
pir
Doyle
misteriosa
convincente
ganamos
anticuer
Protocolos
Murray
Hills
arbustos
aproximada
jesui
robaste
rio
difunto
propicio
##resa
criada
hídricos
pides
Insi
rib
##icias
##tanto
##mediatamente
Manny
Archivo
reservar
monopolio
planificar
##ionante
acel
procesión
estupefacientes
Presiden
anciana
Carson
##personal
detenga
##ELL
GA
##élico
Batal
afines
lotería
ofrecerle
facilitada
locas
##jon
##blado
muriera
pagados
sobresal
imprimir
Glenn
##riéndose
Mie
mentiste
Mega
maci
##lei
metan
centró
estatura
particul
suprema
##alizarse
marcharse
##CES
##tarla
Comisiones
Berg
admitidos
interacciones
simulación
innovador
empujar
228
envíe
aptitud
interferencia
Inde
carencia
Pare
Bundes
##ufre
delincuente
surf
insinu
Descubri
##MAS
sutil
tormentas
auditorías
esplen
acumular
Veracruz
iniciación
##íncipes
molecular
rendimientos
debiera
cata
comunión
metropolitana
##atorial
disculpe
Lun
ballet
cárceles
detectives
geniales
Baltimore
comunicarán
##usco
Damon
rastros
ACTIV
socialismo
Hacía
clínico
válidas
obtenerse
oponente
##coa
Intercambi
##jari
celosa
Guzmán
Ferrocarril
ficti
ambientes
suplemento
renovable
Ahmed
##vadas
Llevas
costillas
Oaxa
apóst
princi
##greb
Digital
##daz
mitigar
##úpiter
trágico
tonelada
deliberadamente
rancho
recibimos
nes
##stra
pasajes
##gell
##espal
maxim
##aty
sellos
Shh
Perfec
bloquear
mueres
actúe
Carrera
patada
debamos
encaja
##ientos
destruidos
vendedores
zombi
Sherloc
fav
pañuelo
##gían
FNUAP
corresponder
##ulf
garantizada
sumo
Brid
transnacionales
##éndolos
ganarse
Meta
##velt
ratificar
puñ
arreci
primarios
respetado
reciclaje
##táneo
militantes
##picas
Acos
decimo
revolucionarios
##nico
drogadic
Sujé
recordando
prolet
precisar
##IDOS
honrado
subsidiarios
susto
champán
reunirá
necesiten
guardería
erosión
homicidios
Composición
resurrección
facilite
Toy
1901
cantantes
Ubic
faciliten
##patitis
siembra
Fórmula
Einstein
quedarás
irrespon
mayormente
##éri
preocupante
Campeón
Diseño
Comando
aditivos
engen
entrenado
guardián
calm
##orestación
Reserv
maravillas
consideraron
joy
polis
linea
Evidentemente
0800
Cardenal
desempleados
vacunación
Brit
coex
Berna
cruzando
iniciada
neutral
fabricados
dorada
enteras
Petersburgo
##ystem
reza
suplic
despegue
Vern
##illian
Porter
molestes
Gom
Vau
Champions
nevera
##efferson
colgado
Chic
Nash
Tendrán
FCC
Conocí
Esperanza
publicarán
Lester
Ortiz
majestad
233
síntoma
crianza
##pí
222
integró
destruye
cimientos
Nuevos
exigidos
Dum
Estambul
redactar
excesivamente
##eando
soñar
##och
tranquilos
mobiliario
granjas
##cat
señoría
ilícitas
##ASE
Get
##urero
Iris
educar
excluye
salvaguardia
hallaba
planteó
##lein
Acá
Organismos
coordinadores
transformado
almi
bárbar
prefieren
##live
##gura
académicas
Medellín
CRE
coordinado
tamaños
alienígena
comesti
enfrentamos
tóm
##macul
Roose
llegaremos
ensan
colaps
legítimos
##billa
himno
importados
##effrey
Dejad
Pertenece
ocuparé
aceptarlo
detrimento
caracterizan
recuento
expandir
##írgenes
típicos
216
sorpresas
ópti
SB
263
##AMOS
ENTR
##ree
Timo
unánime
satisfactorio
meterme
Pau
comprando
fronterizos
Patricia
table
padrino
manufactur
pala
Oíste
##mación
gentil
Firma
Sonny
##cete
Agosto
afectará
sufr
vacías
Sosp
desest
tumores
atien
Adopción
##deña
veían
píl
Math
accede
combinaciones
##verly
sustent
banderas
pay
almacenar
tragos
riendo
241
inalám
Diría
formados
sofo
roble
amenazado
arrogante
aspirantes
gusanos
##filo
Espacial
preferentemente
marro
reconociendo
contrarrestar
##pot
Horario
golfo
orientar
píldoras
##zará
revuelta
asignadas
siesta
desprecio
esperaban
SCC
mier
escalo
##MAN
Figura
Gris
educado
cataliz
##ituido
continentes
##vention
respiro
sufrieron
alienígenas
##ée
Evolución
Trevor
Gram
arriesgado
Shang
##ucciones
partiendo
racista
Echa
Rein
Estructura
Llevar
Mentir
Oaxaca
águila
canci
##SES
Olvidé
inmobiliario
deshon
plantaciones
##biendo
escocés
Científico
His
##cursales
##onaste
salve
Temo
envidia
Stri
engor
odiaba
dejemos
##alogía
Vice
Lla
inscripciones
confiable
Desgraci
botes
080
denominadas
bú
Song
Campaña
decora
seguiría
inútiles
lleves
##rro
##ctora
##heimer
Ganadería
##sche
##ject
UNMI
FUN
nene
##ppi
ató
peculiar
unidas
Inmi
oscil
Bartol
Ges
##tinal
Entré
condicion
sostienen
##puso
ferrocarriles
ficheros
ofrecieron
##olla
##mac
requieran
UEM
Escuad
contados
##espaldas
##torrique
consejeros
##jaban
toros
productivas
fotoco
##diales
convino
Prue
traduce
moderada
Gilbert
##stó
innumerables
Surin
##tice
fabricado
diseñó
suaves
trofeo
traerme
secas
potasio
empleador
Vigi
Deporte
Tier
##ART
Amar
##guemos
Institución
##ódete
extrañar
documentales
minimizar
sand
exenciones
Ie
Elis
##In
##itada
Nord
ciclista
residual
MS
registran
##ividad
Bille
filmar
libera
encantó
Carla
tenerla
sugerido
complementos
intensificación
##áculo
Leer
Bolsa
Sancho
##bora
conser
##Hz
Eng
Ellie
ultramar
campanas
Nega
Entidades
señalados
Cav
preocupen
garantizan
afirmaciones
sordo
australiano
incentivo
##dium
querrías
respete
vinculantes
##mero
Over
limitarse
Video
Selva
##chera
interdepen
reins
inmenso
##uit
Olvídate
reli
Suárez
sirviendo
##tilo
presionar
##ñanas
honrar
Council
Apolo
pozos
consolid
generados
agujas
Ela
vejez
##dara
evas
grues
justos
llamarla
acantil
Flam
Call
##DICE
hacéis
comentar
aprov
Chia
disgust
##bable
##óticas
vacíos
BL
lien
admitido
hispano
caucho
viajero
##quisición
indef
Helsin
capitalista
magnético
monje
universales
novios
modificarse
vocab
lit
significó
pasajero
consisten
sobrecar
montado
##cripciones
##onista
convocatorias
##versos
cautiv
impresos
enfermeras
subterráneas
famosas
##ladamente
distracción
650
señalando
Estraté
tentación
##erci
ESO
Alar
Pastor
favorece
ecológicos
metodologías
##ggs
juntar
candidaturas
##bers
Muestra
Coste
Sesión
Constr
fro
tomaba
parados
Funcion
generó
presenci
ocurridos
votaciones
Posiblemente
psicópata
tristes
sobredosis
precisas
creían
##falo
lecturas
suite
prostitutas
Metropolitana
remitido
referida
Gian
inventado
vinimos
muralla
##TP
##dano
chor
Noah
Díselo
Exterior
##grupo
ansioso
tiburones
Niza
Mexicana
Square
accesos
conducen
Droga
mendi
adapta
tracción
vió
Danubio
accidentalmente
concord
Ingresos
debieron
##zán
##uds
##dales
federado
##puse
Coalición
prioritaria
##DIS
especificado
anat
chinas
guay
Field
sun
palos
inmovi
correctas
carru
pantano
telefonía
##uj
##tráfico
##ecoslo
Playa
##dele
seguiremos
PRIN
pavos
borracha
Gina
cesar
##late
##tidor
solemne
extraterrestre
Diputación
cuidadoso
1860
Commun
316
estimó
Mina
virtudes
##fectura
verlas
contratados
movido
Escon
ajustado
##PU
CID
homogén
cortinas
MUN
Crea
envuelto
integrarse
jodidamente
langos
amate
empiezo
emprendido
trabajaban
Enm
dejarle
lazo
Aline
##hiriya
fuéramos
VE
##OCI
prepá
llanura
##sella
pica
oscure
Football
valenci
salvaguardar
##xias
##iedad
GC
cocinero
codificación
Tomo
Horn
This
inciner
venda
apresur
felicito
MIS
entras
obligatorias
Asist
retroceder
Separ
pulgar
tomate
Establecer
contratista
Boys
musulmán
reclamante
incompatibles
desaparecieron
normalizado
hmm
Solar
##gusti
furia
Gard
##blemente
usarla
Inmediatamente
##ólver
entrome
dispongan
GU
agresivo
tenta
dominación
transmitida
##amahiriya
Residu
fármacos
Gale
primos
Medalla
ultimo
recaudar
sucursales
##ulián
cruzada
Chandler
salvaste
bicicletas
afian
Philippe
experimentales
distribuidores
Pago
detallados
BC
severa
Presenta
consejera
retribu
##hon
##fice
tomara
dibujar
bastardos
##gnia
Dead
vaquero
repugnante
Lili
grabados
linaje
subastas
Quinto
expuesta
desventaja
leña
violado
Verónica
interpretarse
Ajust
##ode
Present
admiración
Gracia
predecir
Hul
confirman
Pensilvania
##dosa
Histórico
seguí
frenos
ensam
mirado
acumulado
forzados
expiración
Liam
Archer
Proces
Hubiera
pianista
retratos
audiovisuales
mosca
parecida
##tendo
##globina
vide
revisando
prorrogar
[...]
