[MASK]
[PAD]
[EOS]
[UNK]
[CLS]
[SEP]
[unused0]
[unused1]
[unused2]
[unused3]
[unused4]
[unused5]
[unused6]
[unused7]
[unused8]
[unused9]
[unused10]
[unused11]
[unused12]
[unused13]
[unused14]
[unused15]
[unused16]
[unused17]
[unused18]
[unused19]
[unused20]
[unused21]
[unused22]
[unused23]
[unused24]
[unused25]
[unused26]
[unused27]
[unused28]
[unused29]
[unused30]
[unused31]
[unused32]
[unused33]
[unused34]
[unused35]
[unused36]
[unused37]
[unused38]
[unused39]
[unused40]
[unused41]
[unused42]
[unused43]
[unused44]
[unused45]
[unused46]
[unused47]
[unused48]
[unused49]
[unused50]
[unused51]
[unused52]
[unused53]
[unused54]
[unused55]
[unused56]
[unused57]
[unused58]
[unused59]
[unused60]
[unused61]
[unused62]
[unused63]
[unused64]
[unused65]
[unused66]
[unused67]
[unused68]
[unused69]
[unused70]
[unused71]
[unused72]
[unused73]
[unused74]
[unused75]
[unused76]
[unused77]
[unused78]
[unused79]
[unused80]
[unused81]
[unused82]
[unused83]
[unused84]
[unused85]
[unused86]
[unused87]
[unused88]
[unused89]
[unused90]
[unused91]
[unused92]
[unused93]
[unused94]
[unused95]
[unused96]
[unused97]
[unused98]
[unused99]
[unused100]
[unused101]
[unused102]
[unused103]
[unused104]
[unused105]
[unused106]
[unused107]
[unused108]
[unused109]
[unused110]
[unused111]
[unused112]
[unused113]
[unused114]
[unused115]
[unused116]
[unused117]
[unused118]
[unused119]
[unused120]
[unused121]
[unused122]
[unused123]
[unused124]
[unused125]
[unused126]
[unused127]
[unused128]
[unused129]
[unused130]
[unused131]
[unused132]
[unused133]
[unused134]
[unused135]
[unused136]
[unused137]
[unused138]
[unused139]
[unused140]
[unused141]
[unused142]
[unused143]
[unused144]
[unused145]
[unused146]
[unused147]
[unused148]
[unused149]
[unused150]
[unused151]
[unused152]
[unused153]
[unused154]
[unused155]
[unused156]
[unused157]
[unused158]
[unused159]
[unused160]
[unused161]
[unused162]
[unused163]
[unused164]
[unused165]
[unused166]
[unused167]
[unused168]
[unused169]
[unused170]
[unused171]
[unused172]
[unused173]
[unused174]
[unused175]
[unused176]
[unused177]
[unused178]
[unused179]
[unused180]
[unused181]
[unused182]
[unused183]
[unused184]
[unused185]
[unused186]
[unused187]
[unused188]
[unused189]
[unused190]
[unused191]
[unused192]
[unused193]
[unused194]
[unused195]
[unused196]
[unused197]
[unused198]
[unused199]
[unused200]
[unused201]
[unused202]
[unused203]
[unused204]
[unused205]
[unused206]
[unused207]
[unused208]
[unused209]
[unused210]
[unused211]
[unused212]
[unused213]
[unused214]
[unused215]
[unused216]
[unused217]
[unused218]
[unused219]
[unused220]
[unused221]
[unused222]
[unused223]
[unused224]
[unused225]
[unused226]
[unused227]
[unused228]
[unused229]
[unused230]
[unused231]
[unused232]
[unused233]
[unused234]
[unused235]
[unused236]
[unused237]
[unused238]
[unused239]
[unused240]
[unused241]
[unused242]
[unused243]
[unused244]
[unused245]
[unused246]
[unused247]
[unused248]
[unused249]
[unused250]
[unused251]
[unused252]
[unused253]
[unused254]
[unused255]
[unused256]
[unused257]
[unused258]
[unused259]
[unused260]
[unused261]
[unused262]
[unused263]
[unused264]
[unused265]
[unused266]
[unused267]
[unused268]
[unused269]
[unused270]
[unused271]
[unused272]
[unused273]
[unused274]
[unused275]
[unused276]
[unused277]
[unused278]
[unused279]
[unused280]
[unused281]
[unused282]
[unused283]
[unused284]
[unused285]
[unused286]
[unused287]
[unused288]
[unused289]
[unused290]
[unused291]
[unused292]
[unused293]
[unused294]
[unused295]
[unused296]
[unused297]
[unused298]
[unused299]
[unused300]
[unused301]
[unused302]
[unused303]
[unused304]
[unused305]
[unused306]
[unused307]
[unused308]
[unused309]
[unused310]
[unused311]
[unused312]
[unused313]
[unused314]
[unused315]
[unused316]
[unused317]
[unused318]
[unused319]
[unused320]
[unused321]
[unused322]
[unused323]
[unused324]
[unused325]
[unused326]
[unused327]
[unused328]
[unused329]
[unused330]
[unused331]
[unused332]
[unused333]
[unused334]
[unused335]
[unused336]
[unused337]
[unused338]
[unused339]
[unused340]
[unused341]
[unused342]
[unused343]
[unused344]
[unused345]
[unused346]
[unused347]
[unused348]
[unused349]
[unused350]
[unused351]
[unused352]
[unused353]
[unused354]
[unused355]
[unused356]
[unused357]
[unused358]
[unused359]
[unused360]
[unused361]
[unused362]
[unused363]
[unused364]
[unused365]
[unused366]
[unused367]
[unused368]
[unused369]
[unused370]
[unused371]
[unused372]
[unused373]
[unused374]
[unused375]
[unused376]
[unused377]
[unused378]
[unused379]
[unused380]
[unused381]
[unused382]
[unused383]
[unused384]
[unused385]
[unused386]
[unused387]
[unused388]
[unused389]
[unused390]
[unused391]
[unused392]
[unused393]
[unused394]
[unused395]
[unused396]
[unused397]
[unused398]
[unused399]
[unused400]
[unused401]
[unused402]
[unused403]
[unused404]
[unused405]
[unused406]
[unused407]
[unused408]
[unused409]
[unused410]
[unused411]
[unused412]
[unused413]
[unused414]
[unused415]
[unused416]
[unused417]
[unused418]
[unused419]
[unused420]
[unused421]
[unused422]
[unused423]
[unused424]
[unused425]
[unused426]
[unused427]
[unused428]
[unused429]
[unused430]
[unused431]
[unused432]
[unused433]
[unused434]
[unused435]
[unused436]
[unused437]
[unused438]
[unused439]
[unused440]
[unused441]
[unused442]
[unused443]
[unused444]
[unused445]
[unused446]
[unused447]
[unused448]
[unused449]
[unused450]
[unused451]
[unused452]
[unused453]
[unused454]
[unused455]
[unused456]
[unused457]
[unused458]
[unused459]
[unused460]
[unused461]
[unused462]
[unused463]
[unused464]
[unused465]
[unused466]
[unused467]
[unused468]
[unused469]
[unused470]
[unused471]
[unused472]
[unused473]
[unused474]
[unused475]
[unused476]
[unused477]
[unused478]
[unused479]
[unused480]
[unused481]
[unused482]
[unused483]
[unused484]
[unused485]
[unused486]
[unused487]
[unused488]
[unused489]
[unused490]
[unused491]
[unused492]
[unused493]
[unused494]
[unused495]
[unused496]
[unused497]
[unused498]
[unused499]
[unused500]
[unused501]
[unused502]
[unused503]
[unused504]
[unused505]
[unused506]
[unused507]
[unused508]
[unused509]
[unused510]
[unused511]
[unused512]
[unused513]
[unused514]
[unused515]
[unused516]
[unused517]
[unused518]
[unused519]
[unused520]
[unused521]
[unused522]
[unused523]
[unused524]
[unused525]
[unused526]
[unused527]
[unused528]
[unused529]
[unused530]
[unused531]
[unused532]
[unused533]
[unused534]
[unused535]
[unused536]
[unused537]
[unused538]
[unused539]
[unused540]
[unused541]
[unused542]
[unused543]
[unused544]
[unused545]
[unused546]
[unused547]
[unused548]
[unused549]
[unused550]
[unused551]
[unused552]
[unused553]
[unused554]
[unused555]
[unused556]
[unused557]
[unused558]
[unused559]
[unused560]
[unused561]
[unused562]
[unused563]
[unused564]
[unused565]
[unused566]
[unused567]
[unused568]
[unused569]
[unused570]
[unused571]
[unused572]
[unused573]
[unused574]
[unused575]
[unused576]
[unused577]
[unused578]
[unused579]
[unused580]
[unused581]
[unused582]
[unused583]
[unused584]
[unused585]
[unused586]
[unused587]
[unused588]
[unused589]
[unused590]
[unused591]
[unused592]
[unused593]
[unused594]
[unused595]
[unused596]
[unused597]
[unused598]
[unused599]
[unused600]
[unused601]
[unused602]
[unused603]
[unused604]
[unused605]
[unused606]
[unused607]
[unused608]
[unused609]
[unused610]
[unused611]
[unused612]
[unused613]
[unused614]
[unused615]
[unused616]
[unused617]
[unused618]
[unused619]
[unused620]
[unused621]
[unused622]
[unused623]
[unused624]
[unused625]
[unused626]
[unused627]
[unused628]
[unused629]
[unused630]
[unused631]
[unused632]
[unused633]
[unused634]
[unused635]
[unused636]
[unused637]
[unused638]
[unused639]
[unused640]
[unused641]
[unused642]
[unused643]
[unused644]
[unused645]
[unused646]
[unused647]
[unused648]
[unused649]
[unused650]
[unused651]
[unused652]
[unused653]
[unused654]
[unused655]
[unused656]
[unused657]
[unused658]
[unused659]
[unused660]
[unused661]
[unused662]
[unused663]
[unused664]
[unused665]
[unused666]
[unused667]
[unused668]
[unused669]
[unused670]
[unused671]
[unused672]
[unused673]
[unused674]
[unused675]
[unused676]
[unused677]
[unused678]
[unused679]
[unused680]
[unused681]
[unused682]
[unused683]
[unused684]
[unused685]
[unused686]
[unused687]
[unused688]
[unused689]
[unused690]
[unused691]
[unused692]
[unused693]
[unused694]
[unused695]
[unused696]
[unused697]
[unused698]
[unused699]
[unused700]
[unused701]
[unused702]
[unused703]
[unused704]
[unused705]
[unused706]
[unused707]
[unused708]
[unused709]
[unused710]
[unused711]
[unused712]
[unused713]
[unused714]
[unused715]
[unused716]
[unused717]
[unused718]
[unused719]
[unused720]
[unused721]
[unused722]
[unused723]
[unused724]
[unused725]
[unused726]
[unused727]
[unused728]
[unused729]
[unused730]
[unused731]
[unused732]
[unused733]
[unused734]
[unused735]
[unused736]
[unused737]
[unused738]
[unused739]
[unused740]
[unused741]
[unused742]
[unused743]
[unused744]
[unused745]
[unused746]
[unused747]
[unused748]
[unused749]
[unused750]
[unused751]
[unused752]
[unused753]
[unused754]
[unused755]
[unused756]
[unused757]
[unused758]
[unused759]
[unused760]
[unused761]
[unused762]
[unused763]
[unused764]
[unused765]
[unused766]
[unused767]
[unused768]
[unused769]
[unused770]
[unused771]
[unused772]
[unused773]
[unused774]
[unused775]
[unused776]
[unused777]
[unused778]
[unused779]
[unused780]
[unused781]
[unused782]
[unused783]
[unused784]
[unused785]
[unused786]
[unused787]
[unused788]
[unused789]
[unused790]
[unused791]
[unused792]
[unused793]
[unused794]
[unused795]
[unused796]
[unused797]
[unused798]
[unused799]
[unused800]
[unused801]
[unused802]
[unused803]
[unused804]
[unused805]
[unused806]
[unused807]
[unused808]
[unused809]
[unused810]
[unused811]
[unused812]
[unused813]
[unused814]
[unused815]
[unused816]
[unused817]
[unused818]
[unused819]
[unused820]
[unused821]
[unused822]
[unused823]
[unused824]
[unused825]
[unused826]
[unused827]
[unused828]
[unused829]
[unused830]
[unused831]
[unused832]
[unused833]
[unused834]
[unused835]
[unused836]
[unused837]
[unused838]
[unused839]
[unused840]
[unused841]
[unused842]
[unused843]
[unused844]
[unused845]
[unused846]
[unused847]
[unused848]
[unused849]
[unused850]
[unused851]
[unused852]
[unused853]
[unused854]
[unused855]
[unused856]
[unused857]
[unused858]
[unused859]
[unused860]
[unused861]
[unused862]
[unused863]
[unused864]
[unused865]
[unused866]
[unused867]
[unused868]
[unused869]
[unused870]
[unused871]
[unused872]
[unused873]
[unused874]
[unused875]
[unused876]
[unused877]
[unused878]
[unused879]
[unused880]
[unused881]
[unused882]
[unused883]
[unused884]
[unused885]
[unused886]
[unused887]
[unused888]
[unused889]
[unused890]
[unused891]
[unused892]
[unused893]
[unused894]
[unused895]
[unused896]
[unused897]
[unused898]
[unused899]
[unused900]
[unused901]
[unused902]
[unused903]
[unused904]
[unused905]
[unused906]
[unused907]
[unused908]
[unused909]
[unused910]
[unused911]
[unused912]
[unused913]
[unused914]
[unused915]
[unused916]
[unused917]
[unused918]
[unused919]
[unused920]
[unused921]
[unused922]
[unused923]
[unused924]
[unused925]
[unused926]
[unused927]
[unused928]
[unused929]
[unused930]
[unused931]
[unused932]
[unused933]
[unused934]
[unused935]
[unused936]
[unused937]
[unused938]
[unused939]
[unused940]
[unused941]
[unused942]
[unused943]
[unused944]
[unused945]
[unused946]
[unused947]
[unused948]
[unused949]
[unused950]
[unused951]
[unused952]
[unused953]
[unused954]
[unused955]
[unused956]
[unused957]
[unused958]
[unused959]
[unused960]
[unused961]
[unused962]
[unused963]
[unused964]
[unused965]
[unused966]
[unused967]
[unused968]
[unused969]
[unused970]
[unused971]
[unused972]
[unused973]
[unused974]
[unused975]
[unused976]
[unused977]
[unused978]
[unused979]
[unused980]
[unused981]
[unused982]
[unused983]
[unused984]
[unused985]
[unused986]
[unused987]
##:
:
##8
8
##7
7
##6
6
4
##4
##w
w
e
d
.
de
l
p
a
c
##os
s
##er
##en
##es
,
##ar
##as
##on
m
##ci
##qu
##or
t
es
##an
qu
##ad
la
n
##un
en
##re
##in
##al
el
y
que
h
##te
un
##ón
v
##ta
con
##to
##do
##ti
##ra
##ro
no
f
##is
se
##om
?
##ic
b
##am
¿
##ien
##ción
##id
los
o
su
re
g
par
in
al
ha
por
##ue
est
com
##le
del
##ado
##ol
##res
las
lo
##ri
##ec
##ía
##em
una
##lo
##ente
me
##la
si
para
1
per
"
##tr
##cu
cu
##di
##cion
pro
##ab
##us
!
##go
di
##ación
##ier
##de
##ch
##ás
j
des
##ter
¡
i
##ent
##il
##tu
##gu
##ada
##od
mu
2
##io
##ando
##bre
##idad
##el
)
mi
##ia
##mp
-
qué
##ma
##tos
##cia
##ran
so
as
(
##tar
esta
##ir
como
##ba
##mo
##ciones
te
ac
está
ex
##ca
##iz
##ales
##tiv
ten
##ión
le
##ados
##da
an
pue
ser
##co
##ica
##jo
##tes
##tor
##po
##bi
##era
##tra
esp
##ten
##se
tra
##ici
ma
más
##ce
pa
##dad
##me
ar
##ues
r
##én
pero
res
##án
hab
##tro
##mente
##ul
esto
tu
##tas
ap
##ig
##que
20
##amos
to
##iv
sí
##ero
bien
##ora
pre
##ez
dis
##mos
19
##lar
tien
ti
##iento
##ble
##emos
tod
ca
##cer
comp
##tan
ver
sus
##man
cons
cre
bu
##ida
ent
##ie
##orm
car
##uc
##és
##gun
sobre
fue
##ico
pr
eso
cas
yo
##ones
am
##ces
aqu
or
inter
na
deb
pres
ah
fu
man
mar
##los
quier
ch
##im
co
##gar
pas
##lan
buen
##ido
sab
este
##tal
imp
##pa
##con
pod
ob
##ga
mis
##ambi
##rim
##ento
po
##ún
##tros
##eces
sal
##pe
##ens
##encia
aquí
##ver
##ras
todo
##ño
sol
##ios
ad
inf
3
##per
##je
##ños
##cias
hay
us
lle
##ores
##lam
##na
k
son
ya
sin
##ís
nos
##adas
é
200
##les
ab
##tin
pe
##vo
##par
cor
##ur
##ib
##amente
##ías
así
deci
##um
##las
entre
##ud
##ac
ro
##it
fin
##des
##za
##av
traba
cuando
tambi
##min
has
muy
también
##enta
much
##gan
cam
hacer
##fer
reg
##son
##eci
##ru
##mas
lu
gra
tan
neces
ni
segu
##emp
##lic
##fici
##den
prim
##ech
##iste
nue
ba
gen
##ven
##vi
##cional
##br
ahora
pu
ter
emp
mo
##gra
tiene
##pon
##fic
##ve
##va
todos
##der
pol
cos
có
ra
##ina
hu
señ
esc
##almente
##oy
dos
era
5
gran
parti
##idas
ins
ven
##entes
##esti
##isión
él
algo
##iendo
inc
du
##tras
puede
##gr
person
##ja
pos
mun
vez
estoy
##jer
gu
dic
##por
he
vamos
nues
##dos
0
##tic
##mi
##lu
##duc
medi
au
##ólo
##endo
va
##pu
##cip
##iones
ay
##ana
##ío
men
mej
hom
llam
##idades
##no
mal
##rech
sólo
años
##aron
##cuer
##ista
##tado
##ador
cómo
ir
##rec
can
rela
ve
##iente
u
##tivo
tengo
##aliz
sé
do
##car
for
san
bueno
##ante
tú
##ían
##tri
impor
##ion
##tica
estás
tom
##ino
gener
##ita
ne
nada
hasta
cal
##ias
derech
ese
##ario
ella
##ren
parte
cono
comun
##pues
han
##ola
estado
don
uste
##empo
algun
##aba
tiempo
país
rep
estu
her
fun
contra
may
hi
##itar
sec
##miento
##ín
##cio
desde
ju
gracias
##ito
mejor
mil
fuer
##pos
##til
conse
##ícu
##tiva
porque
estar
##ecto
puedo
podr
conf
##idos
##arro
##titu
##can
##ea
quiero
especi
ci
vol
cab
bas
##bier
decir
##tura
tran
199
##icos
##uro
cer
##tir
están
##ena
##adre
soy
##jar
col
plan
sig
9
##che
min
##ér
val
##ña
á
##tó
estaba
##uel
cual
verdad
##arrol
##onces
##zo
go
desarrol
señor
##avor
mon
##cur
esa
trabajo
##mb
##rante
entonces
##unto
vida
uno
favor
##jos
id
##du
##ara
euro
##tante
exp
##ing
##quier
hech
mujer
##cial
solo
201
##able
##ién
acuer
##bl
##ano
casa
da
inform
##trar
##eros
rec
direc
progra
prin
##qui
dios
lugar
hace
despu
después
tienes
ce
usted
interna
inv
donde
encon
##tad
##lti
estados
##tación
general
##nos
##ución
creo
mismo
pens
##ior
##ería
eres
antes
organ
durante
10
##pi
comisión
viv
lib
trans
den
##cil
af
ej
##entos
cr
##dr
##entar
##dar
##das
##udad
vi
##if
princip
form
llev
##tur
gus
z
ciudad
##so
mucho
había
##ónde
##tico
quién
voy
har
día
nun
sr
prop
##ber
##ece
tal
mí
human
nunca
polí
sabes
##sión
##guien
ú
##gas
vis
acuerdo
##gos
##lación
gru
serv
muer
año
##uego
pon
nom
hola
otros
mayor
sen
art
fran
hecho
##cha
##ya
ref
hombre
##gen
tar
espa
cada
reci
ind
otra
consejo
##ición
dónde
##oso
##ió
##amil
mundo
dec
##gua
li
##ible
ofici
sido
##tivos
desarrollo
produc
##embre
proble
##empre
bo
siempre
med
tr
esper
##th
les
##og
##tamente
bar
##arios
sa
miem
##eo
dar
pla
sea
famil
últi
##rib
##ona
ellos
##vis
all
forma
tenemos
##gún
pues
organiz
##icas
sub
op
quieres
tres
jo
fi
actu
##adores
##ord
##aciones
otro
jun
##zar
##ciendo
##yo
##dido
##end
ef
poco
##ame
super
países
is
##ho
todas
mom
nuevo
clar
siento
presid
##úbl
encu
mer
siste
##cionales
cosas
his
escu
##antes
apar
##lus
europe
bus
th
personas
pal
##ticas
nombre
def
tanto
##ismo
cul
segun
##ye
ev
estudi
oh
##eron
artícu
##ge
##ár
puedes
prof
##ál
##lig
##arse
fr
ayud
##ilidad
##mpl
##argo
##ne
gobier
servici
ri
proy
noso
pregun
##ton
segur
##tido
primera
oc
econ
menos
ahí
haber
tener
derechos
alguien
##amiento
##óm
inclu
tras
apro
obje
##alidad
##ientos
debe
##orme
of
pap
##eza
##tis
nosotros
aplic
ho
##zón
internacional
consid
##mento
pes
##dia
estos
momento
tipo
##ers
##cido
cier
tem
dijo
padre
##toria
estable
quien
información
din
fe
activ
##dió
realiz
estas
mé
##ecu
mes
mor
ban
##bros
primer
##ha
fal
hablar
##ban
##tados
##cen
cuenta
noche
pueden
##sa
##ine
estamos
programa
##tores
nacional
seguridad
be
herman
##ará
gan
naciones
grupo
##tec
##erv
ag
quer
pel
dej
obs
##bo
00
emb
15
gente
##xi
##igo
##osa
aun
contin
##cul
repres
peque
dé
equi
resp
podría
ún
comer
nor
vuel
situ
##tivas
12
ol
secre
##cup
nad
##tre
fuera
nú
parece
##ial
##tencia
##teg
resul
pri
apo
util
unidas
##ific
vas
##ús
hor
##van
miembros
artículo
pasa
##ceso
tienen
##ene
tenía
otras
gobierno
adem
amb
##sos
##ientes
jus
difer
toda
ley
deber
##cimiento
luego
además
nueva
##rar
##ác
pi
##mon
##cos
días
hijo
comple
utiliz
nuestro
conven
soci
cualquier
cl
ing
cap
##ice
caso
núm
##uda
nadie
derecho
##entro
##vid
trabaj
sigu
mas
##anos
cen
mira
hoy
familia
quiere
pob
##puesto
##bu
##blic
##ril
sistema
termin
##cep
resol
presidente
medio
autor
fa
loc
mien
##ill
##tantes
guer
respon
##00
##cado
habi
contro
capa
nuestra
##len
##tru
temp
##izo
investi
consider
ado
##ité
os
económ
mientras
agr
je
vo
és
##ke
univ
recon
##ública
##inar
mill
finan
11
cin
##ectos
será
tor
##truc
preo
enti
lleg
##imiento
permi
##ensa
empres
som
aunque
informe
cuán
##terior
##ard
dinero
dice
mater
##cidad
hacia
orden
##gación
cambi
reun
entr
niños
##minis
##tener
algunos
##fr
##fo
fueron
aún
var
elec
##cular
número
gar
##vier
##cho
manera
##ivel
##and
comité
humanos
seguro
tier
##ticos
madre
##bas
claro
ale
podemos
inte
nivel
igu
cuesti
##lec
##istas
##atro
anti
exper
bajo
auto
trata
ases
##tando
allí
##zas
ses
dejar
puer
quiz
dentro
haciendo
##tun
poder
##bres
##ala
##áp
profes
financi
persona
mam
##íamos
funcion
##éc
acab
importante
mujeres
ru
hizo
perd
##cel
##ed
##all
espera
desa
total
##rá
mañ
nuev
##esta
##peración
##anza
institu
liber
sign
univers
encontrar
em
social
unos
##lamento
rev
medidas
sabe
##iar
leg
diver
edi
según
veces
mañana
##ist
buena
tus
ta
sur
##torio
##encias
##lor
cosa
##rig
prepar
conc
extra
amigo
the
clas
##dio
##taría
##jas
##alo
pueb
especial
##tel
##íodo
##bido
proyecto
período
seman
saber
necesita
guerra
##erg
##ional
declar
##tific
ja
adop
particip
##cas
##uela
##tención
política
30
##ep
equipo
ayudar
esos
comunidad
polic
##ros
volver
recur
13
##ferencia
proce
habl
##mar
##entra
##ich
cele
emple
hombres
ante
##inación
ayuda
fel
##reg
##puesta
historia
##iado
eran
##ór
servicios
##bio
punto
continu
coo
amig
problema
llegar
tarde
conti
agua
tendr
##be
mundi
compa
gusta
dicho
int
final
##ves
escri
sh
embargo
millones
regres
ele
##ecer
actividades
##olog
muchos
hici
exam
##ifica
##rió
##untos
##ura
x
##iso
interes
##fe
palab
orig
norm
jul
recuer
paz
##tac
fo
##mientos
fon
##illa
pien
posible
##istencia
##ció
000
ráp
dif
##ivo
##ip
##óg
minu
sue
##aste
##cios
##tural
población
##ierda
adminis
recono
cuer
ejemp
acer
##tran
condi
centro
hemos
fund
##isto
##tario
prob
problemas
dem
gas
tierra
igual
unidos
van
alguna
er
sex
aplicación
nin
##tancia
minis
##eras
supon
vie
mad
##ts
##ck
razón
necesito
##bol
##tribu
##lares
vien
mierda
amor
docu
constitu
cuatro
lan
inclus
##termin
maldi
##tera
gol
##té
doc
##dor
##vin
partes
policía
inici
##ular
decisión
##dir
##ental
##duci
##ual
hora
##igu
esti
##zos
escuch
cien
##tada
particular
##tral
##visión
present
muchas
##ell
respecto
##abor
salud
pan
##ques
##aban
lado
##cid
trib
caus
##ono
situación
dep
sac
##aré
debería
nego
pasado
##dic
##men
matar
##jes
represent
##ex
dije
##ror
importa
compañ
##dose
visto
demas
aquel
encontr
resolución
##bro
sos
mundial
papá
siendo
ningun
algunas
idea
esas
relación
vale
##ry
misma
##arlo
sep
recom
mamá
##ñas
control
##fico
##inas
desp
todav
determin
##pital
##ger
##mple
##tió
##ama
aum
oye
casi
ren
hacerlo
##col
mod
compe
cuan
##ustri
fir
comen
##ables
quería
terri
realmente
segundo
dici
crees
república
via
ense
má
logr
alcan
significa
apoyo
muerte
cierto
ig
sería
jue
todavía
and
trav
europea
atra
pron
norte
encuentra
##iciones
##siones
##fica
aprob
##gado
mío
##migo
real
conmigo
cir
ampl
blan
dom
tí
mus
empez
ade
alem
25
inten
opor
##dades
conver
enfer
tur
##tud
través
prue
##bor
cinco
oblig
gr
oportun
horas
prác
##ire
oficina
br
ello
qued
##ización
protec
##uer
public
##cis
diciembre
preocup
respons
cerca
compro
personal
##arme
viol
##lante
consegu
cara
##tí
##ase
proceso
incluso
##itas
perf
##icación
lí
##ficiente
##rir
ocur
dirig
cuid
##écn
##eta
desc
bol
tec
ase
dó
equ
recursos
##tán
cuar
dispos
mucha
ur
##ós
aso
rad
trad
vir
administra
sino
técn
acep
mov
unión
pueblo
esf
sup
##aría
camino
ton
mos
base
estr
envi
jur
demasiado
##bra
ejemplo
jug
cora
ustedes
algún
enten
educ
##gre
##ieron
##ág
##ám
organización
vig
distin
rey
espec
##icip
nuestros
déj
junto
alto
##entación
encar
##má
municip
##turas
acu
civ
dan
ima
socie
lín
fil
seguir
programas
pen
##ría
pár
cabeza
grandes
haya
##imo
##gi
##tón
fá
julio
on
##lica
##eric
hon
indi
descu
primero
contigo
suce
bro
##ale
hermano
##tion
sesiones
cooperación
mol
civil
##trás
ga
##bern
tomar
##dida
##ide
españ
promo
##gel
serio
salv
21
amigos
dólares
garan
oí
expres
celebr
ata
agu
destin
##gro
tele
##eas
protección
##tt
##ología
único
##zó
pasó
##ches
investigación
##uso
junio
frente
chica
ofre
##ticia
último
cumpl
##dico
##gres
##cito
productos
largo
##amble
armas
compar
salir
cur
datos
##hn
##isa
##ilar
##aria
cambio
niño
perman
posib
asamble
segunda
##fa
siguiente
poner
dispon
cris
ví
tribun
pasar
defin
deben
serie
pelícu
##rea
presente
sigue
servicio
tecn
mediante
##ancia
##icia
##tio
encan
##imos
meses
##ka
22
##zado
##sas
fer
asamblea
##respon
energ
debido
dispar
industri
##itos
arreg
quedar
##trucción
tema
deba
manten
ii
##bió
regis
tuvo
solici
km
cru
##nas
##pas
##éis
##ciales
2000
inde
libre
papel
educación
##iores
mús
correspon
vin
hac
atención
cuerpo
semana
llevar
##ile
universidad
región
acción
##erva
##cal
ninguna
lista
ning
realidad
tempor
consul
mano
suficiente
##orma
tel
ningún
bel
hubier
grande
mayo
bor
cri
recib
minutos
##hi
partido
capacidad
uso
ór
##alu
habla
difí
sector
##via
mayoría
pad
guar
mag
##ign
natural
23
condiciones
##lado
pie
estra
conv
enseñ
varios
europa
zona
toma
pró
secretario
mercado
ocup
##tamento
asegu
haces
##porte
última
eh
##echa
jefe
alim
somos
marco
ben
modo
cla
buenos
arri
##bia
juego
##tá
puerta
lin
##érica
fre
simple
##illo
españa
escuela
tex
##leg
red
##ick
##ula
sentido
pin
##und
arm
beb
bal
##ducir
##bar
##ándo
apren
##ológ
octu
asoci
siglo
hijos
conj
sor
##iera
octubre
veo
opera
##ler
prome
buenas
##tiembre
john
militar
abs
ge
hos
cuanto
pelig
quizá
puesto
sent
tro
ub
sociedad
común
relacion
reglamento
novi
at
efec
rápido
vaya
conoci
marzo
##terio
corazón
procedi
der
tam
##erte
manos
gri
##mentos
##yó
pronto
##iencia
muerto
septiembre
ves
conten
depar
nacionales
pueda
bene
propor
##li
##inos
señal
##tulo
bon
gesti
agrad
principal
##entales
organizaciones
señora
dol
feder
##pend
ital
internacionales
correc
##rio
av
cee
observ
hija
##dan
##olu
##gue
exac
demás
noviembre
lar
edad
sabía
igles
enero
ros
disc
lim
constru
diferentes
anim
trabajar
##cin
dese
cari
digo
olvid
unas
vista
##taciones
reunión
chicos
acerca
supuesto
luz
discul
busc
objetivo
jam
debo
priv
fra
seis
perten
##adamente
jes
##quiera
2001
iden
##ste
jos
##remos
clase
casos
abril
cuál
50
reco
len
provin
##ionales
ka
##tero
europeo
clu
libertad
pregunta
corr
doctor
presu
río
mic
adelante
##brero
lig
falta
producción
iba
estruc
ejer
párra
origin
##abilidad
inver
partir
fuerte
sim
tri
pop
línea
esposa
públ
club
az
público
acceso
cuestión
pensé
2005
difícil
##ll
asistencia
##dedor
allá
distri
dorm
##ablemente
orien
legis
grupos
esfuer
dij
dio
respe
##ack
tribunal
incre
pequeño
ojos
valor
31
fácil
##ense
cariño
formación
dado
afec
labor
##turo
próxi
##tadas
hablando
director
##tivamente
cabo
empresas
chico
nota
convención
adi
ejecu
come
evalu
intent
conferencia
políticas
figu
char
##ny
fan
demo
modi
vic
dirección
necesario
justicia
##este
fuerza
sra
fondo
hice
cuad
habían
ll
##tidad
##ug
##ork
##pre
independ
juntos
##rera
oficial
2002
entrar
##ración
contribu
proteg
libro
consecu
materia
##adora
pág
##arte
##bles
paso
cál
##rado
##pec
morir
##ificación
##edo
oportunidad
suerte
anterior
lon
##icamente
##eme
##bur
cuidado
cuestiones
resid
##enda
desapar
##ende
##tales
##ficio
##onas
única
sangre
energía
iglesia
estaban
mues
pobre
suf
##guientes
miembro
dise
bra
película
pers
capit
justo
##tina
español
conseguir
quin
##yendo
joven
deja
conocer
resultados
quizás
palabra
gén
sir
carac
##ley
##ania
campo
tenido
sitio
##ris
##inado
##enso
conte
##él
##et
100
obra
reino
pudi
debemos
recu
buscar
tratado
comunitar
bastante
fundam
esté
mantener
viene
alre
##lear
música
##ismos
exis
especialmente
bur
fecha
contac
siguientes
medios
ud
##ándose
central
empresa
2003
aus
recor
refier
principio
vivir
asuntos
llamado
gestión
##ete
##ese
creer
llama
mode
opin
quis
ejér
arg
asp
bos
##alización
espero
siquiera
##oría
##ff
##unci
calidad
##ly
futuro
entiendo
calle
avan
víc
##ducción
departamento
##anas
##diós
carta
adiós
arch
integr
gal
proyectos
##oc
29
##ite
##ima
parlamento
propie
estudio
ber
pac
##ko
podía
coord
genial
pier
##ph
2010
##uelo
mec
participación
rob
garanti
miedo
rus
viejo
escrib
ingres
mencion
dro
195
estuvo
febrero
cuánto
nuevos
padres
nuevas
elim
misión
indic
##ki
inicia
dr
varias
##yen
agos
eleg
##xim
comien
##vil
relaciones
##udo
principales
terror
##xico
supongo
esca
abier
##dado
arriba
éste
bri
feliz
cargo
ries
haz
tér
declaración
##lés
alma
fis
hubiera
ambos
conform
##turales
##culo
aba
cree
agosto
enfr
domin
##vitar
lucha
sociales
##cina
inm
vuelta
compren
proporcion
espacio
párrafo
mir
exc
venir
diab
##ielo
queda
hacen
limp
corre
pensar
inglés
mensa
capital
ham
sorp
##onia
importancia
separ
argent
##iza
##tima
pú
democ
imag
palabras
##entemente
estudios
##óp
##teriores
capitán
##quis
facil
##ric
propio
elem
##graf
instal
selec
##ag
aband
##ecen
ejército
##éf
respuesta
encuen
campe
##iales
##media
antigu
nuestras
posición
gustaría
elabor
propuesta
éx
propia
objetivos
ubic
necesidad
##iva
ellas
##bamos
##entas
ambiente
alrededor
##taron
##quil
golpe
##eno
##dica
dijiste
##yan
dev
york
caracter
##nes
importantes
ál
cuales
##puestas
debes
et
méxico
excep
##miso
##trum
alta
explic
preocu
normas
sam
dav
examen
pequeña
relig
mat
tío
acom
##frica
##bil
teléf
actual
juan
camp
enter
refer
principios
conci
creación
##lla
##mes
pid
popular
jack
##zco
án
compr
especie
##oma
desem
comercio
##ritu
ped
##ner
##lie
##enas
francia
económico
maes
volun
abajo
resto
superior
términ
conflic
produ
##rido
##ciente
haga
económica
cad
pagar
##cri
municipio
haré
dra
instrum
local
##una
ocas
##later
partici
conce
colabor
fron
empleo
amena
##ian
conta
fuerzas
1999
foto
revis
##char
segura
prueba
pesar
disf
éxito
color
interior
##rimon
comunicación
hey
193
interpre
fab
comb
perder
actualmente
diez
medida
atrás
levan
ano
carrera
sean
bom
cuarto
jó
vino
tercer
prem
conocido
posterior
efica
##itan
nave
##vención
pública
##grá
##cada
especí
##mó
progres
cuándo
##tbol
venta
##tate
cel
##uales
##yas
ste
intro
inmedia
formas
pl
crí
compañía
lleva
llegó
demon
##fi
habitantes
hermos
econom
quieren
##icio
instituciones
noches
##zada
estre
llamada
cientí
adecu
ám
américa
disposiciones
fuego
##eció
estrateg
##eb
déjame
jurí
##illos
ep
públic
puntos
##ment
##gon
coche
preci
destru
necesitamos
##ilidades
##arias
##icaciones
##olución
relativa
##unid
##ins
fac
directiva
simplemente
enci
2009
##arán
escucha
banda
tenga
corte
probablemente
sola
hal
romp
existe
##ty
profesional
hol
santa
bás
interés
##poco
##ecución
presentar
##yos
asunto
caball
dedic
##ibles
últimos
estadounid
consigu
hiciste
tampoco
##tiendo
ed
categ
abog
##vieron
num
territorio
##irse
nar
media
estad
sistemas
exten
temporada
dele
##aro
causa
teléfono
usar
jóven
objeto
fiesta
zonas
hermana
administración
listo
bre
sosten
proto
finalmente
cré
construcción
pasando
env
##emor
comis
resultado
luc
##bum
##ramos
jóvenes
ps
ámbi
canción
habría
loco
enc
radio
resta
##gamos
moder
hospital
sentir
género
enferme
iz
entren
nuc
##by
órgan
hago
códi
transporte
detal
impres
aire
concep
##trado
##rael
venga
épo
##val
##trón
efecto
##mado
glo
llamar
conformidad
arte
abandon
##jero
##orn
##ído
israel
hel
##itado
informes
provincia
viaje
ok
##pción
terc
honor
exactamente
##vió
gua
diciendo
experiencia
##isis
##tín
asi
autoridades
esperar
titu
jugar
proces
murió
isla
##tric
hotel
##unta
##talla
arma
dices
movimiento
gobern
##ír
evitar
mejores
función
comida
##land
demos
máxi
manif
álbum
acompa
raz
sabemos
##dicos
##sidad
efectos
ido
bi
fís
afir
sala
conjunto
documento
convir
equivo
##bución
operaciones
regu
extran
##íos
##ria
perdón
mejorar
fui
nuclear
##tró
ésta
##viv
plen
geor
##ficos
comba
actividad
incor
##pen
lejos
##rimonio
alter
plazo
##jus
dir
sens
##ecta
tipos
##iano
alemania
apoy
esfuerzos
jap
obras
individ
vete
semanas
necesidades
división
##tarse
##ut
ras
monta
tecnología
dur
tir
buscando
fortal
##ísticas
jer
vivo
##dy
identific
colec
mitad
preguntas
ecu
za
modific
crim
dicen
##álisis
contar
testi
anex
aver
##culos
deberías
conserv
##leo
pare
##bal
##posición
título
noti
influ
confi
crear
origen
detec
vé
mecan
gre
oro
quí
área
práctica
##torios
violencia
médico
##tino
época
depor
##mien
##ju
##ácter
##jado
##cidente
carácter
familiar
##mis
##one
dame
vid
previs
izquier
##tór
presupuesto
vues
frecu
##are
descri
posibilidad
josé
##enci
satis
deman
##ivos
costa
##titud
lengua
regional
2011
decisiones
trabajadores
tre
ran
banco
procedimiento
benefici
culpa
primeros
malo
estará
pose
amo
siete
defensa
pruebas
##vas
##vio
##net
##bernam
voz
saben
##tida
deten
obtener
opinión
permite
##ira
##gó
continuación
permitir
concre
correspond
##var
descub
##tamos
observa
##uesto
##jeros
##timas
méto
idio
habitación
disfru
##pl
metros
americ
trá
##ical
comenzó
##lad
##viera
##izar
espí
cielo
estabas
sesión
ocu
bru
ministro
bienes
##acción
china
fl
cantidad
il
ul
imper
aproxim
suel
192
áfrica
conduc
denom
código
esco
##dap
##tancias
nega
despe
fondos
conozco
necesitas
##tista
análisis
##ker
edificio
pele
##her
##ígen
##ky
##tuvo
extre
##ég
cha
perió
discu
##ística
quienes
absolu
exig
protocol
superfici
pelo
retir
blo
##tim
manda
##oro
responsabilidad
asociación
unido
tales
locales
comunidades
refle
asesina
##erto
vac
frances
bras
hogar
bebé
maría
bes
##rac
dime
plata
encontra
blanco
gastos
campa
discrim
asim
##hu
##echo
dolor
pedir
lec
representante
existen
##ps
ejerci
argentina
publ
evaluación
##ane
cambiar
impos
##form
cabal
marav
##imen
llen
podrá
intelig
##esión
prior
establecer
##americ
desta
acompañ
presenta
##my
##ático
puta
35
baja
maldita
##tén
franc
conoc
mesa
experim
##uls
ár
##idamente
repar
flor
bienven
documentos
arro
temas
mala
finales
proteger
nie
contacto
##ecido
texto
aten
enem
acus
tend
cultura
##úp
lograr
mensaje
escon
vio
unidad
##don
estación
pensando
modelo
riesgo
ministerio
acciones
##chos
recibir
negro
jesús
teniendo
televisión
político
competencia
tratar
explo
##illas
descon
mue
div
roman
ira
empi
##iamente
nu
tuve
versión
sección
cere
##at
entra
lic
aumento
##úa
##vos
ejecución
desempe
interc
participar
##icul
vesti
tes
regiones
##rid
estilo
entender
excel
##lin
afu
cama
posi
chicas
adap
mente
2012
##ioso
agente
alf
hue
trato
realizar
mone
confir
representa
entrada
evid
habrá
técnica
32
artículos
pros
##bilidad
lad
añ
##ies
bill
caf
multi
apartado
ocho
hagas
menor
profesor
##omas
recuper
demonios
diferente
sar
memor
##menes
##gaciones
disco
portu
nombr
191
recuerdo
##ced
mur
estadounidense
noticias
contr
detrás
fom
industria
dormir
basta
90
##lio
vigil
asus
dejó
derro
##rón
pudo
secretaría
jod
dí
##cida
esperando
lis
ron
frank
verte
correcto
naturaleza
##usión
##xto
##uciones
##torias
nomb
trabajando
##ciaciones
pena
fú
francis
peor
histór
##encial
considera
##iación
referencia
comprar
anexo
##drá
profun
increí
perdido
##cidos
exist
##arca
##ecía
##ni
conoce
junta
humano
encuentran
ganar
##ticamente
elementos
pér
instituto
crecimiento
felici
##ámara
fútbol
numeros
##có
apre
##eca
podrían
acos
sencil
##taba
emo
##tidos
tranqui
tendrá
oído
mane
##laciones
##elos
##tará
##reno
cop
vuelve
##tería
encima
diferencia
asegurar
italia
equipos
ph
economía
niña
entien
##jeron
rég
muestra
material
conden
##ibilidad
precio
arreglo
regionales
podrías
provo
ámbito
om
error
ín
##reas
hubo
lugares
##ezas
##qué
##iana
##tual
##laz
garantizar
circ
cruz
aquellos
descan
curso
asimismo
veci
maldito
veh
##grafía
régimen
empezar
etc
2015
tratamiento
peri
financiación
2013
similar
##bert
record
##gración
página
dul
convertir
fuente
oficiales
##metros
mc
##ay
estúp
##date
presencia
##use
conclus
##he
##tia
suje
kil
hará
##itario
tercera
##cados
acon
relativo
volv
hum
juegos
cámara
##ósito
virtud
propiedad
ali
minuto
jim
serán
promover
queremos
grab
boca
dicha
jud
britán
##gada
colom
##uns
##dra
david
tas
crédi
marido
usu
figura
sosp
original
##tía
##elas
café
tradi
##tiene
tren
representantes
diablos
##rantes
francés
desper
distrito
piensa
véase
1990
admi
trabajos
mantenimiento
totalmente
acad
##mentar
ataque
velo
pueblos
producto
sexo
##mica
oeste
cole
##ham
##umen
hicieron
##quina
especiales
pec
enfo
líder
recomend
##alizar
##au
ara
olv
defini
sorpren
gobiernos
##mit
puedan
secu
mismos
##llas
##ego
elecciones
acaba
pase
madrid
llegado
venido
##tente
##ierno
increíble
espíritu
due
castil
democrá
pobreza
políticos
ángel
1995
tenían
afuera
posteriormente
pul
cambios
relativas
puerto
salvo
##oda
##istán
iré
lími
batalla
incorpor
intentar
protocolo
diá
pertin
marcha
promoción
añad
drogas
bib
completamente
subs
vá
traer
##taria
organismos
deseo
eta
##mor
ger
copa
víctimas
##ema
edu
suelo
##gal
vent
carre
ech
candida
amar
alcanzar
ingresos
peligro
sede
jamás
premio
preocupes
imagen
deberíamos
##orta
planes
sud
conex
far
anun
recomenda
##mer
formul
invi
mín
##tador
##dados
solamente
prácticas
leyes
izquierda
##ró
ingen
encontrado
##iga
##gues
aqui
supone
hacemos
recomendaciones
crisis
##emen
##ys
santo
##ienda
lla
##ines
idiota
judi
superficie
acog
principalmente
pales
precios
generales
vehícu
llevó
500
permanente
solución
dig
plante
debate
electrón
respeto
##pol
destino
daño
quisiera
preguntar
perro
matrimonio
##zan
##rate
abogado
funciones
aspectos
incluye
discriminación
recha
moles
ropa
obten
diga
obstante
coordinación
estrategia
há
##ética
##irá
pací
##ang
##rán
animales
##curso
dich
refiere
secreto
árbol
##ron
niveles
##rios
duro
##late
pienso
##monos
##ft
menudo
##dios
coron
##logo
##gul
negocios
##dieron
oper
period
acuerdos
campeona
legislación
elev
xi
diversos
internet
autoridad
bril
33
1992
categoría
silen
##tarios
sobreviv
especies
directamente
carlos
aman
completo
##ila
pequeños
vive
##ks
ciudadanos
escrito
paci
ára
libros
parís
estructura
arres
aprov
igualdad
cristi
tratando
##table
recuerda
vemos
cuadro
conocimiento
aero
comercial
##tividad
salida
##pro
agricul
canad
##terios
centros
sueño
mía
##bel
perfecto
##amento
##ficas
satisf
federal
##día
normal
poten
sucede
haría
gor
##iles
chile
nav
carne
celebra
##orías
independiente
gubernam
campaña
##quen
necesitar
tama
recordar
emi
cine
compos
derecha
peter
pide
##ficul
maestro
mez
##jan
senti
abor
##éndo
occid
digas
enga
##ong
dificul
##hael
mostrar
hen
##rez
yu
capí
grave
propon
sch
negocio
ajus
##itaria
reclam
desarroll
##entado
##diendo
cuyo
fines
cár
mul
bob
##mbre
familias
doble
provis
##gica
luch
catal
juicio
victoria
cic
extraño
ofrece
cumplir
##ensión
fas
duda
anton
antiguo
ejercicio
consecuencia
maravillos
##amientos
caja
agrí
sacar
##estruc
expertos
censo
##alla
anoche
azul
procedimientos
aprobación
motivo
diseñ
1993
##ares
pala
llor
##tiles
puestos
contrato
ue
##ude
penal
infer
tab
órganos
sp
suminis
sién
lond
querido
abrir
odio
congres
comunic
propuestas
prensa
capaz
plane
ocurre
abre
presentación
operación
asign
recibió
##eran
circu
exclus
famos
baño
contexto
idi
joe
pequeñas
apor
utilizar
hun
##teras
compromiso
hechos
##yn
##ól
muertos
japón
ke
michael
aumentar
busca
cualquiera
oír
estudiantes
localidad
reforma
che
##amor
establecimiento
sel
flo
actos
sho
ai
decidió
gusto
partidos
##com
video
some
diversas
conclu
incluyendo
reducir
lanz
##cura
##ulas
preten
ide
deri
signific
competi
elección
ciudades
término
parque
siente
convirtió
próxima
enfermedad
circuns
facul
funciona
##iro
hacía
reuniones
registro
##cionar
hermanos
londres
paul
diré
colaboración
privado
##iel
##torno
##taste
##adoras
##ood
teatro
##triz
##rada
##uros
instrumentos
expor
llega
fle
reducción
entiendes
ciencia
destac
terminar
##ht
escal
##izado
lab
ofer
terrorismo
cuentas
accidente
austral
##sen
deberían
volvió
imposible
##idor
miles
visita
brasil
fru
55
asesinato
##han
convenio
ayer
iii
planeta
##xic
##capa
mig
velocidad
##uelas
desaf
##nie
92
francisco
##cor
ocul
##ender
puso
cro
distancia
pago
##tiz
humana
informa
srta
##tible
rusia
consum
sospech
hablas
##cción
divid
sá
islas
ama
##tificación
cuya
liga
avión
compon
george
aprovech
pun
iniciativa
pidió
##mán
sectores
##cionado
##gando
comand
avis
##empos
crea
hayan
asis
mayores
##ington
##emia
adul
01
constitución
asesino
diseño
39
utilización
##éndose
estrech
norma
1991
raro
transform
diario
design
encuentro
funcionarios
##melo
tomó
respec
##tres
iv
comprome
patr
suena
cita
leer
##umo
capaci
##torial
barco
fes
aé
reserv
repro
fiscal
##ash
estim
militares
asc
sustitu
##ity
flu
carajo
piensas
condado
darle
verano
##ney
voso
##ov
conoces
kar
resulta
##inario
podríamos
prisión
##tora
arqui
antigua
debía
distribu
roma
rur
reina
##tades
condición
depend
verdadero
responsable
##adu
próximo
señorita
aproximadamente
pat
torn
grado
arquitec
emerg
##tistas
##rano
sil
contes
pref
larga
##tieron
consol
regresar
##undar
luis
otor
conflicto
alum
ganó
cumple
india
aeropu
salvar
escuchar
mandato
requier
dismin
adoptar
cállate
lid
clientes
jard
agentes
prevención
enseñanza
inspec
tiempos
concepto
##ígenas
luna
terminado
máximo
contrario
querida
fase
pocos
eg
desarrollar
debajo
tamaño
##didas
##ther
ubicado
irme
sostenible
pone
orgul
##ienta
arti
##sh
distintos
##alizado
sum
desas
transpor
caballeros
económicos
bús
edición
##cioso
prev
terreno
cub
dispuesto
defens
examin
cubier
##ñar
##burgo
##dición
despier
repu
dile
salva
##ung
190
campeonato
##cía
quieras
verde
infan
amiga
convers
peso
inno
intereses
reserva
##lada
hambre
rock
casti
detener
preocupa
aguas
pudiera
enamor
carga
estaría
nerv
cultural
confianza
voluntad
marca
03
##tn
pis
apenas
contenido
tierras
##iosa
##idores
##íes
adónde
escribir
##osas
reconocimiento
lamento
creí
placer
resolver
salió
delegación
cans
recuerdas
bla
##zando
cercan
tocar
vul
coleg
perfec
mirar
sexual
vuelto
década
expe
geo
mate
recibido
##timo
##denes
esperanza
infra
irlan
alex
descar
estatu
española
menores
novia
##rieron
usa
seas
##bes
##ferencias
delante
fuentes
chris
intento
refu
##anes
propios
invol
perspec
estaré
museo
##stru
aprender
archivo
cumplimiento
decirle
acabo
alterna
cá
##jada
##úl
planta
impac
aceptar
q
reglas
##ok
pies
propósito
asum
presión
ambas
cárcel
ofrecer
hid
##quía
vosotros
cán
##tus
aplicar
flores
rich
fantas
hier
examinar
apropi
exterior
##roso
razones
consecuencias
regreso
distribución
##puestos
tráfico
nueve
soldados
##áticos
occidental
##genes
facilitar
pilo
##dí
##vela
mando
##ille
##ardo
relacionados
existencia
bajos
err
materiales
capítulo
##cimientos
empezó
alemán
vidas
huel
legisla
##pir
gubernamentales
embara
establecido
##ístico
pedro
cliente
ideas
you
civiles
fern
ee
publicado
abra
##vers
##tás
canal
cho
trabaja
##áis
##éctr
opción
io
##selo
necesitan
##abe
siguen
artes
conflictos
aplica
james
##entan
dispu
escol
selección
nació
bio
##inada
mezc
kiló
convier
oriental
segundos
suces
parecer
##igan
negoci
repor
transmi
secundar
acto
escena
##erra
plaza
permiso
revista
##viste
tienda
##ple
##nud
mó
rode
pris
presentó
quedó
##telo
##gados
lev
##arle
dipu
europeas
##rue
ken
##quia
estan
##ionado
##iedad
##iero
##itación
culp
divertido
verlo
##tive
fotos
colo
diálogo
nombres
nic
conocida
obligaciones
términos
adopción
congreso
dejado
desea
iniciativas
incen
encanta
cerv
##ológico
##vimos
villa
aparece
entendido
naturales
silencio
condu
mató
piso
acabó
enf
global
tarje
mexic
órdenes
estuve
##quer
uh
indígenas
motor
clave
alcal
viste
##log
mercan
dam
disposición
interesante
dulce
##inte
brin
encontré
pensaba
quiera
sem
reh
##ónica
vaca
emba
fen
llamó
piel
##dimiento
nucleares
##tame
triste
búsque
comenzar
##nidad
presentado
##laterra
refugi
##ético
##illi
mm
rojo
##itó
arru
dijeron
excelente
inglaterra
pérdida
tengan
##pres
educa
xvi
tranquilo
canciones
ninguno
eficaz
disculpe
pertinentes
##olo
inmediatamente
traje
decirte
decía
completa
##ting
venez
bloque
acá
##ésimo
afric
fundamental
amplia
quédate
oportunidades
coronel
públicos
sín
##yeron
memoria
comerciales
eras
llamo
asia
##rup
ambien
05
falle
anual
escala
involuc
300
barcel
antonio
delito
anteriores
mac
##emente
preocupación
cató
urg
peti
fuiste
##ática
march
##enio
características
tuyo
conec
aeropuerto
excepto
dor
##uestos
estén
ileg
mike
establece
preven
##est
sale
intención
vía
calif
comandante
teniente
##menta
creado
vari
##misión
abierto
zapa
actualidad
escuelas
federación
colon
##entó
asesor
ferro
frontera
métodos
altura
arreglar
traslad
escapar
coin
redu
charlie
ahor
valores
prín
cena
##amentos
lech
##ade
relacionadas
estábamos
rea
describ
espi
restau
##éro
terrible
##osos
papa
constante
hermosa
procesos
casas
##inal
determinar
muchacho
avi
mire
ilus
sha
fabric
dando
líneas
estrella
ram
##zca
##arla
financiera
contiene
sopor
prohi
distintas
financieros
canadá
reac
91
búsqueda
agricultura
adelan
##anda
solicitud
hubi
funcionamiento
ces
##tz
etapa
sientes
cocina
##ulación
##mación
colombia
puente
muchachos
alquil
mecanismos
lun
prac
menti
plantas
densidad
##tch
fres
ayudas
crimen
##teca
##itada
cristo
##tagon
profesionales
##aremos
aires
carretera
esposo
sorpres
biblio
##mática
convo
93
pesca
carb
ater
##tien
##tinos
agar
ocupar
independencia
valle
comerci
realizado
lou
##jate
públicas
encontramos
ang
deberá
doy
rico
##itados
democra
encontró
##pó
das
películas
apa
##ológica
vel
##imientos
incluyen
##nor
unidades
prefer
torre
alber
espal
barcelona
comunicaciones
cuel
prima
amenaza
vender
emergencia
patri
##gué
clases
haremos
brome
individu
##illiam
blanca
tomando
indica
realizó
loca
terminó
negativo
cerebro
aspecto
extraord
##tadora
juez
manifes
primeras
prove
ó
reglam
secues
95
##ald
eléctr
requis
eno
participantes
redes
instalaciones
##cipe
firme
barrio
industrial
egip
sara
perteneci
consumo
piedra
##uno
##enti
ray
ib
rum
áreas
podido
situado
gab
aquella
teoría
labora
lee
kilómetros
capacitación
##orden
víctima
vuelo
exteriores
baile
pab
vengan
infraestruc
explos
seguimiento
elegido
precis
integración
um
averigu
cif
##ambio
rápidamente
##ise
##ologías
alimentos
##leta
02
##tulos
maldición
servir
##gh
star
baj
refugiados
innov
tendría
dibu
juris
enfoque
##rados
tempera
##aso
herra
estraté
colum
##hib
ayú
masa
juz
ko
visión
prepara
episo
creen
fundación
##chas
pacto
sco
preparación
festiv
##uri
pus
aud
##ds
perio
##dores
incon
robo
##mentación
disposi
alcance
pude
##viamente
dud
##gráfica
herramien
constituye
tenías
luchar
##mico
dim
vice
vigor
ensa
conocimientos
resoluciones
##tte
estup
circunstancias
inversión
bosque
castillo
simp
niñas
vámonos
efectu
refor
59
inoc
vienen
cáncer
##toral
responder
fundamentales
dirigida
recog
bailar
conciencia
fol
##ecimiento
ens
comienza
poderos
##mul
cog
adj
decre
escla
judicial
comunitario
##pira
##odos
pacífico
demanda
enmien
anteriormente
incluidos
clás
técnicas
bea
##alizada
metro
aper
oferta
##inados
escribió
ace
californ
##ección
colegio
caer
reemp
##ore
depende
##ices
consolid
quitar
mercados
estúpido
francesa
##trices
humanidad
vigilancia
caballo
investigaciones
##abas
contamin
ocasiones
irlanda
cent
crédito
revolución
magn
##esa
##hesión
sencillo
52
rue
##bano
claramente
jugador
psic
tropas
##idez
hin
tonto
perú
imperio
ocurrió
gustan
escú
##gría
posibilidades
comunes
##uf
monte
culturales
##pado
corto
tradicional
##tional
##ezco
torneo
controlar
intercambio
frecuencia
bonito
tarea
##años
ocupado
construir
presidencia
##arnos
sucedió
##ini
profund
ganado
##ides
desgra
medic
centr
##íd
abierta
príncipe
##iene
motivos
máquina
arre
adu
cartas
negociaciones
parecía
##resión
navidad
##ñado
esperaba
montón
evolución
protagon
necesarias
##dó
##íz
51
##ámica
compañero
##pes
exter
mejora
gobernador
tomado
proced
democrática
madera
dipl
periodo
pista
realización
##ficientes
obtuvo
pic
regalo
enemigo
reform
tratados
contemp
sug
##edor
##cy
mover
palacio
##éramos
gir
oscu
rid
cm
meter
despa
comporta
##vera
pisto
prote
disponible
repe
max
glor
##ik
tru
física
##jal
podrán
héro
prestar
##abil
##dera
visitas
directo
##iere
observaciones
##fes
cola
imá
##terrán
pobres
adver
##ortun
puertas
influencia
muerta
##ive
california
periódico
alguno
devol
##die
vier
vieja
##ísimo
frío
##gio
alco
esfuerzo
##forma
cumpleaños
##tribución
recientemente
australia
##ificar
publicación
peda
posibles
pareja
suici
euros
dieron
novio
musical
traduc
##izada
##edores
culo
estrellas
sonido
exposición
mono
##istente
utiliza
##dez
ocasión
escúch
femen
amis
##si
clima
##fos
espere
liter
playa
viendo
##rey
nación
##gia
tecnologías
##gón
rebel
##guay
recep
##cidas
firma
armon
##lon
ofrec
guardia
económicas
escen
continuar
tuvieron
comunitaria
##inaria
##ivamente
formula
adentro
tendrás
##cra
explor
cuba
malas
expresión
add
boda
aconte
rin
imágenes
horri
tengas
instrumento
##dimos
viva
visitar
resca
inversiones
##dias
momentos
bul
cumbre
martin
temo
stan
tiro
ventana
##50
detalles
##ilib
gira
surg
##timos
inferior
financiero
##itarios
infierno
jen
incluir
audi
dale
##ello
##aliza
##bita
preparado
propias
intentando
##estas
conclusiones
##tudes
participó
unif
##zz
elaboración
meta
##guen
mecanismo
ku
gradu
##ficios
dicta
##vent
ana
descono
usando
##bición
oficinas
..
...
quedan
llevo
rap
##entarios
##dría
espiritu
ruta
apoyar
harry
hagan
situaciones
enorme
ejecutivo
miren
sta
impresion
acce
prés
actuar
generalmente
entró
eliminación
estés
##etas
chan
socio
equilib
dificultades
revel
##eler
comienzo
##gs
horrible
decirme
##tarlo
provisional
calles
sorpresa
micro
bomba
alar
llé
##guida
renov
cabe
remo
belle
regular
veras
##olucion
mentir
##int
mary
##cadas
territorios
modifica
sentar
necesarios
árabe
atribu
sacri
##ashington
legal
hazlo
cambiado
##bien
##tem
tol
##anía
gon
archivos
basura
##ábamos
emplea
rica
nombrado
volumen
##ami
fantás
##metro
raza
nacido
fracas
portugal
acord
combate
##tú
##teles
##lesc
considerado
##rique
##quete
llevado
emis
haci
disponibles
únicamente
anda
##mate
llamas
beber
puesta
riesgos
eliminar
henry
método
##bras
organismo
orgullos
animal
sirve
amable
##grad
prometo
##gular
elegir
pelea
daniel
##tadores
santia
cadena
##bios
intervención
inau
##alizados
interven
locura
argu
adolesc
tareas
##99
atac
consultas
combus
##ína
mirando
##eld
entidades
pedido
listos
paciente
##cola
inicio
lago
##teros
caliente
hermoso
sovi
párr
creía
incluido
intenta
##rump
agencia
siéntate
viven
##iencias
obliga
##ford
diría
nuevamente
##tismo
longi
decide
##táculo
robert
tendremos
nov
53
té
normalmente
llegue
xx
diri
empieza
europeos
domingo
personaje
hall
graves
inteligente
##bado
##rame
vehículos
##uci
austri
almacen
deriv
##san
campeón
campos
pá
##ulo
##uma
detective
institución
técnico
##ída
retras
duración
martín
clara
tasa
hues
santiago
médicos
sy
municipal
ec
##zaron
razon
calor
abuela
celebrada
tramp
agradable
mínimo
abuelo
ia
verdadera
##rupción
impacto
##tios
##cando
sida
hable
formar
enfermedades
óp
##omo
alquiler
deje
factores
foro
##misos
alo
desarme
mismas
ojo
entorno
chil
trae
##dice
correo
requiere
gracioso
licencia
##tano
amplio
##rie
prisa
sierra
logró
medicina
apertura
obligación
avent
democracia
eficacia
vine
votos
vulner
universal
aprobado
##itor
##micos
mel
misiones
rel
pacientes
disculpa
##grado
león
juro
dura
##erso
##deo
broma
inicial
numerosos
lleno
beneficios
vacaciones
hones
necesaria
adqui
semin
oriente
zo
existentes
consiguiente
inaugu
atre
##zaje
##gros
recomendación
vestido
cn
##bos
##últi
##enses
ais
previsto
##ciles
incluida
rem
considerar
igualmente
basado
sien
jean
peligros
nick
richard
impuestos
##idae
perdió
números
sacer
supervisión
##uesta
monstru
directa
peligroso
explica
##tidas
destruir
leche
ángeles
alcoh
##trados
##alos
habr
##pia
miras
mué
ubicada
sacerdo
supre
respuestas
miguel
##landia
cham
reda
bajar
planificación
esqu
disminu
ox
declaraciones
entrega
afirma
compu
jane
anal
identidad
empu
usuarios
perdon
perí
temprano
llave
autob
manuel
festival
relo
consig
cau
it
concentra
investig
tv
##jó
##lia
acabar
explotación
cuántos
estrategias
efectivo
plenamente
##tum
estudiar
confiar
vayas
austria
##lán
##lev
inmig
longitud
enla
fras
##ith
prision
##reo
podamos
elig
maravilloso
coches
ciencias
compartir
##rimiento
montaña
ador
protes
desplaz
órgano
##dré
correr
enferm
guía
llu
viola
##ibe
quie
presupues
rato
##tarme
estuviera
aguan
posee
fábr
transición
cooper
imb
querías
##gico
seguros
blancos
##bs
privada
anunci
modos
deuda
impe
entregar
##segu
compra
linda
pertenece
tuya
##colas
salvador
bis
resistencia
##tara
saberlo
hablo
irre
creó
ése
perra
débil
empleados
definición
##zados
límite
venezuela
seres
ciertas
##eos
orientación
jardín
tome
opciones
criterios
sarg
autén
parecen
útil
##tificado
##icidad
llevan
atrac
laboratorio
evento
adicional
lor
preocupar
votación
destrucción
introducción
denun
suma
conforme
##dis
conferencias
tún
##trucciones
espalda
lindo
subir
vuelva
phil
aprobó
consiguió
99
proporcionar
cielos
suiza
cuch
universo
##feras
##entario
tendré
correspondiente
utilizado
pensado
ord
##pens
díg
enseguida
contribuciones
artista
compuesto
clim
definitivamente
italiano
camar
##ficiencia
incu
cargos
arras
inmediato
móvil
jugando
delitos
conces
basada
cierta
apos
reempla
##icales
daños
complic
vih
hicimos
corriente
plano
generación
firm
entiende
##gin
fues
enfrentar
##américa
hablado
cerveza
##guas
reales
##ure
expan
bolsa
reti
ministros
alianza
deberán
taller
viento
pene
apartamento
uc
eter
perspectiva
descubier
reper
realiza
bl
alegro
##aran
##mático
metal
autón
extranjero
hisp
representación
##ld
trasero
##logía
mantiene
calma
tarjeta
religión
empren
encargado
siga
situada
familiares
##enciales
gig
puedas
apreci
alimentar
inteligencia
##ánico
##adura
dinam
páginas
eva
##esper
fabr
charles
violación
modelos
##ispo
agen
subra
practic
##asión
pud
transpar
sher
brazo
##abilidades
eventos
esfera
sargento
concen
cuo
##erador
urban
alm
poderes
actuación
##eso
múlti
conexión
templo
progreso
religios
probar
suyo
reconocer
##gn
sof
hig
hablamos
esencial
##dicas
embaj
particularmente
##than
##ey
notas
##guar
fic
daré
uru
##eraciones
dictamen
impuls
alcalde
diablo
vayan
ignor
grecia
piloto
vecinos
##eles
llegada
sueños
equiv
joder
bron
arran
recomienda
fus
evan
límites
##10
idioma
dispone
cuello
discapa
rápida
parar
abur
##onos
##20
estructuras
artistas
reciente
diferencias
##kin
viernes
envió
irán
actuales
gil
requer
rit
cuidad
jurisdic
financieras
éstos
##didos
esperan
máxima
elemento
actor
restric
corea
cañ
irse
##sion
descubrir
##agésimo
publicó
lav
titulado
aprendi
##fas
##ples
ayúd
contribuir
##ix
##reras
producir
objetos
continúa
últimas
empe
##ículo
##itales
fenóm
ayudarte
responsables
majes
pregunto
bara
afgan
defender
intens
evidencia
enviar
fuertes
limita
decidido
temperatura
cantante
rei
pend
##tones
enviado
llaman
##ezca
romper
roja
duer
infancia
apareció
iraq
##nia
aven
adicionales
numerosas
ingles
infantil
probable
piezas
##plic
solía
##tencias
latina
progresos
##berg
asociados
##adero
demostrar
coger
inscri
##tarte
##traste
relativos
celebración
introdu
seguido
doce
brillante
adoptado
##ímp
comportamiento
irnos
secundaria
##cías
sentencia
porc
##ivas
contribución
enemig
##gus
absoluto
odi
sabías
hem
respecta
tuviera
camin
costos
petición
##lí
convertido
harás
oscur
consiste
intercambi
dia
señores
guitar
##pora
directrices
vea
vege
tía
##ándome
noticia
##ficamente
fomento
cate
millón
bosques
alej
clasific
##erta
hacerse
##todo
academia
belleza
echar
pantal
##ólogo
científicos
historias
decidir
##red
ape
autores
extranjeros
telef
chu
tranquil
asal
enfermo
##trada
my
##dencias
virgen
típ
incluidas
recoger
enfrenta
##ily
##entando
compañeros
delin
pablo
##allas
boliv
ari
requisitos
##eramente
nig
guard
dichos
anillo
##inta
##xil
océ
##fir
##ish
histórico
aclar
chi
##icios
##túa
minas
adultos
fij
sustan
ataques
egipto
aceler
##ville
recurso
estatal
##presid
siguiendo
gro
verás
desempeñ
vil
discurso
ciertos
suav
##ling
encer
llegaron
##vista
porqué
breve
escúchame
suficientemente
mark
tony
interpretación
reca
princes
juvent
##ualmente
intelec
corresponde
borra
##pera
regla
soft
retro
salón
llena
torm
escas
recién
tendrán
##alter
bél
log
##piración
bah
restos
desastre
##elle
ingenier
determinados
suger
dejé
caribe
revisión
recibe
mercancías
divor
gratu
sober
##risto
##dro
concer
conclusión
movimientos
equivocado
fla
acadé
bec
jugadores
cuerpos
leon
captur
negra
necesitaba
carl
caballero
vicepresid
estima
edificios
##talo
transferencia
promes
##risa
luces
##ulos
insta
lanzamiento
carol
##let
veré
consulta
arries
desay
vuestra
ago
imbé
episodio
bonita
ciento
##pal
nacimiento
produce
personajes
##queros
convierte
##gante
indis
ronda
acre
similares
dichas
hielo
fortalecer
tortura
pistola
##tiste
impon
demues
milenio
tej
tribu
brazos
partida
##yes
##ome
sentimientos
tradición
pocas
garantía
letra
acaso
plena
asociaciones
excepción
interro
limpi
recuperar
agrícola
presentes
delincu
termina
llamadas
09
novela
jurídica
ilí
##rito
##enos
sinc
agrícolas
difusión
xvii
##itz
inició
potencial
pintura
##tol
##táculos
preciso
cenar
inci
tera
voto
tribunales
quise
sobr
veamos
fomentar
pared
##sar
suya
##tuales
escenario
apun
jan
##ianos
marina
residencia
sú
##vina
opon
espada
##ánd
fundad
culpable
soldado
conservación
##ándolo
rural
corta
rod
jimmy
variedad
eu
##cedentes
juventud
adquis
turismo
incom
jor
sepa
encargar
composición
cuarta
trabajó
decreto
flex
##laterales
cayó
extrem
podían
tonel
restaurante
juega
interesados
estadio
antiguos
##cación
cerrar
preparar
escritor
guatem
cocin
##quí
causas
explicar
compromisos
esferas
##cieron
cie
adecuada
alde
enrique
categorías
org
triun
recuperación
##itando
cig
porcenta
##ejo
bienvenido
árboles
prov
eslo
dientes
reconoce
##ku
##pr
implic
mich
básicos
absolutamente
suple
violaciones
mutu
prioridad
auxil
##tle
pleno
mapa
ruso
adoptadas
sól
renta
infraestructura
seleccion
##ógica
ruido
teníamos
empa
jurídico
rosa
##ses
clasificación
##iten
toca
encontraron
nena
cursos
##idar
libres
##eral
iremos
##úcar
cra
##gadas
bienvenida
expon
vuestro
##rero
bases
ocupa
kim
apuesto
joy
adecuado
biblioteca
pasos
impar
comprender
interno
##for
##ela
trop
supervis
##cita
congo
acces
majestad
##terías
fbi
errores
bélgica
damas
##tique
enemigos
perros
extensión
ciclo
##ológicos
volveré
conducir
alumnos
abri
##enza
##ider
acabado
desf
detención
##cipl
ty
audiencia
fernando
satisfacción
altos
##mando
ecus
##andia
cír
coordin
##eco
poblaciones
fisc
##ek
hubiese
##ns
alegra
oscuro
héroe
gine
##pp
famoso
##tilla
invierno
uds
circulación
suele
terceros
experiencias
lux
oliv
electrónico
estric
figuran
vienes
manejar
sitios
##micas
contratos
científico
##tillas
acor
##nización
profundo
##bran
ei
150
diplom
veremos
mediados
botel
##tron
decirlo
muere
terroristas
##ísticos
colores
vehículo
##cismo
ojal
estarán
utilizando
estándar
determinadas
reloj
ans
prestación
grá
publicaciones
cria
siglos
##key
seré
bole
zapatos
decír
##lín
parlam
opiniones
bau
cierra
interrump
##tarias
aran
##lados
coorden
marí
debió
dejes
latino
medalla
##uck
í
emperador
costo
despierta
##áver
fabricación
molesta
cadáver
##nal
británico
princesa
matado
ojalá
quinto
anci
desen
anunció
##tter
##cad
períodos
##his
símb
hayas
activa
casado
##pan
diag
ginebra
continú
estabilidad
armados
celebrar
devolver
##fin
verme
thomas
cantar
ine
precisamente
chip
##desa
petró
habido
cél
##íste
mari
verla
produci
mila
##gráfico
fronteras
caminar
##ique
norue
suficientes
prevenir
polonia
colección
mata
subsid
##echos
personales
razas
leo
inspir
aprue
##del
bala
##itarias
testigo
##jera
##uta
##ms
pra
azúcar
reservas
monum
coordenadas
##omía
olímp
perteneciente
mentira
histor
coloc
equival
clín
##iría
tuvimos
estatuto
sigues
laboral
combatir
volar
renunci
##lez
señaló
fácilmente
##tización
aparte
darte
soluciones
isl
proc
##íe
plataforma
hojas
internos
policías
declaró
##icion
##ster
sole
exacto
##adic
piernas
pido
exclu
créditos
atrapar
##tesis
indem
fuese
darme
##tty
integ
##tha
llegando
conde
convertirse
determinación
lados
potencia
ganas
recons
##citos
lunes
crítica
ultra
traducción
apara
malos
##tración
entrenador
jugó
lanzado
##sto
entrevista
##tienen
testigos
abordar
reto
desapareci
##ili
escul
medicamentos
gracia
dará
estarás
conversación
pelear
alcohol
##quinas
##quilla
siguió
oficialmente
factor
petróleo
##íg
japones
acta
prohib
considerando
##letas
asiento
múltiples
tradicionales
##tías
litera
alemanes
##ings
atacar
peces
boy
relator
xix
##restre
ritmo
rayos
fábrica
##chi
##gosla
asom
##ison
resuel
##iremos
franco
estaremos
hacerle
##ime
tos
brus
##art
espectáculo
pese
actriz
electoral
##istir
instancia
lás
pata
complejo
roy
##ieran
torno
solu
##cula
##izados
humor
##eria
inmun
suél
viejos
promedio
perju
mortal
presidenta
lectura
identificación
##rones
yugosla
paseo
cambia
querer
contó
turquía
reafir
vistazo
pensamiento
##pié
dirigido
adam
engañ
trabajan
##onso
confun
román
vivienda
##tese
oposición
##trop
transmisión
##tamentos
veinte
obviamente
superiores
técnicos
compens
permiten
##cé
hacerte
descripción
respectivamente
##ilo
gloria
herido
caballos
duele
irá
escolar
reforzar
##máticas
ocupación
##cus
costu
ucran
jefes
##ux
fantástico
vam
##ella
choc
robar
señala
##ándole
tanta
arbi
##americanos
firmado
octa
garcía
ideal
alemana
esperen
##ah
quinta
arena
montañas
actitud
titular
vál
acero
##lano
llám
asegur
refug
divis
permanecer
gana
usado
fro
##mith
hí
##fía
regresa
vín
desemp
lamenta
tantos
##ij
huevos
interesa
levanta
propone
revolucion
sép
fortalecimiento
realizados
células
bienestar
##tría
onu
imagin
beneficio
alimentación
cerem
bern
vii
flota
polvo
tradu
llevaron
pasada
##uelos
disfrutar
st
imbécil
##imas
proyec
##lico
cura
llevas
##mí
quedarse
sujeto
sigo
repercu
##ánica
mete
cuá
##ari
preocupado
##trocin
llevaba
##bral
##gate
sarah
toneladas
delib
bran
dioses
demasi
acontecimientos
contrar
ferrocar
descanso
habéis
adhesión
##the
candidatos
americano
viajes
institucional
perci
textos
perfecta
vincul
producido
constituyen
##ormes
estren
##ume
enfad
##fera
quiénes
cerrado
facultad
gonz
noruega
atraves
##sie
realizada
angel
##chel
aprendizaje
grie
electri
extremo
idiomas
dejando
##pá
forman
decep
funcionar
##ua
nas
plu
cór
pnud
reclu
moral
##ertos
luxem
combustible
neu
campes
estableció
católica
guatemala
rol
entero
ic
prácticamente
serás
##mba
vías
ampliación
destaca
poca
##teo
lenguaje
barb
celebró
jas
steve
##sey
##iff
porcentaje
bille
guarda
punta
regresó
bastar
##maras
sínto
carro
diversidad
temporal
quedado
viviendo
bancos
leván
aves
##cientes
prioridades
pieza
conocí
encam
logrado
esperamos
desh
##ecían
##uras
##éspe
reún
parro
infec
mr
afganistán
conjun
sindica
núc
irte
sustancias
salga
catedr
delic
silla
bella
accid
oscuridad
médica
repente
llaves
conducta
activo
espacial
cientos
##téli
imple
##pulación
pronunci
haberlo
stu
respal
mensajes
insu
##field
droga
perfectamente
evaluar
##uerzo
vos
##hor
instrucciones
estadísticas
perdí
cerr
johnny
diam
##riendo
gato
tó
##ski
reflex
##zadas
már
muñ
bromeando
##americana
filoso
mediterrán
##zcan
##cara
mand
periodista
##tibles
##tidades
componentes
##alidades
pez
salido
movil
##gaste
ambiental
recientes
embarazada
suministro
mostr
corona
impedir
comparación
fri
aviones
discipl
retra
danny
trampa
visi
observación
cambió
testimon
turno
formado
ríos
ventaja
conseguido
sociedades
cuen
##grama
patrimonio
##orld
produjo
entidad
bordo
##30
satéli
investigar
rehabil
espiritual
consta
camión
cubrir
impul
gay
dama
lá
prohibición
hallar
llamaré
utilizan
pájar
participa
judíos
vuelvo
##taña
park
desier
dejaré
hidro
prostitu
logro
ruman
rurales
##ológicas
natal
viajar
descubierto
tranquila
correcta
cabello
primo
cortes
dinamarca
ted
adaptación
seguramente
suceder
moneda
marcas
fueran
desarrollado
éstas
construido
ventas
digi
suecia
##tentes
prevé
limpiar
máquinas
##kistán
coinci
comentarios
árabes
títulos
##donos
lasti
asesoramiento
entrenamiento
logra
registros
ecuador
herramientas
tin
papi
cy
##sula
virus
fuimos
caída
reyes
celular
aplicaciones
aliv
inocente
delegaciones
##rer
complementar
coraz
informó
##yec
abus
dependencia
copia
creemos
asesinado
pareces
presentan
##eración
renun
autobús
destinados
traído
##mej
gratis
##ull
creciente
cero
cortar
castel
##iéndo
mirada
papeles
homici
techo
reacción
cercano
corrupción
étn
hy
tim
mental
océano
mezcla
merece
##arlos
black
caza
atender
here
empresar
premios
humil
rastre
documentación
pantalla
##nis
aterri
##éticos
pira
discutir
rick
##estia
concurso
noble
cuáles
negros
embajador
ocurrido
refiero
cifras
hierro
iban
##ges
dueño
cinta
dejo
##lateral
integrado
arque
##cl
liberación
habitaciones
computadora
rostro
py
hecha
primaria
cuántas
periódicos
rendimiento
cubierta
desn
ky
guin
proven
##gie
##mina
volverá
comisionado
fór
##barde
digital
##duras
encontraba
estudiante
autorización
##echas
argentino
##bus
cámaras
magis
letras
consigue
pobl
ésa
individual
lenguas
escuché
rein
encuent
expuls
específicas
viena
constitucional
innovación
pé
##12
confes
bols
solar
brig
privi
literatura
cancel
discúl
apla
international
##till
chino
patrocin
implica
equilibrio
palestina
reunir
##áns
prom
discapacidad
líderes
entrevis
compañías
sentado
habló
procedentes
jord
raíz
##cón
##tifica
ámbitos
##ández
ubicación
oto
presentada
efectiva
magia
##entimiento
secretos
índice
##inadas
sun
continua
mandar
quedarme
city
autos
##ivers
hablan
billy
##licos
##ot
comprende
##izas
llame
productores
ilegal
saliendo
paisa
##ieras
acceder
amistad
polici
solos
ayudarme
lord
##quir
ejemplos
sube
bendi
capaces
pasará
científica
##oras
comunitarias
alas
smith
atrap
neg
pagos
invitado
ly
extraordinario
elaborar
campamento
clic
ponga
tour
lleve
##ógico
administr
etique
farma
ges
altas
invitar
rango
##vanse
##moslo
rar
listas
climático
vay
vieron
emisiones
dió
greg
##mula
perdona
uruguay
persegu
exitos
indicadores
##óstico
treinta
ayúdame
concesión
jar
afortun
tendencia
##óptero
cirug
hipo
vivos
hiciera
cd
##orro
hit
crímenes
##ze
tomo
##americano
ilum
llegamos
glob
detente
##mm
socor
diputados
##ándote
griego
tantas
resumen
compras
españoles
señalar
mascul
jorge
mantuvo
##25
fred
hero
suelen
##abel
averiguar
déjalo
kir
respir
fortun
pecho
criminal
inú
arquitectura
trate
decor
desaparecido
##uos
##móvil
gim
dispositivo
sobrevivir
poniendo
##iendas
##ctur
paga
niñ
##ence
cóm
##bieron
conocen
olvidado
primavera
organizado
abogados
capi
##gor
ala
##drán
obispo
estadounidenses
paquete
amp
post
##grafo
exportación
concierto
filip
vistas
instalación
desgraci
abandonar
usuario
##ónimo
proli
pantalones
basa
armada
##medi
##zi
barcos
##dedores
jurado
##teza
##aje
##elo
importe
##úrate
tercero
televis
aparecer
físico
nombra
establecen
futbol
dedos
vendrá
vídeo
satisfa
quiso
enca
garantías
ausencia
jorn
mundiales
##ites
cuestion
celebrado
tardar
concentración
representan
sábado
musul
##elly
corriendo
maneras
aceite
##dal
cuyos
impresión
gala
llevará
aj
adn
olvidar
rodi
bretaña
corresponden
anna
sensación
##cialmente
bronce
pierna
##mbres
##tren
##omun
superar
estuviste
pura
tommy
quede
trajo
pastel
ayude
##ificado
significado
zel
##ló
##cí
taxi
actores
##tions
donantes
comisario
##iss
luxemburgo
automóvil
competencias
redon
jurídicos
##áfrica
desha
guardar
ayunta
estáis
activos
verá
cigar
particulares
habías
informar
filosofía
permitió
dun
cuidar
imaginar
##izan
##11
perdiendo
berlín
vicepresidente
hermanas
fenómeno
sudáfrica
chicago
harán
dedicado
rique
modificado
colega
lluvia
hacerme
corpor
devuel
scott
bancar
santos
##izon
##st
amer
fores
horm
cuotas
nervioso
bandera
consciente
productor
conocía
interesado
hagamos
determinado
cálmate
##ius
párrafos
formato
industriales
##mada
leal
coher
##cidencia
##rillo
injus
susp
descen
abund
invitados
bil
contempor
##up
cobr
solicitudes
pasajeros
##quista
socios
limpio
fiestas
candidato
escrita
agre
motiv
reformas
absor
##oles
lanzar
amenazas
##ance
##hal
cierre
configu
aprobada
##stein
##tom
top
dejas
nariz
xii
remi
louis
descend
semej
independientes
intergu
poli
ridículo
posiciones
formó
discre
reconocido
ore
contaminación
monstruo
##garse
manifies
diego
extin
##tana
mírame
##ré
##cionamiento
plás
fid
##ónico
cansado
##ariamente
gam
##tta
bang
pobla
insul
felices
bajas
señales
trago
grados
prolifer
##reros
convencer
asenta
batal
cober
podrás
##mond
trin
específicos
##icef
##ager
emocion
##tense
##ans
lea
beso
legí
cue
yendo
nomin
##dero
llan
republic
nicara
##indo
sev
gras
consolidación
consumidores
##dente
notable
toler
ofrecen
##jando
consideración
margen
##andro
serían
##crib
andre
by
##ipe
legales
tay
italiana
jugue
##alia
##orra
##dras
provincias
afectados
presion
vacío
difíciles
importación
cristal
incapa
##ters
##úr
veter
##grafías
obed
muestran
identificar
##kes
expresa
cuento
intergubernam
alegría
jueves
##ls
sigan
ejercer
llegan
##ualidad
acercar
huellas
inicialmente
franceses
pasan
combinación
moto
electricidad
##áticas
superviv
llevando
permí
evangel
##uña
talento
##econ
sospechoso
gó
custo
##onía
frag
natur
##uth
##jeras
relá
desesper
debu
propa
semi
croa
podremos
distingu
extraña
jurisdicción
aquellas
fren
alternativa
codi
conting
recuerdos
intentó
##izó
sed
line
hil
municipios
aparición
##tie
verg
##tumbr
llevaré
marcos
señoría
propiedades
cuesta
trabajado
##ji
continuó
abar
cantidades
##tone
humanitaria
##tela
sentía
tormenta
capacidades
enmiendas
holly
##idge
##ning
ple
agradezco
claus
disparar
domés
refieres
demonio
##urt
canta
bud
aéreo
mediano
cirugía
ascen
clan
##quie
conocidos
felicidad
uniforme
destacar
avenida
alcanzó
consenso
metas
brian
dirigir
josep
pecado
proclam
simon
racial
carreras
evidente
construc
estupendo
pérdidas
##ben
respira
cuchillo
invita
air
seminario
nan
indones
consa
fich
justific
##unda
aparecen
bienio
individuales
supe
##pla
transfer
##usa
guinea
profunda
priva
##diente
tasas
oigan
##tándo
##21
encen
##inó
contemporán
destinado
haberse
##entalmente
alerta
##cana
contratación
curios
ponte
aplicable
só
escog
cae
dominio
esquina
ingreso
dirige
juntas
prefiero
lanzó
jeff
soviética
duque
aparentemente
publicidad
simul
coca
##guez
##gase
detenido
sentí
herida
ejecutiva
acusado
firmar
astu
borde
##dón
tig
fib
privadas
oiga
referirse
##tidi
originalmente
proliferación
##dé
##ugh
síntomas
perpe
cable
estudió
programación
estructurales
avances
horizon
hered
obstáculos
##90
telec
tuviste
deportivo
##vieran
jaco
exces
auton
desierto
cú
hábita
procur
arco
bebe
versiones
observar
juven
tabla
agres
afro
deporte
llorar
habiendo
##vel
totalidad
organizar
vital
impuesto
eri
gris
##bie
botella
encom
use
ibas
habilidades
##lim
congel
comprob
trataba
##mental
utilizados
bobby
##tillo
##mir
locos
posiblemente
socorro
escuchado
encantaría
americanos
residuos
##gulo
aduan
organizada
encantado
dimens
urgente
tomé
estuvieron
cump
aérea
redac
tráns
próximos
bici
estaciones
eli
toc
ingeniería
desayuno
escuche
estando
confía
bir
alé
préstamos
bruselas
copias
finlandia
acepta
resultó
piz
transformación
eficiencia
dejen
proporciona
británica
noctur
##tár
caz
comenzaron
colonia
transportes
gama
clark
vag
positivo
millas
administrativa
ayuntamiento
dimensión
parecido
empec
embar
lenta
cerdo
ego
##ganda
##vete
relacionado
dada
##lantes
relativamente
usan
##lón
permitido
##hat
unicef
lider
recordando
ampliar
##quito
seria
concretas
acostumbr
##cher
cé
destro
solidar
##uestas
cuentan
catedral
esconder
##cla
moderna
modificación
dudas
fortuna
decis
consideran
anivers
previstos
desapareció
hogares
siria
inquie
stre
roca
individuos
roto
degrad
##usias
ganador
llamaba
intelectual
avance
series
jones
jake
distra
corpora
cometido
##jón
coño
ryan
preparados
entera
##quero
enlace
iniciar
tránsito
debí
muro
realizadas
africana
she
bomb
rehabilitación
casó
comprendido
sanciones
materias
equip
nieve
kan
eddie
coste
ponerse
enmienda
bolivia
daba
##esco
chis
apoya
agradecer
pedí
##jun
demostrado
entusias
rever
afecta
responde
posteriores
explicación
fría
presta
##laba
sexuales
deportes
universidades
tumba
chocola
liv
##pul
cuén
castilla
adolescentes
venganza
artifici
soñ
##mann
miss
##thy
ahi
fantasma
preguntó
controles
big
serp
muestras
vengo
##vie
senador
##usal
olvíd
king
libertades
##ester
revisar
contaba
depen
bab
##ísima
frase
kg
mexicano
oración
núcleo
ponen
mio
corrientes
##old
atlán
orgulloso
poblacional
iguales
camion
porta
paredes
##ópez
magní
impresionante
##ere
##zgo
merid
géneros
déjeme
ucrania
inspector
sabido
modalidades
transparencia
maestros
aloj
compla
##berto
arancel
creada
aniversario
residentes
##tig
hubieran
##cú
personalmente
valiente
denunci
vayamos
estatales
tesoro
##ilio
##iller
##15
debían
ciertamente
destinadas
texas
lópez
colombi
part
costes
armen
coopera
ferrocarril
exige
manz
dedo
obligado
##dam
reproduc
petro
toque
eng
ambi
##kov
dejaste
##diste
sudán
fundada
dc
martes
bienvenidos
sexto
espacios
pón
von
libras
fué
concreto
cia
sombrero
electro
formular
invasión
##tid
bail
valencia
kevin
250
administrativos
##piro
##ércol
supremo
##ander
##har
##ósitos
veía
##hur
administrativo
brad
círculo
##rana
estrecha
gustaba
ampli
defensor
puse
sufrir
expansión
establecidos
sacerdote
falleció
aventura
detalle
incremento
pc
imperial
##rí
armadas
into
eric
bá
##ral
quedarte
moda
competentes
gem
marc
ricos
abrió
propuesto
indemnización
##ak
considerable
120
##ícula
manual
indonesia
prestaciones
tea
andr
proceder
anuncio
conserva
goles
líqu
argel
saint
patrón
##enme
preserv
ann
romano
crecer
dirigió
huir
habitual
mencionado
bahía
ventajas
sois
haberte
décadas
##igna
tomas
piensan
##geno
perfil
torres
especializados
##istía
sufr
cruel
crimin
promesa
margar
restricciones
asistir
anuales
##endario
##ait
conocemos
##istentes
adquir
ric
continente
posesión
##lando
drama
experto
aplicables
despacio
hill
nacionalidad
saca
hungría
huesos
querían
dejarlo
cheque
estadística
rena
terra
predic
castigo
eficaces
aca
demand
comunitarios
enferma
##isco
sombra
##udas
bandas
puto
piedras
consultiva
murieron
felipe
calendario
específico
bac
amas
pensó
##ruecos
líbano
green
cáp
##viendo
admitir
investigadores
habita
poes
##mamente
migra
ong
preciosa
eléctrica
profesores
pareci
exclusivamente
auditor
##tian
durm
seno
alan
ceremonia
sul
debates
rafa
jav
grabación
cerrada
dignidad
parcial
##19
palestino
populares
reiter
dejan
helic
marruecos
brasile
##alizó
escuad
fotografía
##ibil
prisioneros
condena
profundamente
##amo
agujero
previa
##inter
acoge
difun
correg
importaciones
caminos
##vieras
desempleo
indican
anf
intentado
agreg
discos
naves
personalidad
jerusal
aprovechar
discusión
carbón
explosión
motores
olvídalo
##yu
##rense
gall
química
habilidad
conjunta
contactos
##rum
taba
##taré
pir
quincu
##erse
mueve
adquisición
##terial
fing
realizan
##vado
deseos
adoptó
distinto
##taje
asumir
tail
##omé
últimamente
símbolo
interac
##tiende
ganan
amante
zam
dirigentes
yugoslavia
encuentre
##crip
comisiones
dejaron
##adera
seg
designado
cultiv
olor
fórmula
##fac
solidaridad
quince
pesad
##ieren
consejos
espar
moderno
##dita
noro
buques
escudo
concur
subcom
##ulares
volviendo
queso
##amá
digamos
gonzá
cuenca
##económ
prolon
##yentes
socialista
diste
expresar
tonterías
cristianos
##yer
##posiciones
quincuagésimo
expedición
##toso
vein
apell
##rosa
poderoso
##bla
##icana
ascenso
##sal
ling
comuna
sk
pollo
trató
mencionar
aseg
##esen
##haus
##rioso
asistente
diputado
##tnam
carn
##op
lagun
referente
##domin
excu
mataron
palestinos
inútil
cobertura
derrota
##entados
dieci
##jarse
simpl
llo
##ife
cintur
bote
telecomun
tendencias
conquis
jackson
adjunto
auténtico
psi
event
pagan
debut
##ciar
columna
##garon
escribe
electrónica
profundidad
paral
acabas
checa
pasaron
ciudadano
llegué
proporción
##oder
conm
levántate
grandi
cruzar
hipó
genio
##hen
desastres
julie
##ficación
mama
hinca
alcanzado
críticas
inclusión
ree
sid
pescado
japon
rece
enamorado
intervenciones
colegas
gonzález
privileg
nam
##iéndose
llamando
estancia
rachel
químicos
unir
tiendas
elevado
periodistas
urbano
actú
zar
##rimir
consigo
##enten
andy
pudieron
sello
lima
noroeste
##000
once
modificaciones
robin
depos
disparo
later
sepas
descubr
americana
##rias
mantén
conocerte
hijas
descansar
##leto
kit
semillas
quem
cp
discúlp
sto
rara
##35
desaparecer
##demos
impera
huéspe
llamados
hablé
audio
básica
desearía
fc
pakistán
trabajaba
pí
herramienta
lástima
separación
retirada
organiza
##ciliación
racional
hincapié
dígame
##tativo
doug
barro
contento
centa
abarca
monedas
minorías
matarme
##izaciones
musulman
##tito
##yente
añadir
preocupe
reconstrucción
kate
éramos
reduci
##mano
biblia
unc
describe
panamá
ms
pn
exportaciones
tensión
recorrido
poeta
ash
piano
religiosa
delan
reciben
definir
limpia
estúpida
viviendas
pierde
recepción
##cam
##ub
bombas
escuchando
córdo
ancho
fechas
centrales
borracho
delici
lisa
nicaragua
barra
completar
pareció
tambien
##guesa
##máticamente
pidiendo
apres
pensamientos
parada
intim
matan
suspen
florida
##medio
empleado
solicitar
##queta
##boy
ayudó
saque
clásico
##13
tripulación
falso
heridas
##enaje
hoja
amy
conoció
##ificaciones
disminución
definitiva
aldea
almas
cuidados
seguimos
##undo
departamentos
evi
previstas
monas
##alizadas
nove
respetar
encab
ment
dosis
##ficar
desv
##titudes
gimnas
negociación
up
hablaba
pere
guitarra
comprensión
histórica
sincer
date
seguirá
ts
dimensiones
##ear
luci
##bana
ambientales
empezando
impro
jerry
joseph
##lamiento
confid
pará
metodo
ip
alimentaria
almacenamiento
georgia
etapas
quedas
mid
procede
vencer
enseñar
ocupada
pasión
específicamente
armado
rescate
##fia
liqu
##tti
rose
moscú
permita
patio
ponente
##inete
descrito
almuerzo
##vada
gasol
demuestra
aer
lobo
comunista
dave
avanzar
##ócra
pil
administrativas
##ércoles
##king
querría
logros
cifra
disfra
##mago
##politan
jueces
relev
miércoles
acerc
##tuario
##vias
ino
tenéis
pete
mami
formulación
trono
##abeth
ecol
campañas
apropiado
oyes
vera
perdone
ordenó
##teme
regal
depósito
guad
planos
directora
integridad
alien
eco
pudieran
##uración
integrada
##rás
inspección
sebas
fama
altitud
entradas
agenda
koso
steph
##pé
cemen
japonés
cuantos
incidente
despedir
cincu
mens
##burg
granja
sufrido
lidera
leído
nosotras
##tamo
##hua
rean
dormido
compi
ina
##pula
agrup
perspectivas
atm
canales
apareci
relie
##jano
##deci
cens
hubieras
privados
aumenta
##eamente
positiva
vivía
peru
##oraciones
mauri
básicamente
capilla
gordo
llamé
participaron
pur
##orman
tardes
subjun
porno
sexy
hábitat
normativa
fundado
##emas
firmó
optim
subjuntivo
existente
impulso
cón
poesía
##pin
gib
##diera
invitación
industrias
ajuste
##drí
unió
##ecería
representar
piscina
pico
sienta
acuerdas
precip
suave
##íces
vietnam
limpieza
##áus
sufrió
refuer
##01
antecedentes
histori
orqu
gros
promul
matt
ey
##érico
encontraste
limitar
humanitario
maté
terren
figuras
bosnia
ocurrir
andar
concepción
esenciales
##blar
jess
granada
##gencias
bin
despertar
denominado
are
asilo
##pista
cés
naturalmente
chocolate
riqueza
comprobar
claire
conveniente
formal
##tring
jama
encargo
podré
preocupaciones
llámame
simb
##lyn
isabel
virgin
##fil
lento
##onal
paro
declarado
pretende
incendio
abuso
complicado
coge
analizar
##landés
guardias
leyenda
causar
diseñado
ester
house
creerlo
judiciales
activamente
##hite
valent
refugio
cruc
bastardo
aquello
disponibilidad
1950
gravedad
créeme
rodrí
reparación
empiez
##uría
jason
pastor
inn
##23
introducir
##cea
testimonio
imagino
manejo
clubes
##udic
religiosas
##ef
consultar
satisfacer
disculpas
##tuvieron
rodríguez
guerras
asesinatos
##tman
satisfac
izquierdo
soportar
ocasion
cle
orquesta
controvers
iglesias
córdoba
##pía
referencias
##bimos
razonable
xviii
coal
buscan
satélite
cabezas
elaborado
##itri
morgan
bebida
maravillosa
separado
pam
pasé
##aca
proveedores
##trina
conceder
provincial
restable
##íso
extrañ
##ket
ensayo
##inarias
kosovo
##ámenes
##ight
derrib
coun
##eses
retroce
mintiendo
conductor
box
autónoma
césar
casarse
pensamos
fundó
##garia
caído
##trarse
truco
bola
alfonso
componente
ordinario
lady
##dremos
##tto
considerada
sentimiento
asqueros
gustó
hec
mataste
aconse
ross
pedazo
finalidad
daría
tira
ruedas
penín
abaste
informaciones
fiel
mix
fundador
antiguas
gh
##gol
ladrón
expresó
vulnerables
##riel
sangr
mina
##ucristo
cultivo
equivalente
noven
evacu
nutri
diferenci
salto
cincuenta
racismo
##iense
fortaleza
editor
someter
##ring
mediterráneo
pusieron
básico
jesucristo
afron
augus
actuaciones
indirec
critic
sagr
##itadas
cabrón
##restres
participan
tono
levantar
reputación
aviso
flujo
unctad
voluntarios
contado
territorial
integral
visitantes
aeron
##tiera
marsh
explí
pertinente
hip
cataluña
##jam
península
efectivamente
##bec
desafío
##95
vivió
reducido
that
verdaderamente
latinos
muriendo
##chada
despre
colocar
batería
##ant
##ciste
cuyas
mejoras
##turación
divul
jerusalén
misterio
##lice
voces
tac
indispens
dela
##izos
envía
laura
espan
carter
limitado
conduce
infrac
##dario
destacan
rusa
rafael
mexicana
medioam
observó
temporadas
tok
déci
roger
plato
diagn
pecados
estó
gui
##kins
malditos
transmitir
míos
##ándola
plas
estratégico
réc
atmós
ascend
##22
toques
escuchen
individuo
senado
parado
construyó
desigu
específica
filipinas
rele
diversión
##ifa
lucas
restaur
editorial
certificado
gratuita
##gg
mentiras
johan
tengamos
##cán
ampliamente
previamente
bicic
venía
pesc
melo
hur
subre
ayudará
aplas
asociado
sevilla
retor
espejo
retiro
huele
lum
preocupada
##ted
##ulla
fiscales
delincuencia
##tinas
indios
finanzas
##ités
compuesta
interesadas
casco
séptimo
robó
récord
terre
empresarial
##idación
originales
discur
arroz
olvidé
homenaje
reclamaciones
publicada
islámica
compor
incl
ensayos
feo
aprueba
avergon
##31
une
##tanos
##tsu
quedará
fumar
##emato
maria
prelim
descubrió
sujetos
##ígena
naran
cumplido
llév
bravo
grav
##organ
absoluta
quedo
ze
cach
##traje
preliminar
musicales
salas
##para
darse
chipre
alberto
dll
condenado
economías
orgullo
favorito
lanza
##ñal
futura
manifiesto
afirmó
dañ
botán
criterio
rio
informado
insis
ferrovi
termine
gigante
##tale
intenté
famosa
mostró
arthur
abe
##dadas
camisa
sexta
miami
spe
únicos
multitud
dispositivos
##ips
heridos
femenina
labios
previo
pérez
penas
tác
desperdi
deshacer
naval
##tiéndose
larry
pendientes
fracaso
jodido
tomen
##92
botón
rusos
fusión
suponía
traicion
desarrolló
emig
existir
monitor
desgracia
ordenador
respondió
salen
solas
madres
ventanas
##ind
##iebre
##ólogos
tóm
balas
##gá
define
seguía
cafe
##endas
cicl
nova
##ití
##edad
corazones
camioneta
incons
music
desempeñar
sas
##aco
raíces
quita
##ículas
encabez
ejecutar
incorporación
rumbo
crítico
##isas
contenidos
serbia
entendimiento
dedicada
promue
conversaciones
miran
escritura
eduardo
notific
robado
##rillos
liberal
apuesta
casar
fernández
emer
deser
profesión
sau
amarillo
ingeniero
lección
alejandro
enfermera
gargan
sucedido
consideró
doctora
esclavos
##line
metido
futbolista
comienzos
recaud
futur
##ídate
préstamo
terapia
guerrero
producen
oo
desarrollados
consentimiento
alban
reglamentos
lit
##ics
pilar
##iy
fueras
##entaron
vimos
hú
sheriff
competición
estabil
milagro
pelota
infin
##cripción
repetir
saltar
excelencia
harías
inmigración
carbono
##quez
funcionario
##rus
kris
ambul
sabor
##itorio
cementerio
harris
constantemente
pistas
salgan
data
casada
honduras
placa
estómago
inmigrantes
llevamos
ceca
guardi
dá
extremadamente
meridional
atmósfera
##ulsión
llegará
tenia
encuentras
salvaje
desarrolla
ofens
##02
tratos
hume
fraude
##tea
##cre
##ciosa
judío
vean
paris
tratan
##ule
vib
exámenes
marie
revistas
lógica
bestia
limitada
eje
refleja
him
##movil
detén
##its
hoteles
eliz
denuncia
admir
dv
##tamiento
registrado
debutó
##jen
##rimas
##tología
arresto
desplie
prevista
lamentable
##gráficas
muévete
##ited
##bc
precioso
time
declara
##rese
bay
custodia
ayudarle
inglesa
federales
femenino
despacho
comprendo
##vir
sufra
conjuntamente
manifesta
##dería
agra
atras
sindic
considerarse
intentarlo
asustado
jornada
##trico
dre
propuso
##cesis
##eder
sugiere
denominación
aliados
##igh
##ép
xxi
incumpl
gasto
obtenido
votar
restring
jac
cajas
velar
funeral
balance
subreg
criatura
##pur
love
pudiste
concluir
marino
carden
hables
tonta
abo
alba
soberanía
##enen
##zaba
provocar
##eña
autonomía
##93
pintor
##tita
testa
subray
gestion
##vez
kra
alienta
conciertos
suprema
vuelvas
eficiente
##rad
dispara
permanentes
croacia
quedando
adquirir
envío
señoras
emily
eas
##orio
subven
sufrimiento
disciplina
apellido
##abo
alu
aline
verse
reconstru
##pio
terrorista
hacienda
repercusiones
##ders
disper
cí
caminando
respirar
hong
##olas
##kh
##try
idiotas
##viese
##ácito
intern
participado
urgencia
ascens
##ium
##tine
bell
##mez
arquitecto
cuerda
escaleras
bañ
vincu
ción
durmiendo
vuestros
permitirá
grand
mudar
##aman
almac
puro
acredi
latín
perdida
rama
requieren
##05
aceptado
##esh
cuadros
mués
religiosos
##tualmente
inad
asignación
destacó
suspensión
taylor
decirles
instante
paraguay
susan
grandioso
soporte
balonces
mínima
criminales
tarjetas
compró
ave
muevas
##bn
charla
jefa
roll
futuras
##pensa
##ídos
secretaria
desafíos
importar
johnson
voc
intercambios
teór
elegante
metropolitan
cinturón
radiación
saldrá
##blo
dirá
usó
rib
timor
##gués
viniste
##inarios
haberme
detenidos
ordenación
##ladas
emma
aro
acaban
atlántico
afectan
preguntaba
interv
olvides
acumul
mont
aceptación
hacían
vueltas
enve
martínez
hitler
##culares
terremo
favorable
húme
anticip
incur
conceptos
caras
##tenta
chal
registr
verdes
adic
denuncias
##ilson
matarlo
miel
lár
muévanse
sing
redacción
relieve
clínica
británicos
contras
elizabeth
tomaron
##arquía
##mentado
decenio
##deros
##far
kong
simultán
paciencia
matando
##91
hablemos
uti
parroquia
patria
cercana
negativa
vivido
democrático
ruego
impid
amigas
rompió
##ern
relájate
bolsillo
liderazgo
desafortun
ácido
migrantes
sucio
certific
comentario
utilizada
fotografías
vaso
emisión
cargar
domici
submar
##izadas
obvio
comités
felicitaciones
armonización
falsa
fila
##ss
videoj
abandonó
disparó
propietario
##olv
humo
fruto
mitch
divertir
lág
prestado
vicente
toman
##tipo
dudo
street
puertos
alcanza
##chez
consumidor
ecos
pregún
##iti
sír
##erías
##non
##yl
calific
##erba
convenios
migración
guapo
##hí
cerro
ayudando
##quería
##dicamente
terminal
nervios
rendir
escenas
leona
cc
pongo
pasaba
fresco
institucionales
cuarenta
acabamos
imperativo
estratég
pom
haciéndo
inmediata
hispanos
spa
cristiana
desagrad
olímpicos
disfrute
desigual
alojamiento
irás
mora
sobres
actúa
espíri
íbamos
anfitri
deprisa
rom
ópera
auxiliar
jab
cubierto
magni
entreten
fé
tailandia
asalto
barrios
divorcio
trabajador
adecuadas
##ons
kelly
solitario
ocupados
establecidas
##therine
curiosidad
nik
accidentes
exci
costumbre
lujo
kno
quieto
##ani
contempl
modificar
prepá
cohesión
dean
desempeño
monasterio
abiertos
romanos
devo
sensible
encuesta
chuck
inscripción
llamamiento
##sk
bad
temor
muertes
lucy
invo
bulgaria
##ónicas
##03
##ribles
incrementar
cansada
actuando
american
inex
aproximación
abandonado
básicas
observadores
boston
jurídicas
vinieron
gord
dy
##enes
##rimes
trage
quedaron
##unción
culto
aumentado
##vey
otoño
habrían
esfor
ofreció
##riles
caro
maris
sacrificio
pesado
parejas
ov
operativo
##dil
##terrestre
característica
relacionada
tirar
inferiores
##íp
golf
##máticos
sensibil
##crito
joan
##dese
luke
clo
renunciar
##ball
fija
hern
litu
circuito
bod
##ándonos
negar
grabado
fur
sales
##emin
##53
dificultad
infección
rumania
##anzas
israelíes
mario
pregunté
indicar
galax
culturas
compositor
bruja
suicidio
cont
habida
habíamos
##ater
##bili
##trad
generar
policial
asiáticos
helado
medioambien
comunicado
vínculos
religioso
presentadas
limitaciones
sonrisa
percep
defensores
antig
frus
generaciones
coalición
necesariamente
salvaguar
paisaje
golfo
busco
israelí
equivocada
##gaba
tax
camina
rebeldes
baloncesto
##cons
deriva
face
aquél
hechas
##cate
reem
nace
ganando
pones
encargados
llego
estro
oce
talleres
##drás
##gador
secciones
horario
ató
alice
desac
muchísimo
denominada
tomaré
homos
finalizar
adoptada
##rador
municipales
shel
ida
hierba
herz
realizando
establecida
##zamos
vecino
encarcel
prosper
reestruc
adiv
ficción
asesinos
remun
fiebre
invad
mah
pse
im
manip
dejamos
cil
ola
benepl
pertenecientes
matemáticas
futuros
guste
urbana
##ai
instrucción
beneplácito
jura
##món
pensión
externa
salario
##ximas
escalera
##kar
reba
garganta
pertenecen
##entada
asentamientos
sirvió
constan
creando
##erales
national
supervivencia
desconocido
suministros
##enciado
mani
ciego
encontraremos
desvi
funcionó
##din
dick
bebidas
exh
##lle
iniciado
oso
juzgar
restaurantes
##ígeno
##éricas
##rilla
nombramiento
largas
juvenil
roc
debil
confío
champ
##baciones
victor
normales
##undi
##port
diagnóstico
siéntese
homosex
corn
competente
gasolina
annie
alarma
persigu
equita
grace
##udos
gla
usos
costas
olvida
mataré
misterios
apli
aprendido
tecnológico
destinada
sexagésimo
tabaco
canto
trasladó
cálculo
tejido
##vido
rocas
##teria
cómodo
vuelos
cubr
##mita
ramón
golpes
mem
expecta
deterior
encantador
vom
financiar
monumento
facultativo
sorprende
calla
asombr
presentados
duerme
##tear
fascin
norman
desaparición
afectadas
contienen
comenzado
##tadura
maestra
pagado
argelia
disculpar
describir
navegación
celda
records
sacó
feria
causado
triunfo
##rian
convic
vegas
competitividad
fronter
adelantados
descubrimiento
##rección
rebo
##32
##ígenes
extiende
scho
fox
reduc
legislaciones
hábi
altamente
halla
sangu
diamantes
excepcional
construida
sav
consejero
cañón
cis
philip
##éticas
secreta
empezaron
confirmar
##phy
escritorio
escucho
grad
titulada
film
vuelven
##boa
homicidio
##ezcan
##gráficos
##udencia
direcciones
idén
entrado
flam
exca
denomina
boo
gl
##cro
verificación
almi
alab
coma
andando
pertur
compara
##taban
basados
atrapado
enseñó
conviene
empezamos
anne
vecin
ak
implan
vivimos
young
trenes
campesinos
duc
##gela
##umbre
copi
bruce
signos
preju
emocional
desl
ánimo
túnel
fallo
gases
unirse
funcionando
##erro
enven
despues
escritos
1930
aga
dependiendo
seco
cubre
##vá
laborales
##bul
trabajas
derra
acn
bun
##eman
uni
aseguro
gabriel
fijar
##fu
rueda
##tecas
matarte
oxígeno
isbn
dulces
justa
vd
intr
permitan
abord
reembol
visual
atlan
##manos
muel
aprobar
##trans
barry
hostil
hosp
joey
derivados
distritos
incorrec
calcul
##tif
sindicatos
exager
kyle
recopi
##egovina
bren
pasamos
sán
presidencial
manifestaciones
damos
vigilar
estemos
##licas
conducto
distinta
recibieron
##51
maíz
peligrosos
abrigo
cuantas
luchando
cultivos
gara
sótano
hiper
desechos
tron
organizó
precisión
sri
pájaro
quítate
ilícito
##trica
felicidades
herzegovina
taza
atractivo
concretos
jon
literalmente
mach
vives
conmo
aparatos
apariencia
##uu
bellas
emociones
confeder
buque
russ
##tándose
giro
desci
##dill
cond
##dole
galería
pit
guion
##dete
frecuentemente
alteza
mantenido
geográfica
marin
##asta
cláus
boletín
##legados
haití
trayec
obtiene
cima
##quera
##33
##umer
humanas
##ture
podías
recompensa
examinó
adecuados
##ecia
guapa
encontrará
subterrán
##bir
##jones
notificación
tomamos
proviene
molesto
argumento
riv
orador
##itores
exclusión
hard
aparato
cobarde
tumb
inesta
darles
pendiente
##cinas
pinturas
julia
misiles
##ild
cuartel
residiendo
##ory
albert
serlo
quebr
sirven
conquista
perdóname
críticos
parale
quir
andal
magnitud
directivas
agricultores
rh
menciona
##tala
embajada
masas
represión
##ayne
enormes
gigantes
esperas
útiles
fos
##29
sky
comando
tic
genera
##fron
qa
cher
dal
isa
profesora
enju
empeor
jazz
tap
crece
observando
poseen
enojado
rodillas
honesto
##céu
lentamente
platos
kal
reclamación
absur
arrepen
##ally
fuga
##trales
traslado
nores
##tarán
históricos
disculpen
alegre
##urg
one
catá
regalos
pho
flan
nigeria
preparando
andrés
gi
llorando
cristiano
formada
##ev
castro
bebés
hank
ford
desean
##olos
muchacha
##ídas
##illy
mencionados
junior
##zy
peores
cinemato
cron
sánchez
fós
reparto
subcomisión
##derson
##endar
##cista
detallada
##any
oíste
aléjate
permaneció
encontrarlo
ear
suplemento
##dilla
permit
recomendó
##ttle
universitario
oliver
noreste
testamento
súper
##inan
##riera
negociar
semejante
acompañado
regrese
legislativo
ricardo
analiz
largos
espon
multilaterales
empezado
##hara
frac
quieran
lágrimas
transcur
sucediendo
alternativas
guiller
cometer
##velo
ove
##hisky
movilidad
mato
avanzada
barba
recibiendo
irak
sabid
dirigidas
##quetes
respectivos
plantea
inser
rastro
##onde
dispuestos
lastimar
##ordi
retorno
##ánicos
cantón
##ken
romana
inmor
mantienen
core
protocolos
coincidencia
vidrio
concretamente
mandatos
##yd
liz
expediente
supra
cuida
meteor
kenne
##gara
vendido
vende
invitó
ki
mír
stra
oigo
onda
comprometido
hanna
salta
efectivos
geno
oscar
eslova
escape
recolec
artill
comedia
bár
traj
frutas
separados
##ficaciones
##cent
monetaria
prohibido
pp
carmen
servidor
capitales
##rando
realizaron
amaba
auditoría
músicos
times
celebrará
reunió
##rica
destacado
##quín
disparos
debidamente
publicar
ofertas
##gers
mortalidad
130
pedirle
mantenga
panor
resistir
artístico
amanecer
penales
cómp
llamamos
encargada
maqu
clásica
cuartos
epid
bruto
coro
disponer
transna
##heim
naz
malasia
##utas
##tigio
volví
evangelio
preparada
##ámico
miser
supiera
##ficado
farmacéu
invis
verle
índole
gary
##imp
##oo
parad
funcionan
##asa
documental
saco
cueva
azo
aburrido
existía
sencilla
evaluaciones
orilla
pierre
##icen
##pper
garantiza
##gén
sienten
músico
ligeramente
hmm
jacob
reír
contando
directores
##ony
deliberaciones
temprana
##uch
lealtad
##lis
indicó
escocia
##kay
plástico
envenen
presa
extranjera
inevi
mentiroso
dijera
utilizó
comod
##55
presentaron
aceptó
caridad
helen
instin
africanos
llevarte
sures
##tarla
vestir
precisa
horror
vertic
arreglos
uu
seguida
civilización
espaciales
supo
##rek
radical
##ñe
piense
##dito
empresarios
dejarme
utilidad
indispensable
perver
indicado
##elli
##ess
##iaciones
##tosa
rumores
##uk
pesadilla
loren
terrestre
1000
ocupó
educativo
##ordia
unida
éxi
rosario
despren
vocal
prisionero
vapor
preval
##yera
extrema
sm
reconciliación
karen
bilaterales
renuncia
##illiams
exigencias
gráfico
sopa
claridad
destruido
##uss
reconoció
conseguí
retraso
formando
prohí
selva
terrenos
hueso
amado
cotidi
dibujos
valenci
ibíd
descubre
éxitos
perjuicio
presento
exhaus
estimada
tibur
consagr
comarca
ilegales
captura
descenso
##enco
sustancia
culmin
pasillo
rojas
yan
dvd
agradecimiento
incumb
carreteras
billetes
pondré
imaginación
secuencia
renovación
contradic
esperanzas
cadenas
good
##árselo
land
salsa
acp
escánd
##52
dragón
sumamente
ducha
##lero
dene
octavo
##amba
guy
podéis
ratificación
guillermo
elevada
vuelvan
##ideos
sagrado
pegar
paraíso
atraer
tradiciones
long
correctamente
acogida
envuel
revela
##nar
united
south
confidencial
intentos
##dem
helicóptero
tropical
hablaré
unesco
reaccion
contingentes
veneno
arrestado
dieta
##tarle
desma
postura
bello
nathan
publica
dólar
elena
asegura
enfrente
tortur
colina
irri
neuro
odia
ever
colectiva
##oria
##guera
centen
evolu
preguntarle
cuentos
roberto
escuchas
##ota
hectá
##sky
criaturas
arn
jin
pánico
morales
huevo
##zob
gordon
##rirá
jay
secuestro
primi
high
colle
estratégica
masac
sacado
out
seremos
acondi
lac
sabiduría
chaqueta
predomin
leí
trayectoria
iría
colonial
jal
##adme
huelga
empecé
portal
pensiones
elegidos
regí
explosivos
ratific
##chen
iniciales
demócra
sabrá
900
agresión
manio
químicas
vela
rellen
preguntarte
salvó
frutos
basadas
armenia
##ecos
intoler
códigos
coordinador
positivos
ayudarnos
encontrarse
##fan
reanud
intra
escapó
ganancias
dibujo
##tornos
convento
examinado
restauración
tragedia
dolores
disputó
insign
consultivo
necesite
huéspedes
tramo
mires
excusa
cardenal
##pus
mencionó
convencido
depresión
hablaremos
vita
exposiciones
trimes
quedamos
compré
despliegue
##aduras
curioso
poquito
patrick
rayo
conservar
##quita
arruinar
rup
venezol
gn
apu
alrededores
etio
acnur
arzob
brindar
túnez
protagonista
embarazo
simples
comido
buscas
cartera
aplicado
aeronav
conocidas
ramas
multilateral
comiendo
rosas
típico
ocupan
bush
entrando
seminarios
obses
concil
hambr
medir
bolso
funcional
medias
retos
cambiando
##cker
ful
sad
program
miller
hospitales
episodios
gustas
hipótesis
asigna
permanece
teléfonos
refieren
joa
intenciones
mancha
legislativas
ame
tortu
##teto
##deses
elector
elog
retiró
esposas
discrimina
comput
##vor
perdimos
north
lesiones
##cientos
caos
##anse
órbita
japoneses
##camiento
rutas
centra
despierto
altar
regímenes
kent
virginia
divorci
recibí
creador
##ionada
oscura
##toriales
pedazos
umbral
recurrir
continuo
biológica
gerente
formuladas
egoís
bolas
especta
remon
pyme
serpiente
##59
determinada
##deste
die
caba
##hl
sureste
desgraciado
ciudadanía
leyendo
recoge
1920
##ím
falla
creencias
funda
echo
tomará
aragón
volvieron
almirante
mandó
peregr
##gl
asegurarse
duplic
##ímetros
conseguiste
localidades
municiones
fax
jersey
1939
danza
integrantes
abol
solucionar
presentarse
##ridos
sabían
ayudante
errad
##39
corredor
diarios
exhi
costumbres
misa
comprado
confirmó
acordado
aumentó
armario
definitivo
decimos
afil
puntu
anto
enunci
agencias
asci
explotar
##cano
ye
reemplazar
etiopía
maggie
grabar
irregular
gene
ecosiste
sever
curar
##mante
temer
persecución
##entri
corro
muñeca
competir
##vaciones
azerba
##tines
vínculo
alfabe
##inando
marshall
andaluc
fí
peligrosa
vendría
abran
kara
salieron
presupuestos
##mad
musulmanes
casualidad
bicicleta
díaz
asesinar
##inger
cf
jenny
secundarios
suro
practicar
estuvimos
prometido
somalia
sobrino
transac
dictadura
doctrina
quedé
nubes
davis
javier
héroes
110
distinción
##uts
dj
##gelo
esperado
crema
aliento
interacción
salimos
blancas
##ecemos
resum
contener
decidieron
##íen
##ianas
preguntado
gubernamental
##ledo
##radas
preguntando
cod
sentimos
líquido
##unidad
fals
fabul
agus
pozo
##rista
sonr
añadido
##cemos
parlamentar
blue
jona
montar
##dices
tanque
pongan
arriesgar
##ificada
ayudado
xv
ediciones
continental
neum
marg
oficiosas
sindicato
adolescente
incid
islam
exce
pondrá
##pil
parezca
bó
encuentros
béis
jung
partículas
pizza
alejar
gold
adonde
atl
seamos
ministerial
ambulancia
zara
erradicación
medicamento
rub
restantes
jubi
béisbol
sepul
pasta
reproducción
preocuparse
neer
creció
exclusiva
dispuesta
soph
muebles
tatu
##ele
déjenme
volando
fachada
tubo
creados
espl
net
sufre
lárgate
voluntario
trág
intensidad
herencia
despla
interpretó
##tete
afroamericanos
llegas
deme
malta
decepcion
uganda
llevarlo
mt
nerviosa
almacén
desee
dejarte
volvamos
clau
desnud
experimento
gabinete
sostiene
miseric
dinas
gritar
##fal
ecua
agru
##uél
velas
decírselo
##áramos
signo
##uz
##qués
##dador
estrecho
ingleses
##mela
coordinar
vigente
josh
##iosos
sugi
arabia
ral
##jé
play
controla
importaría
##rimido
medianoche
narra
pares
compañera
presidentes
oz
payas
presos
filas
sabéis
xiii
salvación
incluía
estudiando
ayudarlo
originarios
estrechamente
dea
encontraban
aguanta
propietarios
palo
oficio
desar
##xo
formulario
socioeconóm
abad
promesas
eligió
descrita
jardines
demandante
integrar
##mail
##09
imponer
##ser
estructural
refi
mantenerse
##deos
terry
tesis
poderosa
estimaciones
inocentes
encuentren
qui
despid
plenaria
muera
autopista
mision
administrador
astero
deudas
shin
dilo
exen
dígale
##fle
1959
nicol
##orth
obreros
adulto
laur
confusión
flexibilidad
empresario
##raste
##nan
##ecera
quedaba
diámetro
angus
flora
escritores
##feros
teresa
exhorta
##diz
incluyó
inmo
azerbaiy
sanitaria
digan
suelta
reporte
quemar
inus
oral
amerin
escribiendo
##umas
##zarse
proceda
sofá
subpro
dedica
neo
espíritus
internas
##mal
gómez
físicas
refrig
griega
devas
electrónicos
negó
paté
ss
olvide
víctor
piedad
sacerdotes
articulo
##izando
quedaré
##nm
grues
chinos
significativa
##fronter
libremente
recogida
japonesa
requisito
lyn
aplican
##xido
##egu
solicita
parker
##alker
##daje
lagos
impre
nico
basándose
enfermos
verlos
esloven
##ship
grano
ix
verán
diles
traición
causó
desembo
pib
escar
anuncios
conversión
escuchaste
estrés
##rigo
##uses
did
extraños
diócesis
aumentando
##tizado
mars
perpetu
queja
volveremos
pájaros
mili
lana
##vol
dias
##úmenes
obtenidos
reta
pienses
afectado
debilidad
##eller
demandas
dedicó
1955
fases
entrevistas
##dirá
catálogo
##icias
desembar
esencia
viniendo
royal
observatorio
especialista
empleos
significativo
défici
especialistas
lleven
gav
sacu
energética
##dt
lío
##ellón
rival
coch
ancianos
camis
anth
vinos
##emo
montes
##hel
comprue
colectivo
artística
hombro
siguieron
##caron
okay
aprobadas
##anim
abusos
perdiste
conexas
advier
observador
##ganse
gaza
multiplic
blanque
machos
marítimo
buscamos
##olf
declarar
caracteriza
infantería
salí
##ciación
frecuente
alentar
estonia
sebasti
105
sorprendente
bach
marcado
nieto
obligados
sirv
automóviles
citas
productividad
escoger
alimento
maravilla
##piros
inevitable
rota
alfa
eeuu
##pole
##igue
autorizado
mud
##cedente
dímelo
day
crean
##igas
móviles
despedida
enamorada
imagina
##gencia
ejemplares
robot
favorita
creas
congre
cerebral
llamarme
modernos
tercio
santuario
suroeste
portugués
pilotos
hazme
pertenecían
configuración
##tés
involucrado
colgar
##zona
señalado
##eland
andalucía
charlo
turistas
provocó
indio
espé
bou
hugo
laguna
##ards
rig
##ógicos
expectativas
##yac
vasco
extranjeras
convenciones
##locu
cristian
##odía
máscara
varie
llamaste
##redo
recin
deliber
rechazo
dominicana
vuestras
agro
pion
reinado
perdieron
rechazar
veinti
navar
transfronter
tai
vendió
viuda
parcialmente
parámetros
palma
efectuar
lincol
ende
queridos
plazos
eman
reúne
echa
aprecio
almor
revolucionario
contenta
liberar
aur
bode
continúe
accion
fabricante
lex
##tton
reduce
##emy
caca
utilizadas
##clo
provoca
##bara
asqueroso
sentirse
darnos
cereales
met
extrad
seguidores
lincoln
buscaba
ejercicios
contabilidad
##ement
académico
singa
aviación
reconocida
macro
##institu
##eamiento
##ipol
defend
ciru
sostener
vincent
práctico
desplazados
valer
sitúa
sientas
divisiones
cápita
eléctrico
convoca
medallas
##chester
poema
ios
contestar
hectáreas
##vía
mirad
niega
preca
asientos
entienden
lé
faltan
supues
##encialmente
repent
extender
aje
manifestación
semes
subdi
apelación
##omos
##eres
lituania
ball
incorporar
##lash
casados
corrección
consign
estrope
surgió
aclarar
##cería
tokio
pasaría
##tam
ole
christo
estatua
callar
interpretar
incumplimiento
retirado
##eciendo
league
formulada
canadiense
mejoramiento
##gámoslo
transmis
sera
cali
oídos
culpar
##amp
aflu
probado
tocando
auxilio
dejará
manteniendo
##ceae
miti
##terna
ingred
indígena
iny
tech
estarías
trinidad
##abora
naranja
ocurra
suéltame
débiles
burundi
desfavor
marinos
circular
##ars
amerindios
temperaturas
lily
och
retirarse
rendición
advertencia
cass
emoción
##ei
regulación
asignado
transacciones
alqu
ocultar
enjuici
viii
ponerme
##boro
separa
##tain
school
rodeado
lecciones
asustada
italianos
goog
island
marx
salgamos
alivio
dormitorio
occidente
triple
##áce
##onancia
##unas
llamaron
vais
##lago
destruc
portada
rata
imi
dinámica
operadores
chlo
sc
##rida
artillería
inca
##omer
contesta
orientaciones
recuerde
solicitó
ética
divina
talentos
##leños
##zoso
supuestamente
abastecimiento
brutal
enlo
kilos
depender
bloqueo
lorenzo
cica
rt
##sores
cargas
estrenó
##minente
aprobados
actualización
minor
confirmado
emocionante
encantadora
terremoto
tyler
nicolás
encanto
vendedor
christian
vuelves
viejas
##mones
sabia
facilidad
sueldo
proponer
planeado
deberes
eb
noveno
comparte
intente
resultar
bombarde
traducido
fm
matthe
próximas
##érf
inesper
décimo
masculino
eugen
venecia
capítulos
encaminadas
traspas
deportiva
##fobia
porte
tuber
lap
decidí
cazar
explicó
cabecera
fijado
popularidad
reconociendo
vernos
reclus
pesos
nombró
llegaste
coll
escándalo
peniten
azules
peligrosas
repito
invertir
destina
inspiración
federa
##book
avanzado
##jados
##isten
camboy
afectar
##tern
urbanas
preferiría
confederación
reglamentación
masco
ker
monstruos
nel
your
silves
exceso
coleóptero
solicitado
facultades
modificada
toro
perj
concluyó
tíos
jeho
producida
##cino
joyas
prestando
acepto
suyos
disputa
had
##temos
atacó
fatal
duró
##tables
considerados
##ándolos
fantasmas
cartel
mencionadas
##ray
apagar
casino
operacionales
sensa
envid
intér
ahorrar
legislativa
##íqu
ji
##omen
##199
hún
discursos
##guardia
##oni
##jaba
##traba
torpe
inters
##sor
liberia
lisboa
##rich
mail
creciendo
refres
salvado
occidentales
glen
inhu
stone
hoc
##tase
##dula
chad
##terias
huérf
##mun
lograron
##drome
revuel
conexiones
##tuoso
1951
adher
##éndome
reve
karl
amén
enta
matr
ladrones
angola
mord
descrip
beth
cuota
##irán
pás
stephen
acusaciones
##ose
espía
modern
domicilio
##hr
deso
matrimon
brigada
test
cocinar
##áneo
traigo
magnífico
combina
mostrado
asegúrate
muros
intérpre
marty
pedimos
##med
##dense
queréis
dispararon
funcione
##tho
respaldo
én
algodón
azerbaiyán
doña
##canes
sintió
eur
1952
águ
sác
cav
marqués
espectadores
minerales
##cedonia
##hit
##ucos
singapur
muero
##dell
trafic
derrotar
cometidos
##cend
singular
considere
seriamente
pongas
ángulo
enterrado
asso
sincero
dial
melan
##ee
abiertas
compensación
perdidos
detección
google
acusación
sebastián
importan
hir
certificación
soledad
mante
debiste
contratar
continuidad
##ii
##sterdam
credi
exploración
nadar
habrán
eterna
orgullosa
trasera
resuelto
manifi
llenar
pasaporte
rebelión
conjuntos
dinastía
convirtiéndose
oea
mauricio
descentr
##éndole
regimiento
fiduci
adivinar
cobre
divide
demasiada
##ínas
cercanos
juzgado
sonora
fantasía
quejas
madame
paulo
##gones
mueren
##urope
cres
escap
jesse
jamaica
vers
acar
golpear
amaz
bic
##ary
atravi
alfom
movilización
##adel
despo
compuestos
##gantes
moverse
olvidas
cruce
salarios
acabe
determina
pensaste
vengas
##terapia
visible
stor
oa
##ienen
alexander
trabajamos
actuó
gatos
alicia
terrestres
procedente
inicios
admis
volvería
fotó
pate
apunta
mara
##tene
##cie
déficit
autó
##lana
##lix
registrar
spo
##ñón
trauma
camiones
gobernanza
stark
##paje
alimenti
deca
pacífica
insegu
rompe
tecnológica
kur
hans
##olis
##yanse
despedido
encontrarás
protesta
columnas
marchar
camer
tocó
playas
apag
buck
encontraré
polo
traté
off
##uto
supl
nacer
marcó
##psia
pascu
primordi
barato
##ming
nancy
reten
##illado
reunirse
tanques
magistrados
patrulla
expulsión
mago
famosos
especializado
chav
abandono
desagradable
pino
romántico
parto
demora
consideraba
##dea
investigador
globo
cadáveres
##garo
detectar
aná
canarias
coman
port
psiquia
101
revisado
macedonia
restitu
botas
##mel
clay
escolares
ill
comenzando
kh
reflexión
astron
##tizar
1953
hus
charlotte
apuestas
ascensor
mide
##dientes
##trando
blas
dex
insectos
defen
genética
nich
desorden
contribuido
125
pañ
ésto
celebradas
llevarme
fuertemente
arzobispo
omc
apropiadas
pm
mírate
ign
llevarse
investigando
experimentar
estal
neutr
##jese
cabina
harvey
##pel
entro
entran
citado
manzana
sesenta
sant
lesión
frecuentes
diera
remedio
ingresó
heroína
fiscalía
subvenciones
metió
mediodía
thor
queríamos
##patri
conocimos
escondido
retrato
cocaína
hagámoslo
##vitud
jackie
publicados
aportar
prostitución
penitenci
cooperar
externos
negras
campeones
##lé
resal
chileno
victorias
##fur
##ate
##pher
ahog
pisos
igna
tejidos
descarga
maya
patrones
chloe
síndrome
detuvo
preparativos
obligatoria
adorable
exacta
confirma
costado
brook
zorra
arbitrar
excepciones
##lame
casta
##integración
talla
agarrar
god
traidor
stri
##board
interesantes
marcar
concede
back
explorar
representado
##abu
intentaba
tolerancia
mendo
ordenado
interesada
##ffer
lind
orígenes
armonía
comienzan
esclavitud
implementación
engañar
gun
asombroso
interinstitu
refería
##esto
jordan
veas
tard
##iona
divers
college
rug
holo
improvis
golpeó
gritos
introduci
curva
teorías
bebiendo
salvajes
bóve
capitan
depósitos
asco
ian
##ñez
fenómenos
discúlpeme
sano
ejemplar
jugado
identificado
sensibilización
ligero
emitir
gimnasio
##raron
acelerar
apropiada
sospechosos
cantando
paula
colaborar
reorgan
espe
álbumes
hígado
federico
desempeñó
subraya
##ural
center
caballería
desempeña
adivina
##bis
ernes
fundamento
inclusive
apesta
interlocu
coherencia
católicos
patas
concreta
concentrar
jurispr
experimentos
ajustes
ponerte
láp
cañones
msnm
fruta
rapidez
transforma
kn
shar
adopten
extracción
zim
citar
intervenir
zarago
desarrollando
radi
sabiendo
cuadrados
ass
claras
convencionales
collar
tigre
verdaderos
##az
bogo
obis
decente
invas
apartados
usada
automáticamente
banglad
publici
fabricantes
leonard
ejércitos
bolsas
disp
associa
retirar
novelas
enveje
sana
##etes
##rin
pelu
ruinas
estimado
dero
estructur
##lera
bolí
artificial
notar
##árez
elimina
sop
##bando
sustitución
##tiza
##tilación
sinceramente
percepción
##andra
mejorado
agár
griegos
añadió
##uegos
elige
##dol
libia
encarga
centavos
rab
##ecidos
##jara
dirigidos
##lock
habil
entregó
localización
afe
##bury
morirá
aco
##ólico
deseas
evolucion
##oli
galle
váyanse
arrancar
estudian
tenis
atrop
pasara
científicas
ayúden
paquetes
reno
negativos
azar
eventualmente
infel
ahorro
fauna
interrumpir
calcular
utilizarse
not
arroyo
cance
seca
##íf
##blas
blin
##mpa
##tientes
pagó
enfoques
postu
donna
##xon
apúrate
nepal
monto
morris
extraordinaria
##dulo
estreno
secund
deton
probabilidad
miro
beneficiarios
invern
suite
sanguín
pea
gritando
desplazamiento
##fri
contratado
enviaron
verificar
pasen
reconocidos
estall
lance
descom
experimental
tesor
##áu
variedades
hous
jordania
pluma
crucial
##ort
gales
legalmente
partidar
difundir
inyec
demostración
##adi
##olver
ator
napole
galard
espaldas
autobuses
multa
##xa
##chado
##biliario
aspir
ayudan
debida
benjam
saudita
respectivas
toledo
##tecn
tetas
hot
licencias
narco
estimul
vec
correcciones
##cidio
pastillas
##minas
maltra
recibo
africano
vacía
adopte
mueva
elef
diploma
cuero
##cn
sincron
traeré
casarme
curs
sonidos
digitales
tina
marte
calder
##ecas
##iner
aho
##bulo
sand
sudor
montene
haberle
incidentes
zelanda
dominante
mención
condicional
encantan
afrontar
decirnos
saneamiento
metodología
endé
lamentablemente
cobrar
sometido
baby
carolina
seleccionar
ingenieros
argumentos
gustado
consideraciones
complej
remol
sentarse
hambur
mercad
entraron
109
interiores
adquirido
guión
asumió
trece
mesas
protegido
universitaria
disfruta
##esis
encantada
entregado
sobor
harto
obstáculo
servido
protege
huh
precedentes
incendios
decírtelo
camiseta
cigarrillos
tocado
##adería
lámp
grasa
belga
estrictamente
digno
véanse
##entamiento
aber
pulso
procesamiento
masiva
volvemos
recinto
acum
##dían
angeles
##ótico
intenso
continúan
cancil
merce
inscrib
escuadrón
expresado
dependen
ecles
fidel
##citas
historiador
cardía
sene
sombras
orn
esencialmente
##ram
sabio
michel
bry
panel
buscado
desaparece
computadoras
##dura
##vich
##sela
protector
prometí
refuerzos
samuel
heredero
podíamos
presentaciones
peticiones
aguar
salgo
mito
vampiro
psico
enseña
araña
intercep
ratas
mundos
vestidos
manifiesta
castigar
##acos
apoyado
lanka
hermandad
spen
proveedor
prefiere
varones
ances
planetas
pabellón
prosegu
rojos
##uad
matriz
confesión
ayudarla
asegurarme
turco
atas
mantequilla
cuerdas
agraria
##alt
colombiano
aislamiento
broad
##pris
amantes
jurisprudencia
correos
obtención
campus
ajed
sinf
amplias
poemas
##dible
entré
batman
olvido
from
educativos
lem
abu
sci
moz
intentas
profundas
desayun
##traron
##osau
brech
mutuo
##lex
aventuras
baila
mencionada
portuguesa
positivas
derek
##tibilidad
vientos
macho
variable
contribuye
aplicarse
marcus
sustituir
russell
litoral
jehová
distinguir
ivo
conn
trajiste
vega
ratón
audiovis
evidentemente
contrac
interroga
amanda
registrada
zaragoza
empiezan
interpreta
religiones
pav
molly
saludos
##duce
##ieres
river
metales
sugiero
##oss
francos
certificados
enfrentan
milán
castellano
habana
estelar
mecánica
forestal
impide
beca
fijo
sucesión
desnudo
caray
apas
constituir
atlético
maten
promete
lom
definido
coh
delta
##usto
shan
estacionamiento
if
firmemente
alegr
finalizó
historial
zelandia
preservar
cuídate
##leros
diana
anciano
paran
pag
chef
medie
##inio
aprendí
derrotado
atar
delicioso
adecuadamente
enfadado
##day
sonar
ubica
oradores
solucion
ligera
viajeros
sept
adquier
bombar
sospecha
divino
dirás
##orios
##enz
pién
dejaría
voluntar
ultraterrestre
##udal
##urrección
impr
##varez
##trac
saludable
aspira
almo
manus
galletas
simultáneamente
parientes
acér
prorro
crecido
observado
metá
gue
anfitrión
flash
exigir
arbus
consideramos
male
propósitos
escribí
jamie
valioso
siglas
hablarle
betty
vegetales
##house
limitación
1933
justin
subes
aguantar
destacados
sepan
escasez
acusados
cruci
informática
camboya
autora
##dul
iva
morf
entendí
allan
rehenes
cup
comisaría
insuficiente
catherine
life
fao
sufren
complement
físicos
sentidos
pila
franja
coherente
chiste
habia
tím
darán
slo
recal
cigarrillo
disponen
radic
escasa
localiz
correspondencia
sombr
surge
##poner
guay
párrs
sob
redonda
estupe
##istic
saldo
guerreros
logística
adh
maleta
interfa
pelotas
sugirió
após
tontería
##een
trigo
obligatorio
##vard
atenas
rechazó
circo
cosecha
adquisiciones
##rag
##teos
prometió
repeti
esperemos
fieles
símbolos
zom
tontos
mexicanos
defien
astr
##ficiencias
concedido
ministerios
##vania
viajó
privacidad
primas
derrum
ligeras
anten
##kan
paliza
sentada
asesinados
apete
mejorando
sis
museos
nobles
gio
hoo
vampiros
ny
##énd
conejo
atómica
##into
confer
##rimientos
jaime
apreciar
venid
##óso
sólido
confis
increment
cumplen
tomás
fijación
hebre
bogotá
1931
tratamientos
usados
cuéntame
alb
mapas
tumor
poblado
##culas
montenegro
batallón
this
brasileño
fér
variaciones
chel
artefac
##ecida
fusil
localizado
especializada
fn
exhib
servirá
complejos
errón
clausura
conectado
##right
cordill
##zu
nt
judía
sólida
fum
##ificados
invisible
##aras
extrañas
tenerlo
revés
pudieras
residente
anualmente
jessica
mendoza
florencia
##ítico
círculos
usualmente
acordar
hob
proteínas
forense
nazi
little
agrupación
reen
subtí
marke
sanidad
sicil
acercarse
grant
##yase
maxim
##icionado
conscientes
intolerancia
semestre
rutina
olvidó
pasaje
inventario
legi
validez
##yecto
##usos
cráneo
##mu
##iac
apén
parques
inmunidad
regularmente
##ichi
kas
online
pesada
ficha
sally
humedad
cat
estándares
cumplan
decoración
provenientes
disney
estilos
etiqueta
ava
kennedy
recomendar
placas
encerrado
visitó
navarra
##íferos
realista
presentará
arquitectón
arren
videos
orgánica
##uld
micró
perfor
policia
stal
electorales
gin
##bó
botánico
east
cambian
matará
coraje
xiv
solem
vivían
tela
lleguen
juguetes
comunistas
directos
##unt
inflam
escultura
disparado
supervisar
divier
encender
deportista
thom
corrup
diosa
crucero
margaret
terminamos
##ónima
muelle
operar
kaza
emprender
horno
católico
intentan
integra
sobresal
rector
bernard
rasgos
marítima
##ógicas
##dney
exhor
españolas
renom
email
nacida
cerámica
mercedes
comúnmente
anthony
favorecer
confirm
enseñanzas
tribus
recip
pnuma
aterrizaje
variables
técnicamente
perseguir
panorama
##glos
resuci
corporación
déjala
eliminado
telefónica
entusiasmo
##olín
ppe
oculta
eslovaquia
##chate
fallecido
tarif
##eda
docena
iris
afortunado
##trea
vecindario
cabaña
chin
apuñal
reunidos
extinción
materna
luce
intensa
##elia
despejado
sacaste
##fono
contactar
espectáculos
##ult
##doras
##bridge
ani
xeno
doctorado
sucesor
encend
consor
sorprendido
emitido
colonias
isleños
##inf
ofrecido
miranda
legado
eslovenia
enér
emergencias
dylan
distor
crearon
ruidos
aren
afueras
##ondo
cortos
bangladesh
transparente
producciones
septentri
destinos
arruin
humanitarios
reproductiva
honestamente
expuesto
aplicando
sué
ochenta
pudimos
voluntarias
rigu
experimentado
conecta
supresión
tara
zan
logrando
##ui
gustar
espectro
llames
ensal
fertil
##dela
proxim
tendrían
oyó
road
uz
revo
capas
volúmenes
##iamos
sabría
plazas
sagrada
interino
certeza
discapaci
sostenibilidad
kam
hayamos
pais
potenciales
##ufac
metropolitana
consecución
perjudic
mister
##cionada
obsta
spar
complejidad
gratuito
emitió
filóso
compone
suba
pusiste
nelson
mia
concluido
otorga
equipaje
liberado
penny
ner
mantengan
legen
raras
escuchó
pronóstico
##ísimas
bendición
manipul
carg
aficion
decían
motoci
adelanto
trajes
nube
misericordia
##brado
creyó
cables
dad
comedor
incidencia
bodas
ruth
subsidi
puls
vegetación
obteniendo
lateral
volcán
absurdo
pasas
olímpico
cuidadosamente
##urar
alumno
##gata
antár
compasión
levantó
hispano
añade
ajedrez
##ueles
mega
aparecido
manufac
aduana
inal
manga
intu
cb
vulnerabilidad
##mol
administrar
estarían
mentes
##raba
steven
montre
instan
grabó
mutuamente
trimestre
localizar
cone
incompa
comunica
impulsar
realizarse
connor
sujeta
hugh
cláusula
##tm
##aderos
oit
disparen
incapaz
auténtica
##famil
ilusión
descans
reacciones
repos
violenta
##icom
##rías
querrá
grabaciones
adios
negativas
genocidio
energías
##izador
fibras
allen
gilipol
ua
aa
coincide
introdujo
##tástro
senegal
oir
caracas
medieval
exista
modalidad
lléva
##rino
esquema
chá
conozca
albania
cogido
doctores
disgus
eee
apoder
resis
islandia
##larse
houston
mercu
barrera
sorprender
##bell
##tróp
kyo
ultima
reunido
garaje
asistió
cran
iluminación
flexible
catástro
nina
modernización
company
##zon
##laron
##lula
integrante
síntesis
titulares
echado
1929
examinando
adición
##hna
seleccione
##ianzas
textiles
iso
inund
plantilla
kin
##ártelo
coe
continuamente
encontre
cerdos
cayendo
##gy
conocerlo
asusta
respiración
peleas
##jería
suceda
transcurso
consolidar
probabilidades
##rys
agregar
##ligencia
elegida
mason
olivia
mongol
##ucar
pato
clandes
candidatura
confron
juramento
regul
##ueve
biodi
sensibilidad
permítame
dorado
##ián
romance
lobos
imparcial
hablarte
femin
sudamérica
marrón
centrar
plomo
##baste
quim
designación
proporcionan
##cle
phill
ax
adol
infil
1935
paralelo
pertenecía
dividido
globalización
ry
##pata
globales
intes
abraham
batallas
1932
llevada
intermedi
jonathan
sacrific
sistemática
apartamentos
compatible
moreno
##gancia
2019
##ternidad
corregir
tun
delegados
preocuparte
sindical
excur
advertir
traiga
recopilación
montevid
bando
levante
ofreciendo
recordó
valoración
union
influencias
almoh
##voz
but
notables
volverás
##mus
##arás
ignacio
atmos
diseños
constantes
ofensiva
premi
##fique
recogido
brillantes
martha
inconsciente
encontrarla
calmar
##fol
docente
##iás
químico
labores
katie
agustín
habitualmente
gafas
enterrar
describió
apár
##formas
saga
gravemente
##quesa
firmas
suelos
disminuir
presiones
sufriendo
cálculos
##cionario
reparar
hablaste
tristeza
hea
hop
satan
controversia
intentaré
extradición
setenta
holmes
##ionar
##vens
acontecimiento
##uco
claros
ori
acento
##ciera
aler
fresca
receta
monetario
comidas
##ivin
expresamente
##uo
##onte
adquirida
harold
dejemos
modernas
brujas
brinda
espectacular
tropicales
merecen
lois
##salo
pecul
lesbi
únicas
michelle
creencia
risa
##jadas
instruc
##ué
afirm
##sieur
##ditos
suponer
estupefa
conseguimos
nocturno
protagonizada
arturo
##ritos
arra
kenya
prosperidad
mallor
satisfecho
cintas
humanitarias
350
ellio
potable
vendrán
eterno
sacra
##sea
##hop
encuestas
lina
regulares
pidieron
lác
secundario
tembl
enfrentarse
rezar
gray
billete
fea
operan
tendrías
##lum
educativa
engaño
anar
turístico
periódicamente
adoro
##onada
##ors
polar
pinta
exitosa
estimación
jacques
sobrepas
examina
extremos
##quemos
rema
controlado
prud
afili
##nado
psicología
##mid
##more
conspiración
colaboradores
ribera
hombros
guitarrista
confirmación
monter
##ándoles
sabíamos
otorgado
hilo
infracción
universitarios
noción
ivoire
excelentes
págs
cator
joaquín
vigentes
##diciales
##dora
referentes
llevarla
diagnos
jubilación
102
asesin
quedarnos
atro
concejo
##ette
##els
deseaba
henri
antrop
exención
sometidos
arreba
integrados
afectada
aceptable
##erno
admisión
automática
coa
inneces
polé
repatri
erradic
hág
escand
jr
intentamos
galaxia
conviv
corporal
##estias
montevideo
complica
descansa
propaganda
##icultura
tarifas
enviados
actas
lici
artificiales
sueco
informan
hermosas
##urgo
bate
radar
mágico
##peta
marketing
podria
traes
vatic
molestar
desnuda
diaria
equivocas
herb
receptor
impunidad
alianzas
ofrecemos
dependencias
prácticos
##lah
##gulares
crónica
jugo
reveló
spi
delincuentes
vendiendo
violento
orejas
bei
ruptura
abby
##ículos
sumar
hidró
group
enlaces
##osamente
favorables
extrater
terminé
monsieur
medición
divertida
reitera
anderson
compleja
delgado
##quilib
piratas
descargar
considero
maripos
fs
pál
hala
catorce
##logos
hannah
duros
demostró
atentado
facilita
tranqu
obligó
guiar
gesto
dejaba
virtual
demasiados
irlandés
capturado
ln
vano
invent
escapa
prece
lógico
chur
objeción
arreglado
iran
crueles
ondas
tomada
cómoda
marcel
##animidad
permitiendo
inac
miserable
estuvieran
##abul
ensé
llevé
##hattan
math
baños
impone
##tipos
estuvieras
subió
fingir
##fens
tris
mostrando
##bon
rubia
recompens
##ánicas
arsen
invito
tomaste
edades
lavar
lavado
impug
comprometer
estupefacientes
asiático
adquirió
condenados
nó
molé
usaba
frág
chic
convencional
cív
traduci
choque
desglos
empiece
pediste
colorado
llevaría
sofistic
decida
bendiga
cenizas
externo
trozo
aborto
huella
interpretado
##urs
seleccionado
prole
acordó
frankie
miró
lidiar
##leos
reivin
clav
monopol
##ader
seda
bí
presupuestario
osci
alonso
archi
totales
caen
higiene
celoso
pega
imposición
operacional
montreal
ensay
bag
convin
peculiar
neur
beach
puri
justi
arizona
cordillera
encargó
automático
ceci
tomadas
rumor
dueños
mercen
liberales
aéreas
tob
sugerencias
menú
insin
traves
ecosistemas
columbia
atractiva
fianza
america
coloca
manhattan
matric
##ensible
tox
alejado
presupuestaria
librar
funcionará
introducido
sinté
fero
divulgación
demol
reconocen
set
sucia
##kis
nl
torne
##quias
papas
llenos
vince
##dom
periodismo
madru
mudó
barran
ausp
fábricas
##usieron
incluya
maternidad
##urado
compitió
devuél
hacerla
camarada
hernández
satur
graduación
insulares
sonre
escritas
squ
##tania
night
prós
##cente
atracción
asesinada
darfur
catalán
privilegio
##tens
corran
##cilla
relato
atrapados
gitan
patente
##mont
dog
poseer
absten
nazis
mada
vencido
ath
##zate
agrupa
lang
nido
polaco
##gam
miseria
estatus
tablas
home
regresado
##quíes
entretenimiento
autoriza
patatas
peña
sophie
##ink
degradación
mixto
xenofobia
nombrar
háb
parezco
satélites
##mend
##amelo
convirtieron
orgánico
ruiz
electo
##quel
temporales
sn
nací
cerró
matrícula
pulmones
##lanos
##rarse
ortodo
nativos
##ái
vlad
maquinaria
estupidez
esclavo
tranquilos
##dle
##tricos
especialidad
##arían
ocde
afirmar
pól
duradera
guau
calcula
copas
##urus
chilena
otorgar
quito
viz
lectores
empecemos
sentencias
chor
trac
##ratos
##fasis
##ridad
inconven
estimular
comparten
deterioro
##icis
músculos
lanzada
recorrer
personalidades
aprende
kid
harvard
syl
##ótica
dejarla
diplomática
inmortal
barón
##ato
hurac
mutua
urugua
pronun
nacidos
inteligentes
onudi
bit
emble
##trame
fundadores
aci
bam
algua
legitim
descendientes
contrató
scar
##feo
tapa
broo
alturas
republicano
##versidad
transnacional
sudeste
##pson
tiros
tul
duran
distribuir
##brica
alca
inyección
inauguración
afirmación
agarra
huracán
brev
mantu
énfasis
cualidades
conqu
##reza
raj
cep
sno
anillos
reafirma
##sau
ping
tienden
manifestó
sencillos
jeremy
juicios
acondicionado
canciller
explicaciones
##rest
pma
##gueme
trama
##ffy
mole
ejecutivos
##lid
querrás
##ciencia
##verg
##ganme
mmm
moch
hemor
laboratorios
barreras
grito
suda
litros
mérito
single
spor
ethan
agradecido
forestales
##laga
salía
portá
##ost
##ffe
lane
mineral
##gramas
janeiro
fans
mateo
opinas
minim
delim
empate
neil
reas
relatora
callejón
##reos
pescar
fitz
cib
vigilando
deficiencias
concedió
remuneración
##bida
dobles
oportuno
rotación
cs
centímetros
abrazo
recí
corresponda
enojada
fall
##timiento
righ
provocado
construcciones
fáciles
establecieron
##cionados
1919
públicamente
##thor
paren
inusual
corba
bondad
##tonia
##huana
##mil
apes
team
ellen
llamarte
mercurio
##iosas
orle
contribuyen
oms
orbi
carlo
##gicos
alam
ordenar
poderosos
vér
teddy
asegú
lazos
dren
necesitará
mero
##dale
##ige
cem
mois
##jaron
jugaba
pintores
##ítica
exilio
socialistas
bomberos
convirtiendo
sucesos
cristina
fiscalización
liberalización
recibirá
##cistas
lluvias
##rimos
belar
conté
##cionista
cría
adivin
campan
falsos
gané
case
franklin
escenarios
dejara
arca
olas
stanley
eficazmente
tranquilidad
##lazamiento
vertical
falsas
vaci
terribles
inclin
queen
##ecre
vence
##andés
coc
existencias
##tento
millon
egoísta
pirám
conectar
juguete
##iea
interlocutores
postal
cumpla
superado
quedes
putas
operador
calificación
desarrollan
##kers
héc
clásicos
gorda
under
montaje
ponerle
palm
diplomático
university
insecto
atacado
guantes
causando
suplementar
ocuparse
esperaré
contraste
myan
concier
busque
apoyó
previas
desple
perdedor
prostituta
ingredientes
foros
chen
##arren
mini
112
viera
adri
##mana
ingresar
milagros
103
##chus
beij
borrar
héctor
reside
mereces
amparo
recibida
niñera
plá
##meo
ermita
alquilar
cuente
alternativo
estran
submarino
eléctricos
##ibo
transferencias
facebook
randy
cilin
verific
unanimidad
transf
primordial
pacíficos
coral
prestan
empresariales
##onado
burgues
jaula
alimenta
##core
registrados
conmemor
tio
tub
##rente
##delo
raymond
1910
álvarez
hemis
eclesiás
patentes
constituido
registró
aris
graduó
susci
biodiversidad
titan
varía
enfrentamiento
billboard
humilde
detenerlo
jú
pintar
myanmar
jenni
costar
laure
célula
vinimos
mickey
advir
##traciones
pende
##util
##dicial
blake
##ilas
restricción
planeando
uniformes
##ells
centrado
mg
##tona
especific
realice
destacando
bale
impu
clin
laterales
berg
dennis
presupuestarias
duelo
congregación
temporalmente
usarlo
salch
seguirán
visitante
váyase
kon
beijing
ocurriendo
séptima
bóveda
kilo
norteamericano
incer
defecto
viaja
##mping
costó
alfred
tang
llamarlo
encubier
adaptar
reflejo
##urne
llevaban
mack
holanda
##comun
cristianismo
conducción
circunstancia
camas
invernadero
bé
inmue
señoritas
##set
uñas
fascinante
asentamiento
considerables
colinas
recuerdan
propi
alea
115
alp
situados
pensarlo
soviético
cordero
latinoamérica
condujo
unf
obstacul
##ori
consistente
urbanos
justificar
tuvieran
opuesto
epí
enséñ
##pto
##colmo
náp
alfredo
##gna
dados
indicación
##cible
eros
rebec
lucía
##uti
construyendo
caña
buscarlo
duras
##icero
piden
##rés
olimp
maj
basan
contingente
eura
subord
confundido
luchas
##tives
monumentos
céle
tratas
estocolmo
expuestos
enfrentó
##ata
águila
rights
rebelde
tóx
vick
eus
enterpris
simón
##viéramos
continuará
inflación
deseamos
deseen
interrup
trami
niñez
eritrea
haberla
cobra
kel
peleando
155
anunciado
pred
actitudes
ovejas
tiende
presenten
crá
ghana
protestas
marchó
caroline
geografía
suspender
carav
maric
brecha
ritual
convierten
adjudic
##game
almorzar
plataformas
robaron
notado
preparatoria
pregunte
potencias
insolv
tuvieras
lléven
instalar
académicos
over
lastim
cirujano
propici
expresiones
nápoles
discúlpame
permitiría
inunda
teatral
desequilib
##pate
mck
##penha
eternidad
##gaz
becas
##cés
exclusivo
comunicarse
##chan
ricky
aduanas
apostar
111
##ópteros
aficionados
meg
##ois
separadas
atmosf
envié
asturias
lema
gastar
prestigio
bizan
arbitraje
matas
tómalo
krishna
##éticamente
logo
159
intac
apaga
lenin
aliviar
parano
opina
ulterior
inacep
medianas
daremos
aldeas
cambie
chávez
pudiendo
trucos
rami
exponer
relevante
representada
videojuegos
brooklyn
directas
permitía
investiga
##bias
protegida
bares
tendríamos
##xima
##llo
sider
partidarios
aaron
conexos
##laje
voluntaria
recípro
convocatoria
##dure
obama
jour
mercancía
abundante
delantero
sustantivo
cubiertas
enro
genes
golpeado
1925
##eg
participen
casarte
cartu
artesan
##chu
campana
##grafos
rechazado
##itis
postre
bailando
##hy
dijimos
comerciantes
##ifi
fugi
vej
flecha
##rima
fastidi
kenny
noventa
francamente
arcos
marihuana
##issa
##eck
##tah
comprador
cortado
incendi
jennifer
equidad
habrías
kirk
automa
##ali
vigésimo
módulo
maur
dinosau
##ciona
éi
suyas
emborra
subprograma
sull
bloques
variación
quema
lector
medioambiental
aeropuertos
traigan
baje
tirado
vinculados
##enden
nava
francesas
##kas
reducida
málaga
##vase
simbol
pajar
aterrizar
convergencia
isaac
##eto
llegara
##kett
camerún
##nic
reglamentar
exitoso
lej
minoría
rápidos
uf
champa
elenco
huyendo
formalmente
cazador
comunicar
##alth
hallaz
preventiva
rita
sg
##letos
regula
rene
boh
madagas
reintegración
##caba
identifica
orillas
##omi
detes
ponerlo
háblame
fragmentos
prohíbe
##nu
##túan
multina
carna
mentales
cesar
brevemente
##rence
preocupados
jardin
rebecca
estudiado
##ody
citada
od
logan
proporcional
puentes
##ónicos
demor
donald
dirigirse
agrado
ayudaré
diamante
kay
extensa
##bab
demuestran
usamos
extraer
atreves
zor
##camos
manzanas
comentar
acomod
spring
ideales
quédese
acoso
recre
detiene
madagascar
lie
preso
atr
##pton
conste
##lot
##zer
tráeme
colecciones
colonos
##iese
decl
mafia
mantente
mataría
reflejan
##ísmo
alberga
doméstica
terminaron
patrocinadores
evitarlo
##colm
profundi
syste
prestig
douglas
catalina
##eis
oiea
apéndice
dadas
##enlo
##pone
carrie
##zzi
teleno
cargado
apoyando
volviste
otan
##tiner
involucrados
obrero
insiste
122
uzbe
índices
científicamente
extrac
desactiv
malcolm
vigila
biotecn
incertid
##aldo
reemplaz
aeronaves
master
bull
pear
burbu
tubos
vaticano
##dulos
alli
recibidas
participando
demasiadas
##person
infeliz
peg
cojones
llévame
rescatar
malvado
septentrional
##ilea
divin
expli
serena
yemen
torneos
prever
spencer
yea
jugada
reembolso
ejerce
construyeron
oculto
bajando
##varo
mitchell
bond
despreci
dú
silva
hechizo
descubrí
praga
andes
viniera
despro
maquilla
sánd
avanzando
##ionalmente
collins
intelectuales
association
todd
state
leones
##rita
presun
sentados
intercon
220
oreja
ble
preparatorio
##sch
horizonte
oxford
risas
graham
##nett
embal
cráter
valiosa
payaso
lucro
variar
119
ilim
kazaj
complace
nba
##atson
visu
extermin
calientes
andrea
monterrey
christopher
evo
numero
policiales
reconozco
123
##emi
desventa
ejecutado
##oa
gano
acan
adaptarse
especu
##sin
regen
elevados
combustibles
calam
responda
peruano
##bina
magdal
##icht
volante
llegaremos
resultan
simpson
##éndolo
decisivo
cubiertos
vulgar
reinos
refuerzo
típica
pretendía
indias
carece
##pad
1900
mínimas
proveer
protagonistas
fusion
sumerg
recuerden
desfile
##nación
cortas
alimenticios
##hoa
mostraré
instancias
males
privilegios
ralph
lake
colectivos
arreglarlo
griff
vagab
cartag
rincón
épocas
empiezo
desconec
chas
goma
napoleón
kle
depre
serías
##osó
biología
logramos
lamb
##ceno
lt
quinn
dies
colabora
venden
novedades
best
harían
guerril
##cc
anexos
capturar
##ármelo
perfección
##éndote
coco
##ciosos
pagaré
intercambiar
rega
tuyos
valenciana
legítimo
credibilidad
incapacidad
hart
educativas
open
cubano
hr
nutrición
benedic
subtítulos
itiner
aparecieron
##óf
murphy
mona
herir
oraciones
contenía
balón
capu
hábitos
ofender
decenas
existían
ultramar
vasos
jodida
espontán
atravesar
actúan
admite
##pm
detallado
##gicas
lavan
say
mansión
##ensis
juegan
escondi
américas
marion
gradualmente
##cing
vacas
lata
ein
murci
mare
descuento
cata
misterioso
casey
porquería
indemn
ris
antí
pierdes
agujeros
barras
deseado
##jamos
obtu
senta
terraza
docentes
fec
obispos
animación
##deras
esteban
##icks
ansiedad
adelantado
##decir
gur
perímetro
sabrás
atacaron
marcador
soltero
ohio
unfpa
##finan
generoso
ní
##modo
salidas
##ruz
##blado
bromas
comentó
##itter
##itivo
motivación
tango
rodea
##citamente
##énez
dais
culpables
láser
apropiados
ratificado
presum
relevan
prema
vuela
rodilla
partidas
ie
turner
cun
norteamérica
subiendo
cafetería
asistentes
1922
##rell
1923
justamente
consuelo
armamento
filial
dotación
letonia
foot
impa
campeonatos
fallar
literaria
dejame
potente
oler
fantástica
castle
horizontal
aduanero
lava
concern
ayúdenme
tensiones
supera
manchas
ballet
derivadas
##atch
sugerencia
válv
euratom
fav
astro
buro
devolución
inaugurado
controversias
##banos
ordena
enfermería
contribuyó
##sburgo
agradecería
canje
escudos
obligada
##ecieron
document
massa
frases
##ding
##erado
##amanca
desconocida
pescadores
transe
exhibición
cese
mecánico
sumas
ayudaría
incorpora
dimos
abogada
videojuego
jubil
##ady
##illie
kyoto
bilateral
consultor
tromp
ceremon
equipamiento
##orien
completado
bart
félix
gilipollas
importaba
copenha
colocado
1912
##aderas
##mania
get
proyección
##tega
girar
hacernos
light
keith
alucin
variante
##brar
hembra
erig
revelar
##tión
profeta
comparar
monos
pierden
moviendo
##bao
habituales
moisés
##úd
engan
##ness
masacre
maquillaje
aportan
pedirte
guti
acompaña
derrotó
emil
non
##trate
glas
provisionales
asociadas
inspirado
ganamos
obedecer
indo
comparado
produjeron
académica
alfombra
suicidar
hierbas
insolvencia
##estes
153
conociste
establezca
##tein
nes
more
haciéndolo
concluye
acostu
vanguardia
develo
inadecu
fabuloso
pó
dubl
sigamos
anunciar
trajeron
colin
##vación
cala
##culación
promé
prometida
hábil
##idado
recaudación
alguacil
##carse
transferir
desesti
anotó
montaños
áto
aportaciones
utilice
tern
preste
tomarse
france
galicia
instalado
enviaré
instantán
brun
rifle
accesorios
paralel
reverendo
ora
miraba
formaron
##onato
dominar
novedad
belarús
nomen
pedidos
dedicados
físicamente
vís
pregúntale
ach
kor
fair
rollo
nate
ciclos
desear
212
instinto
pida
difici
concierne
bruno
sentarme
##lav
excmo
trasladado
tomes
gestionar
durar
asciende
homicidios
vulnerable
grey
proporcionado
##trio
preferencia
khan
##kel
orina
estudia
controlada
cercanas
finaliz
acompañada
152
##tella
transportar
delegado
encomend
ganadores
##gil
operativos
renacimiento
apocal
infecciones
margarita
oliva
celos
##izarse
##viér
salve
craig
hueco
live
trián
tiroteo
##oya
maletas
otorgó
asesores
##xt
rivera
botellas
##bación
##lamente
mensual
colap
banca
rebotes
conduciendo
receptores
##ambique
sequía
recibimos
cádiz
gratitud
coar
zu
agrada
producidos
seguiremos
convocado
amarilla
deportivos
supermer
restablecer
circuitos
sier
muestre
locu
enz
deciden
##uctu
inundaciones
aguja
trámi
amplios
##ont
maz
fibra
bolívar
territoriales
financiamiento
##eau
despi
sentim
kla
nec
escasos
orto
incó
dedicación
orientales
pilares
encargaré
huyó
recta
reemplazo
celebraron
bridge
ponía
enterado
caramba
##tían
espirituales
consiguieron
estipul
##órro
##inois
apetece
representados
##gne
conlle
zimbab
##daste
adopta
##familia
vallado
sacarlo
##hetes
retener
diseñada
desemple
usas
divir
yar
objeciones
saqué
árbi
angela
criado
shane
salom
encerrar
confundir
##kie
pandilla
escapado
discíp
armadura
estaríamos
discusiones
arrastrar
##bula
obser
prórro
corren
dirigen
##critos
suprim
supuso
##lora
imprescin
dallas
describen
##back
semilla
andré
dod
rugby
susur
violentos
relajar
augusto
contempla
##estión
precur
cazadores
acumulación
dándole
escritora
sírvanse
giovan
evidencias
presidenciales
##cs
bromeas
inauguró
médicas
exigen
##hard
mongolia
utilic
colaboró
directorio
poses
renunció
tratamos
vería
gota
kurt
##gins
sensores
ned
venimos
desmovil
dividida
afecto
enterprise
hud
prete
dividir
brindis
child
registra
psicó
incorporó
encontrarán
prometiste
##sol
colón
legislatura
consiguiendo
mares
##pic
emplear
entramos
jesu
##ingos
ligas
memorias
arrep
varón
subesti
see
relevancia
elija
llamen
gallina
ocurren
desencad
entendemos
epidemia
##bb
121
campamentos
conservador
asesinó
soltar
preferencias
##vados
envejecimiento
psíqu
##atía
cúpula
kansas
pesa
embos
ábre
díselo
tenor
amn
merced
##quiá
teme
céspe
atraviesa
condesa
amber
asunción
increíblemente
preve
regresaré
fallecimiento
caracteres
enumer
océanos
bancaria
anorm
claves
##kina
guadala
reservado
brea
chrys
raúl
estuviese
incómodo
lejano
fallos
vecina
nobleza
piénsalo
encendido
homo
protegidas
lleguemos
sina
combates
reflejar
plana
apoyan
contemporáneo
discípulos
louise
reconstruir
civilizaciones
##gui
ejerció
estatutos
1921
interrogar
##pulo
autorizados
##ullo
significaba
soltera
metál
##ueva
##ólica
##eroso
enfri
legítima
intentaron
##gulos
stalin
niebla
hoyo
cabra
ponemos
comprobado
repertorio
##tten
reclutamiento
sobrevivientes
encontremos
##cencia
deses
acababa
invitada
temática
aportación
afortunadamente
ooh
transmite
bm
##quin
denomin
##cuerdo
faro
illinois
##sul
indicaciones
bodega
aerolín
destruida
peo
blanqueo
resultantes
proseguir
vill
asume
acús
empeño
ganaron
##zcas
elimin
acorde
reviv
##ibia
erradicar
renovables
unam
conquistar
anul
seattle
##pod
sensibles
aprovechando
##ert
##iéramos
cerrados
convocar
molestia
harrison
consiga
sergio
pornografía
reich
aterror
delf
##idi
vegetal
vídeos
julian
distur
incentivos
revelación
radiac
guadalajara
factura
##émonos
brillo
separar
advers
levantado
magistrado
contestó
combinado
repugn
holan
estúpidos
mariano
maldad
marinas
regresen
inhumanos
##entadas
tuberculos
##rick
aval
##tez
mágica
reza
abrevi
serios
ecuación
preparó
neerlan
chantaje
plate
dato
alá
compartido
echó
acudir
##ñor
##raciones
claude
actualiz
declarada
actualizar
aseguró
##ámicas
aluminio
113
enviando
fíjate
sheldon
##logías
seguiré
##cracia
punk
emilio
suprimir
asignados
relevantes
ceder
cuevas
conservan
deud
##see
compac
llevaremos
estratégicas
frodo
esconde
filosó
##odoro
copenhague
míralo
acabaron
impuestas
cortó
tiran
estir
##sy
pd
libera
sólidos
honorable
salamanca
incorporado
rabia
rancho
gusano
##ticio
energético
##idente
sucederá
micros
vocación
ataca
society
tecnológicos
blues
guardián
estereo
ahorros
demócrata
porción
organizados
fósiles
##pico
aliado
tronco
institutos
sostenido
conseguirlo
cuantía
reemplazado
##ceros
meto
seth
fort
mozambique
equitativa
dependiente
reconocidas
encontrados
conseguiré
aparente
recar
delicado
##ollo
pagando
##cenas
licor
admira
bautista
signa
soberano
pudiéramos
complementarias
vientre
llegaba
termino
cohete
accesible
intensificar
pt
##onna
##medios
repercusión
##ede
##éricos
##dros
mcc
diagnostic
bbc
##fís
estadísticos
beat
rud
permisos
desempeñan
queden
traducir
blog
atentados
triunf
satanás
##hab
transacción
pesquera
oscuras
filadel
complejas
evacuación
promueve
clasificado
murcia
travis
autorizada
hacías
##parte
ríg
ramos
grita
##cá
lograrlo
históricas
abrum
predeces
transformar
seguí
##campe
zur
topo
cancelar
enseñado
151
favoritos
quédense
##jala
estallar
terminará
acreedores
##riéndose
imaginé
##abuena
cameron
psiquiatra
esque
##tienes
develop
abundancia
recuperado
levantamiento
##su
indicador
dámelo
siren
planteamiento
cometió
provid
##bón
contaminantes
barney
esplén
combatientes
burro
donación
edgar
pasados
solicitantes
emin
ayudo
baker
ordinarios
enfadada
antepas
resurrección
prus
yang
aprendió
##quial
afer
precedente
sobrina
christine
miente
asistieron
gentil
manipulación
##éndum
produciendo
##celo
desvan
historiadores
##ifique
##ika
spider
valles
##riosa
tarta
gatillo
omar
##cones
auda
cotidiana
freder
quedaría
baterías
desarrollada
puntuación
rodrigo
donaciones
plumas
fotógrafo
comprenden
intén
paisajes
disolución
lloyd
##dú
asociada
valladolid
conduci
moore
resultante
sostenibles
orleans
monro
infantiles
atacan
miré
bú
vergon
referéndum
hembras
queria
actualizada
parlamentaria
ecuator
besar
situadas
alcanzando
estrib
fracción
firmes
##pero
sofía
pierda
ajustar
superman
tiburón
anch
unen
archipié
golpea
prestó
interfaz
corbata
tocas
controver
trastornos
repite
hadas
##finales
mier
conocerla
##zie
étnicas
dilu
prohibir
votantes
anuncia
marta
soñando
##ogén
vengar
vivas
consis
subrayó
cercanías
filadelfia
arrib
robando
destruyó
genérico
garantizado
hale
dejad
estratégicos
parecían
cuna
##anca
end
##aden
lam
reciba
pesados
mariscal
económicamente
ut
dri
qatar
mediana
##itch
concienci
estableciendo
apel
feste
cong
cubo
##talos
glad
enviada
mick
ministra
##formes
expulsado
pague
suscep
cortesía
##tíbulo
contraseña
pases
##vial
##eñas
sanitarios
bent
subsidiar
intermedio
cumbres
audición
conjuntas
británicas
disculparme
corrió
johannes
oscuros
nasa
raros
surgido
protegidos
exclam
comunión
defectos
contaré
mortales
permanecen
##iden
corredores
externas
##mín
##box
sueldos
hábito
desertificación
apple
acostumbrado
tn
shock
reunieron
neto
yeah
descol
fiduciario
matarla
urgentes
directivo
celesti
autónomos
gradual
##icto
entrenar
intri
algor
kre
rubio
toby
cometa
arrepentir
lentes
beneficiarse
##fice
dúo
genu
calef
sabo
extens
troy
lagunas
##bit
motel
movi
digna
place
botones
rechaza
forzado
patético
creído
avanza
alfabetización
##ganlo
elliot
subcon
semifinales
##allace
servidores
resultaron
mandado
anulación
seguían
venus
##árma
antic
dificil
robots
drog
##ómica
complicaciones
cuadrado
rober
ínte
comunas
vomitar
dejaremos
##hid
tenerte
martillo
court
formuló
mantenerlo
hallo
gian
bilbao
forzar
parás
eche
sic
mostrarte
cristó
separada
insignific
ído
odias
##tomía
consistía
psiquiá
hallan
##genos
bank
str
romero
celebrando
causados
tuberculosis
extras
gráficos
juveniles
consideradas
inversores
##abar
##banas
constantino
derivado
rand
guarn
dexter
country
concén
elevar
primarias
elo
asegurado
cosm
octava
hídr
hermosos
antio
reúnen
convicción
desech
otto
presentando
calefacción
leonardo
suble
puebla
recto
portero
##nel
dee
póngase
fara
hidrógeno
bonitas
cabil
navegar
disuel
expresaron
cv
fijan
burgos
inciso
hubiéramos
suministrar
medicinas
vitales
horribles
uzbekistán
ascender
interfer
moon
destacada
disfraz
pica
mintió
aduanera
sabremos
evitando
evita
deportivas
##ñada
necesites
atlanta
##ienses
formulado
averiguarlo
##etti
conducido
envíe
roble
1913
étnico
##icante
chase
enhor
debatir
cim
partió
##guer
pay
cayeron
opos
##onales
daban
ensalada
leste
diseñar
encontrarme
pudiese
##ija
##ámb
trascend
##hrer
cebol
fotograf
vinculado
supers
cumplió
earl
pent
quemado
subcampe
##ñones
terminan
iraquí
medina
##iev
sou
jedi
zambia
revesti
inestabilidad
##hon
##odes
##mburgo
anima
sillas
introduc
cumpliendo
lagar
mixta
teología
poseía
##dif
tarifa
##írez
##cesión
##tenstein
biológicas
##érrez
mínimos
empac
shh
santan
##endan
barre
comience
lara
necesitaré
cohetes
##hue
kane
corteza
##ital
invier
palmer
dorada
epi
enhorabuena
inclinación
desesperado
uk
antis
##ivan
file
press
##ífero
namibia
filme
diccionario
contemporánea
adams
apostó
##crá
plural
herr
hospe
ré
run
sacarte
debi
fuegos
sydney
movilizar
bárbara
##jante
beau
decidimos
segmento
quirúr
viabilidad
enmar
##ionados
limpias
originario
significativos
gripe
ernesto
juana
ferroviaria
auten
amsterdam
silver
bigo
dormida
ramírez
cross
##cey
crecen
##lov
##canos
##entador
redujo
salgas
llevara
superficies
cambiará
bernardo
##anista
completos
desigualdad
quitó
entenderlo
girl
contenidas
hockey
olvídate
persigue
ias
africa
doloroso
solid
1911
apliquen
thompson
desmay
textil
contrabando
##legi
definiciones
thea
componen
##ect
definen
mediación
comprendes
impresionado
gutiérrez
abandona
tipi
##árqu
secos
aporta
arrestar
cristóbal
expedientes
ropas
##fs
preocupan
pasear
plantean
##ormemente
##ecidas
subsidios
comes
jill
##plan
##trall
trazado
portavoz
prince
conser
madrugada
sustituido
revolucionaria
progresiva
mías
baratos
sicilia
perse
aparcamiento
trastorno
##tat
aspi
##rosoft
maniobra
##onto
ferrocarriles
turística
pierdas
saluda
liquidación
avanzados
135
##fricana
##dimientos
cambiaron
##tricas
alemanas
##rete
contenedores
malditas
##tuosa
nevada
sexos
cuánta
sell
##thers
inma
afirman
##áceas
interrupción
band
ates
trataron
##cir
paras
barbara
santidad
yos
tracy
##peras
delantera
degradantes
superficial
prado
micrófono
cooperativas
examine
celebran
prórroga
amada
agotado
viet
##endy
atribuye
temía
pavo
danés
probarlo
volverán
estacion
diane
originaria
endo
gard
hara
subur
cartagena
descal
reafirmando
urss
##pica
##inosa
##lamos
##calo
potter
justifica
nomencla
shang
gozar
reed
##dorf
##teur
lil
bacterias
zapato
sobrevivió
gemelos
tumbas
terminada
##cies
calibre
oírme
1915
concentraciones
hamil
game
compensar
##ilvania
maneja
tropez
endémica
tómate
##rist
preferido
have
innovadoras
pirata
ideología
bibliotecas
contarle
##árs
giras
##ellos
pig
extraterrestres
desaparecidos
##ond
trofeo
voluntariamente
germán
gole
aplicada
##zquez
provecho
##izante
desperté
romántica
bt
1905
##támenes
guan
censura
malí
inocencia
##tieran
archiv
old
##cipes
finca
zoe
detro
estrenada
pariente
merezco
enseñaré
doro
aceptada
##hima
caiga
inventar
133
pand
autónomo
íntegra
clinton
acabará
pim
sustancial
disputar
finn
contraria
buce
benjamin
matanza
intérprete
alcanzados
ganadora
inminente
##ppy
envas
andro
llamaban
ayudarlos
distribuye
ganadería
continuaron
instru
replic
##crita
aplique
motocic
comodidad
##onización
sinte
suspend
variantes
cualita
##zara
beta
himno
llevados
129
##shire
redi
preliminares
centroamérica
consonancia
iván
intimidad
##bach
##ln
##ciado
padrino
##ades
gustavo
colegios
archipiélago
##bados
##pedia
embri
pelos
nora
##ésemos
##quillo
matarán
pape
grea
cruzado
##asen
món
serias
vargas
##nship
##him
noci
vendr
necesit
hicieras
detectives
estricto
editado
##fre
representó
sharon
##ílica
nicole
##igón
dum
viable
muertas
sentarte
ametrall
seleccionados
shep
gallo
magdalena
##vida
kings
pale
algorit
##dillas
elevación
cosech
guías
curtis
hemisfer
abren
journal
inco
calentamiento
##uga
geme
muéstrame
quit
presupuestarios
determinó
iniciaron
escor
##cripciones
amigu
debieron
##quila
filo
ampliado
encuén
sinies
césped
causada
étnicos
normativas
hare
vod
repi
aprendiendo
acostumb
armamentos
##pura
##tube
transi
alér
revi
minus
visiones
gustará
prepárense
##tariado
enfrentamientos
detu
##hai
financiado
tiró
detroit
sendero
audrey
limitados
ela
abras
ati
lamentar
##omal
sonríe
subregionales
bajó
dirigente
monarquía
lion
planea
bené
excesivo
sintiendo
##acas
bav
reins
frontal
##ush
##200
##tier
tatuaje
ocupando
representando
amables
rastrear
##say
murcié
##quillas
bombardeo
nocturna
extendió
orgullosos
compatibles
terminando
##iriendo
kos
fallas
tutor
literario
presten
diente
eléctricas
##érida
raya
sandy
navegador
##ividad
esperma
escogido
inaceptable
prepárate
comprometida
drás
perry
hunter
sirio
asegúrese
arruinado
mensajero
##astas
minería
húmedo
costera
insistió
austin
mascota
rou
tripul
proteína
pierdo
coartada
decisiva
venció
pechos
helicópteros
excesiva
alias
decid
ordenadores
sill
faso
definida
llenas
ae
##osidad
##rául
moh
carecen
reactor
roth
atleta
injusto
##ust
rivales
solían
colocación
desaparecida
checos
lud
ciudadana
esla
heav
maravillas
ecl
estandar
gastron
##rina
prototipo
nene
bailarina
microsoft
fina
ordenamiento
supiste
compensa
peste
destitu
inadmis
cortés
interrogatorio
enmend
etiquetas
licenciado
constancia
burkina
ladrillo
complicada
remode
##fort
mármol
uran
llegaría
##umi
##iras
tinta
furgon
informal
stuart
##tag
prometer
chif
honesta
dila
abrazar
kol
huésped
##arto
##ampar
##tula
justificación
fárma
mostraron
cairo
massachus
unán
enteré
centavo
ques
##ciplin
anticu
commun
##versión
cua
revisa
entregas
instaló
trampas
alis
##ológicamente
incertidumbre
metí
frie
ring
creyendo
##stán
empleada
inher
ponlo
shakes
##yug
saj
traen
lep
plantear
rodeada
##cico
nairo
recrea
##tish
averig
dana
cajón
presentara
expedi
##idea
desal
prohibida
tranquilí
estamp
atrae
verduras
madu
estabilización
paraca
docenas
##tarnos
vacuna
aplicará
conforman
rá
gom
precar
##ísimos
##fl
free
##ova
apri
disminuye
hicieran
discográfica
cruza
dg
creatividad
concesiones
ashley
propuestos
táctica
escultor
parlamentarios
aporte
antena
capitalismo
realistas
deshacerse
hein
kilómetro
md
saludo
indicios
suelto
polla
semejantes
notablemente
hamilton
usaron
iraquíes
prisiones
enciende
robaste
sentimental
frescos
bata
alboro
estaf
venían
apruebe
monarca
furioso
suizo
asignar
sectoriales
##tiremos
interpretada
despertó
solares
luchador
necesitaremos
volvía
colapso
blair
pedía
proposición
santander
boleto
hidrául
lámpara
arts
extendido
sanción
like
olvidaste
abiertamente
persuad
bauer
inven
##éndez
holandés
mueven
arc
inmensa
adoptando
duke
complemento
alz
sorprendió
porto
avís
adrian
soca
ró
oírlo
##cinco
madri
cerradas
generador
toros
expone
versos
diabetes
audiovisual
estres
frágil
##caras
domingos
comisionada
incau
asocia
##séis
descubrieron
nombrada
##kee
recomendado
prehis
virrey
membran
rex
apodo
sangrando
solicite
cemento
liech
acercó
masculina
syn
ozono
mamíferos
nairobi
apelaciones
elefante
sincera
##titas
pulgadas
encontrarte
infracciones
##zzo
tratarse
cesación
mys
bonos
inquietud
siem
soviéticos
fide
misil
indul
dedicadas
plasma
bishop
huérfanos
realizará
luchó
válido
bee
extrañar
aroma
kazajstán
lanzaron
productora
gentes
establecerse
legislativos
acoger
##nab
especializadas
sirva
cálido
eun
##bada
sígueme
dieciséis
portugues
desencaden
alla
barri
hidal
perif
corral
referido
vestida
cuantita
creden
auxiliares
##zaste
sacrificios
astrona
rené
detenga
ez
mendi
sacaron
varían
dominic
excepcionales
##gáis
enojar
ilícitos
##erato
arrojar
indiana
desarrolladas
##drich
fabricar
estipula
antici
clam
respaldar
resulte
desalo
asombros
911
clon
##iger
clasificados
##igma
alejarse
testimonios
convierta
liechtenstein
biz
##cultural
empujar
youtube
secuestr
masaje
verbal
sobra
significar
##nik
disminuido
cuidando
lú
bastardos
maci
increíbles
timo
constituyó
saludar
cás
malet
piensen
activistas
shakespe
sugieren
perdóneme
##head
##dadores
cervezas
##venir
church
saliste
aprovechamiento
mantendrá
estricta
chang
fundar
conectados
ocurrirá
prefieres
##eléctr
serpientes
relatos
vagina
yugoslava
##entu
##jense
##ómico
champion
diseñados
inseguridad
omi
constituida
disparando
remitir
subsecre
talib
respeta
camarero
arquitectos
nobel
confías
##enios
##quicia
templos
norteamericana
soto
quisieras
patrio
vacantes
mercantil
##ggy
argentinos
##ámicos
##titos
influir
crist
kun
afluente
palom
mentiste
cáte
sostén
consigna
limón
tortuga
##vila
surf
##ciosas
pascua
##cht
riley
##hol
obtuvieron
abi
empieces
agregó
contár
remoto
triángulo
ambición
132
granos
sujé
proporcionó
apur
hablarme
infinito
filósofo
matrimonios
##péu
entertain
varso
anterioridad
engañado
gy
estero
pequeñ
concedida
elevadas
llora
##itt
cogió
apod
hallado
recup
perfume
##vora
violín
históricamente
maletín
disfrutando
##amas
desprende
##mosle
ciega
##emora
estética
propiamente
complementaria
janet
oportuna
contrarres
harina
generado
macroeconóm
condes
##ave
football
acompañar
##tele
trabajé
bastantes
enseñarte
implementar
fino
gel
subsidio
apresur
telesco
crane
pistolas
democráticas
argument
meso
aguarda
gobernación
london
restaurar
dramático
fati
todavia
legitimidad
secuestrado
indign
villar
##etts
retira
dirigía
quitado
averg
odiaba
centrarse
ortega
giovanni
##amen
tamb
auditores
marcada
shir
progresivamente
rodar
##ega
brandon
geográfico
esbo
tomaremos
nomenclatura
comprometidos
development
rú
incomple
##mea
##inetes
silvestre
##veme
lápiz
entrará
balcón
volverse
competidores
poetas
fire
sedi
fruc
##ione
devor
deseando
ivan
salvaste
demandar
previsión
bande
adolescencia
pren
##estern
llores
alega
devoción
robinson
agregado
desempeñado
##foro
mulder
jules
confesar
imprescindible
abstrac
decírmelo
rodaje
incul
desesperación
##anna
##trato
lunar
aspiraciones
claudio
legisl
entendiste
##essa
sammy
adulta
chimen
indefin
sugerir
sentirme
formaciones
##ásico
pondría
varsovia
soo
apariciones
comenzará
franquicia
obtienen
promoviendo
champán
imaginas
creyentes
turcos
drogadic
perfiles
colombiana
furia
##idable
enano
aceptan
cicatriz
yi
oficios
llevarán
merecía
maurice
búl
polis
escuchan
jose
kang
april
definidos
reparaciones
calderón
leyendas
##lina
contag
protegerte
contentos
episco
chimenea
shakespeare
túneles
dragones
##europe
concilio
emiratos
localiza
nazar
carnaval
salvaguardias
fallado
magnífica
puestas
##iler
encontrada
contenedor
ríe
amen
##nell
##icular
proporcionada
enloque
usd
eval
célebre
kitty
vigencia
##balo
##nudh
zh
##ange
suécia
##ecor
bajen
cariños
ejes
bonnie
organizadas
pedag
nór
quiebra
responden
salar
aburrida
##ónimos
sanitario
lotería
hod
protegiendo
paralelamente
programado
patrul
mónica
hemisferio
provisiones
madison
periódicas
pagará
memorando
periodos
cambridge
esmer
##ticismo
asteroide
jiménez
##nol
conciliación
utilizaron
entertainment
bat
##iat
permitieron
celulares
solista
olvidaré
matemática
massachusetts
##lard
##tórica
doler
subasta
farmacia
##mados
##zones
faltaba
##acen
salomón
combinada
3199
muralla
##endor
sumo
muchachas
001
##ometría
leslie
carnes
psicológica
##namente
toronto
desplazadas
##oods
reconsider
profundos
subje
calce
novena
lecho
introduce
stefan
pediré
parlamentario
estupenda
comió
revelado
consiguen
alaska
vinculadas
delincuente
##ecti
##bidos
costeras
fmi
sl
anomal
catalog
chand
##itaciones
insistir
cén
compartimos
meterse
##piter
##dri
fracasado
buscó
megan
til
preguntan
ascendió
diviér
espadas
reclamar
esculturas
sientan
cancha
combinar
logrados
##als
##zaban
luisa
requerido
informativa
##toras
avisar
surgen
atrapada
competiciones
sacando
jornadas
mantenía
etiquetado
contenida
bebido
##tándome
firmaron
desayunar
tablero
callado
partiendo
efectuado
orgánicos
##idan
perpetua
##dromo
##tasis
correa
esquí
pilas
##anie
tributo
##ipsis
escaso
entenderá
bailey
freddy
filmar
consigues
herrera
turk
resbal
buscaré
aislado
orientado
##burn
ós
materi
##timamente
demócratas
alza
sna
##inten
estrell
rodean
bolsillos
acnudh
imprevis
provocando
##estra
##rería
integró
yuca
diplomáticas
valientes
contarte
eru
adjud
islámico
frecuencias
hacha
dedicarse
emocionado
designar
##inc
proximidad
duncan
formaba
abriendo
cooperativa
pasaste
seguras
festivales
daisy
##rían
astill
equivoca
acusa
construye
necesitaban
##edi
privilegi
caudal
vestíbulo
institute
recordado
brasileña
##tation
neumáticos
busquen
caute
pensabas
mallorca
orientada
##came
republicanos
braz
comenzamos
persiguiendo
reab
exactitud
quizas
##nó
sensor
discapacitados
clev
arreci
centre
yun
pegado
automovil
homosexual
señalan
buf
##valos
unieron
absorción
cuadra
concuer
subo
bárbar
normalidad
maas
##blica
##tizada
llévate
graciosa
incluían
stevens
implantación
curr
sopl
mochila
abon
dirán
##bete
pertenecer
conveniencia
colocó
cualesquiera
boletos
buscarte
sudo
##py
ignorar
folk
insinu
acompañados
harper
dirías
monjes
##rico
acercamiento
élite
radicales
socialismo
distancias
provinciales
representaba
##ársela
jet
masivo
acogió
alcanzan
supervisor
destruye
##bard
compatibilidad
ofren
gibral
aceptadas
gane
lauren
localizada
espes
campbell
contemplar
abro
coincid
enjuiciamiento
entras
quedara
pausa
##lova
revisada
consideren
plaga
celebrados
reproducir
advierto
viajando
hé
soñar
cometidas
sucesivo
transbor
ea
helena
revital
mastur
arnold
sospechas
##lac
siguiera
discutiendo
dream
veterinario
dead
modales
perdemos
decepcionado
vodka
reducciones
venezolano
molde
hacerles
aplicadas
autopsia
##izaron
jabón
queens
basílica
levantarse
mantuvieron
##depend
doncel
respondido
sang
directivos
efectividad
##ragia
apetito
natalie
delicada
escolta
remonta
##gur
hortal
##ipo
dimin
aristó
##tigu
##ibal
escribo
ardiente
antibió
biotecnología
gregorio
alcantar
mitigación
muñecas
##ocho
jeffer
fiable
aclam
álvaro
completó
ocasionalmente
gonzalo
catástrofe
incorrecto
##sel
ciclista
doméstico
abandonada
tranquilízate
##ery
boom
##tenlo
chap
redo
unificación
convertiría
permanentemente
cleveland
involucrar
cós
##icismo
ecológica
hamburgo
ascendencia
cruzando
schmid
líquidos
cristales
visitado
##cela
accionistas
kom
degen
perdonar
##días
transferido
adquiere
inval
exigencia
manifestado
narices
proveniente
iron
got
ronnie
##enstein
ate
subespe
dictámenes
participante
averi
ael
agrupaciones
conductores
##doso
compre
sufragar
practica
gobernar
##ved
dong
##thing
1909
utilicen
ou
##geo
131
andor
sonda
concejal
alpes
creativo
norteamericanos
1500
trem
adorn
sostuvo
##etta
gibraltar
atendiendo
##kota
bid
lujos
cofr
encaja
preguntes
meti
benny
guz
núcleos
espir
abarcar
##enix
volviera
horarios
stock
desgar
frescas
##cruz
lus
corporation
##tecar
novato
hemorragia
##taro
mitología
sál
simpa
isid
acepte
larg
amnistía
marines
insuficiencia
zen
prefi
gram
riquezas
vocalista
querrías
rp
dobl
autorizar
actualizado
desmovilización
escaños
sigas
abel
quimio
buscarla
llevadas
diariamente
franz
fech
trian
llamarse
vaquero
coinciden
empiezas
##real
cuestionario
supervivientes
boxeo
financiados
embarca
saldremos
decirse
audiencias
romeo
##tore
##dumping
paneles
gimnasia
procesión
muchísimas
guár
##ometraje
municipalidad
##mio
##izantes
aprecia
predi
tocaba
cómplice
prosigu
productivo
publicaron
supieras
##dillo
mass
bienal
previsiones
módulos
preservación
##iya
decías
ocio
privación
##pool
vik
inestable
robos
##rona
##cimos
song
osos
claudia
entablar
disciplinas
allison
asteroides
suceso
gobernante
jodan
verti
sáquen
enormemente
furgoneta
palos
composiciones
##cat
abejas
innovadores
##quio
propagación
orques
pobladores
amistoso
##fete
primario
ducado
leve
cruzada
monroe
administradores
atado
##iko
acuerda
contraer
vs
mandí
adyac
ads
vue
subido
subrayar
valentín
##érselo
pór
disturbios
hunt
pides
carpin
tiras
mayormente
##trá
domésticos
conocieron
##odo
electroma
puñado
distribuido
mentido
espías
escocés
moleste
reli
terapéu
múltiple
melodía
##mundo
linea
moléculas
innovaciones
##jita
##ensas
maestría
desan
llamaría
existido
predominante
pulgar
garden
indepen
ciclismo
burguesía
gps
##iki
superh
noel
carteles
monje
historie
ejecuciones
radios
cera
explotaciones
recibidos
finalización
desconocidos
dramática
cangre
encuentres
inténtalo
##cillos
imped
fidelidad
antidumping
sabrán
sinerg
linterna
problemática
presentimiento
prué
##oman
toalla
escucharme
determinan
mercenarios
apocalipsis
telenovela
escrituras
legalidad
repas
arsenal
cónsul
##lones
significan
tácticas
púr
##ducido
calentar
extensiones
linux
##ésame
recuperó
pip
dimi
manta
biológicos
escriba
marea
designados
simili
retar
caes
mosca
equipado
icono
##mod
contrajo
dañar
katherine
informativo
##iness
hills
rocky
eve
migratorios
construidos
evans
letr
vacun
marica
equivoqué
ubicados
cid
sucur
compartida
artefactos
cápsula
funer
guardan
bañera
##riya
emite
##fato
envían
residuales
terape
guadalu
vestuario
mineros
tirador
caí
instó
reduciendo
neal
bona
opone
pagas
munición
supuestos
explicarlo
obrera
consulte
comí
tomate
tercios
breves
contaste
##uru
extingu
eleva
sueca
bebo
revolu
diseñador
dañado
besos
##dova
pesadillas
cubana
jerarquía
mezclar
det
suicida
harta
inspira
##kín
previos
decad
##erio
referir
terminación
gina
##alas
sebastian
siéntense
mentí
cubanos
mera
danos
torturas
enteramente
##had
esperabas
sobrevivido
dejarán
mientes
impactos
fundamentos
##zanía
normalización
zorro
libra
embarazadas
ataúd
estras
mún
patada
ascendido
carros
boys
grueso
venas
publicadas
déje
ayuden
mostrarle
zamora
milicias
##cimo
grandeza
posibil
comencé
tejado
equivale
supi
lien
convertirá
discí
guyana
##met
vered
enví
trío
##tamen
matamos
suspendido
máximos
##vic
idón
matarnos
##nada
baham
banderas
conmemora
fluido
vendrás
influenci
riego
##gios
pio
vacuno
##mund
barata
cinematográfica
cruces
informaron
bha
##inamente
##feld
húngaro
pirámide
riendo
celosa
observancia
tiburones
ballen
australiano
peruana
sujetas
aptitudes
pondremos
portátil
inspectores
prioritarias
puramente
sullivan
##entendido
alicante
gm
sutil
dieciocho
ruina
tirando
estarlo
##omel
dentista
escán
quedarán
##sten
##ffrey
incondi
propuls
presentaba
solicitante
##zán
castigado
##eños
pasadas
hudson
injer
chofer
gatt
contratantes
##cton
barbados
##anti
3000
##antha
asumido
explicado
prepare
cardíaco
tomemos
incumbe
despleg
ordinaria
prudente
equivoco
probando
meterte
grosero
equivalentes
contador
secundarias
##uman
pelotón
entienda
conversar
##timore
##teando
dedican
listado
carbon
##propi
juegas
1903
gráfica
perteneció
realidades
agrav
nicky
traerá
zum
impuso
##has
##alim
mace
benito
quedaban
consorcio
permitiré
##isi
desaparecieron
infr
table
percibir
efectivas
tum
langos
inofens
agá
pieles
renovar
proporcionando
marian
respeten
realicen
eusk
mates
##mentales
desmor
rigen
catalana
antepasados
ayudarles
bissau
contarme
misteriosa
ausente
pulmón
tá
demar
circun
insa
colm
analiza
diarias
dona
criada
nc
##lene
aristo
rastros
rapido
valentía
indirectamente
##escol
estrasburgo
##tham
suicidó
##vern
irres
transvers
rí
##gard
nal
creadas
interesan
inh
##tics
bour
##ticidad
honrar
chance
tragos
asisten
interamericana
##fus
reorganización
veracruz
foco
oyeron
crc
hongos
##cine
booth
ther
##tex
pia
engen
folleto
ignorancia
logran
hortalizas
mundialización
billones
tanzanía
distingue
##enson
interpretando
emisora
psicológico
licenciatura
surgir
dark
death
common
navarro
hubiesen
armar
píl
##cules
federativa
potencialmente
francotir
aéreos
##bria
visibles
hostilidades
page
campanas
amplitud
catas
productiva
arranca
austría
relaciona
creían
irrump
suban
llegues
quietos
esperad
prodi
consejeros
válida
enseñarle
chac
miento
##iblemente
labr
yoga
injusticia
cromos
guionista
soporto
##eño
prioritario
chia
asfi
grim
139
cheques
villas
mónaco
moción
sencillamente
jesus
acerques
phoenix
paragua
convencida
prefec
pasivo
##izadores
excusas
esqui
##tificaciones
##ganos
roj
trig
jodidamente
##trones
éch
##chón
paja
escuadra
baltimore
just
flujos
usen
apagado
confiado
burke
sordo
##ries
plus
##énico
retrasado
metan
gusanos
##ijo
astrón
precaución
forzada
##ap
jovencita
reaccionar
ás
trayecto
tla
hs
##pea
manuales
vió
auge
relojes
tak
experimenta
##tcher
nutr
quite
ilícita
revuelta
milla
porter
defensas
atribuciones
enre
homosexuales
valen
procura
##lem
falda
sandra
preguntarme
peni
endeud
restante
sanitarias
210
##inoso
##ervos
anular
##iers
tutela
propongo
malig
fray
magne
intensific
contamos
vitamina
provienen
aleg
alienígenas
amos
##bourne
disponga
fluctu
puño
##gicamente
baleares
clé
estím
##quet
guadalupe
desarrollaron
brit
madurez
reciban
indig
defiende
espérame
ancha
vinculante
##rime
anu
locas
vistos
píldoras
permanencia
##losa
supuesta
##quitos
adapta
rectan
##ubio
mueres
tomaba
confuso
hágalo
there
anciana
cancelación
inquis
educado
estímulo
##óloga
##copio
tormentas
trabajadora
dividen
empuja
dance
capullo
abc
##bed
glu
planteado
parroquial
##chet
preco
quedarás
posada
enteró
usadas
promovido
políticamente
alienígena
nicholas
atle
mccar
busqué
lazo
saltó
cantantes
facturas
##yun
pasajes
discreción
aní
vanessa
producirse
barroco
agradece
##fiquen
##tienden
##toriamente
valió
##chevi
##ebs
costillas
sherlock
##ebe
ultimo
##hou
sey
adaptado
garantice
card
geniales
óptica
ocultos
##nen
impartir
rehén
centroa
significativas
cool
emplazamiento
continúen
revolucionarios
pantano
prefieren
let
##nio
envidia
encargadas
deli
caram
##buros
cultivar
barca
deshon
despertado
despido
lineal
malentendido
turísticos
paloma
reclusos
resistente
roba
atacando
##vita
sometida
generalizada
debbie
suplic
coloniales
psicópata
árbitro
atentamente
##brales
tito
cubren
pañuelo
##lands
viajero
característico
comprando
legión
##polis
velocidades
##arner
envej
##ionario
comerciante
lácteos
hidrocar
biológico
informáticos
##lese
vír
étnica
grabada
cac
irene
geográficas
contex
timbre
brilla
leopol
poseedores
##bby
ice
##diéndose
toxic
valley
sacramento
llanura
extraterrestre
manifestar
cualificaciones
admisibilidad
doha
extenso
honrado
falló
hacéis
terminales
##rein
hebreo
##igen
desacuerdo
##blicas
desesperada
reportes
##hoo
230
camaradas
ferrar
heather
rs
##cionó
cancer
colgado
##lom
jurisdiccional
mariposa
pense
ensan
contengan
transmitido
concienciación
lote
manipular
##ava
chrysomel
ltd
tramos
##americanas
huye
diplomáticos
tc
freno
carson
hídricos
llevarnos
chrysomelidae
crianza
beck
cambié
##idió
khal
baviera
cardi
fp
inhal
fraternidad
repatriación
##tradas
camping
##bito
neutral
premier
1902
tuviese
retablo
manny
##iéndome
murray
medicación
refirió
escuches
muevan
##lynn
##pard
pedi
voló
sound
descif
estatura
acel
negado
anticon
concursos
contable
##quetas
aumentan
analf
##mberg
veredicto
apreciación
pulmon
siesta
repugnante
##itiva
compuso
quisiste
integran
residencias
mie
abundantes
bet
meterme
obtenida
empleadores
ajena
tregua
concertación
##dieran
júpiter
##éndonos
ganaste
temáticas
asegurarnos
olví
artísticas
nietos
arrogante
uva
##desas
##hammad
##tang
pós
susto
emitida
arranque
drake
##bri
retención
retrocede
pío
paradero
##mete
simula
almacenes
desigualdades
acantil
kath
compruebe
venda
temper
hamburguesa
mik
trabaje
satisfactoria
entrenado
##ómi
amenazó
palmas
##uap
##igra
ferroviario
engaños
glenn
democráticos
fisher
plantar
nash
damon
doyle
muriera
patricia
urgencias
maastr
revisando
proporciones
manifestantes
##espal
klaus
defenderse
##lee
chaval
reactiv
novios
respald
pep
##ays
entrañ
maduro
##fun
##tures
inapropi
despierte
uranio
ramb
sorprend
juárez
semanal
reivindic
actuado
marcharse
crónicas
benin
credenciales
##ámbulo
trágico
mosa
oax
##imir
##verly
##ach
respiro
belice
décima
gobernadores
cuñado
abuelos
angustia
##ranos
aparta
señalaron
##quese
mauritania
hormonas
incóm
óscar
definidas
diseñó
gustos
aceites
gale
##mur
borracha
mezquita
marro
innumer
fnuap
decora
oponente
elaborados
hablen
sucesivamente
anime
ricas
dejarás
pureza
fisi
causan
aplausos
sap
inhib
erik
difunto
trozos
##ombre
lester
sajonia
gestiones
normativo
##zio
tesoros
músculo
subsistencia
##zen
##cionistas
infinita
finalizado
hope
ofrecerle
razonables
abadía
franqu
mana
jugamos
abarcan
elaboró
republicana
ganancia
orientadas
compromete
##áculo
sindicales
insurg
reflexionar
##velt
prometes
brind
molestes
electrónicas
##bulos
##adía
tucu
carto
impo
##erción
sonny
fuesen
alegaciones
enri
siderúr
procesar
ansioso
renovado
5000
discípulo
muse
budap
british
fichas
celestial
##tings
violar
pseudo
prepararse
aza
##toles
automo
adjunta
múnich
prostitutas
escalo
fuere
guzmán
ambicioso
##metría
ordenes
sofo
molino
jefferson
quieta
suaves
##bin
recopil
subyac
prejuicios
subsidiarios
roose
bahamas
##tv
retroceder
tristes
ocuparé
point
##iang
dispararle
balanza
##get
ohh
hindú
continuado
##iman
multas
terminaste
kirgu
leyó
sorpresas
métete
enfermeras
acreedor
zoológico
calcio
##itariamente
atiende
quar
moldova
portador
señalando
celdas
príncipes
##ltico
admito
púrpura
dibujar
ahh
existió
seguidos
traerme
madura
##idados
pach
exquis
matarlos
hidalgo
margin
medell
bono
facilitación
cede
##mper
cátedra
antiguamente
einstein
polémica
registradas
##urero
vinculada
budapest
adoptarse
muño
trabajadoras
retratos
afectó
pianista
auténticos
grasas
apoyamos
advirtió
##igne
licenci
##top
trevor
deberia
indebido
denunciar
trabajaban
principado
indirecta
veteranos
hablará
atento
regresará
noah
avanzadas
arbustos
accidentalmente
arms
significó
envuelto
hormigón
zack
acércate
guardaespal
isab
senadores
berm
saquen
convino
lleves
##kies
gótico
gilbert
goza
dejarle
arriesgado
crudo
perrito
##gru
##cete
##portes
mán
decimo
tayik
##kok
buda
ellie
efectuados
formales
averigua
primos
teor
cesión
quejar
bagdad
serge
nano
verdaderas
##lección
conquist
jódete
electromagn
darás
habrás
urbanización
calificaciones
hell
cortinas
generan
cautiv
filtro
compraste
abismo
subida
monse
dinos
##respons
accede
preparen
palacios
##ufra
##ucky
suplente
summer
litigio
##ralo
##beria
ventan
constituyente
progresivo
aguda
ornam
clasifica
oaxaca
desprecio
cabildo
##tl
conservadores
tremendo
confiable
clasificar
##mero
manuscrito
enfa
##greb
infarto
##lense
cocinero
aelc
christ
virtudes
320
cárceles
carla
##aa
maricón
distracción
hallaba
lecturas
nord
convencidos
ortiz
molecular
activar
##galo
campesino
activas
infring
mayordo
irlandesa
expuestas
sirviendo
perjuicios
subregional
calvo
coordinadores
esperaban
bancarias
llamarla
##arcas
biel
laber
oak
respondiendo
##ecías
rompiendo
honores
pacific
##ology
compositores
bartol
avergonzado
rana
fraud
dp
yas
dedicar
patin
corporales
##ándolas
concedidas
autorizó
veían
prestados
##mers
platino
prioritarios
redonde
jeffrey
abrieron
explícitamente
mp
guardaespaldas
explorador
invertido
##dge
adoptaron
report
sedes
colaps
head
anoch
embarcaciones
consultores
ambientes
inútiles
coordinada
pensilvania
amateur
doblar
##oney
encantó
hablaron
morirán
##sson
tae
##ajes
molina
great
dióxido
ds
ibérica
inmuebles
bonitos
sírvase
minera
obligar
##tizados
verbo
márgenes
##xia
conspir
##omor
seguiría
tambor
compradores
amazonas
pretexto
##teres
suponen
enum
square
descubra
queriendo
calificado
prendas
genético
denominados
frías
linaje
sellos
tenerla
disponía
profecía
dulz
muñoz
pintado
cometí
##here
visite
cindy
ñ
persa
coquete
bautismo
hilos
presidido
rox
pasaré
aceptarlo
##gle
##sis
tess
indud
famosas
##tigo
basarse
##mascar
pensaron
terriblemente
decidida
suárez
morirás
perdidas
conlleva
archer
centroafricana
repetición
constructivo
##biciones
clor
##mik
alerg
implement
incondicional
##rill
sv
pasajero
tremen
##damente
yah
bordes
defec
ganarse
grabando
##dh
##íl
##liga
judy
chandler
divisas
constitutivo
##cab
##dele
liam
preocupen
avatar
navid
tinie
tigres
alcanzaron
##emias
odian
botes
expandir
neerlandés
vizca
comuni
recuér
buddy
##biera
usé
cloro
verlas
descritas
marineros
llegarán
incorporarse
inspecciones
cuernos
mentirosa
dotado
nombrados
almohada
reservar
sancho
contribuirá
certamen
medellín
criar
fcc
phillip
convenció
amamos
milicia
hul
petersburgo
comunicó
verso
infiel
imaginaba
doctr
bak
ost
obsesión
anchura
bue
racista
pendejo
salvarte
##cks
##bot
puñ
vocales
##iada
dobla
##itorios
tarda
repartir
made
feoga
ofrecieron
babil
sinton
entornos
toco
solemne
inventó
proporcione
inventado
techn
quitarle
##cante
force
asumiendo
reportero
residencial
cómico
esg
sla
##áctico
monseñor
##anato
hito
und
cierren
leña
entierro
yes
hundir
emplean
surgieron
estables
echarle
##tenme
european
produzca
verónica
boxe
ossi
calaba
quitas
bancario
caracterizado
desil
caravana
musulmán
mencionan
aurora
dominación
bits
típicos
pervertido
emborrach
nacen
##jito
ampliada
##cóp
##amela
##mph
tenerse
barn
observan
implí
julián
dueña
movido
provisión
innumerables
##ceres
notici
dinámico
diar
habríamos
aborda
radiodif
propicio
chistes
asedio
duermo
examinará
##icha
decano
tsun
mirado
estadístico
pill
marinero
calculado
encaminados
##inidad
##mbul
tocan
morder
atracciones
carcel
sobrecar
nacionalista
pampl
concebido
sustituto
##idel
temáticos
1901
##ólver
2020
##onista
roosevelt
latin
agallas
ilícitas
funcionado
comportamientos
take
garras
##long
pautas
deudor
##ésima
distan
enloqu
cláusulas
incluyeron
usarla
debamos
viviente
freddie
duquesa
visuales
centró
follar
tentación
##ástica
sultán
transcurrido
continentes
antoine
comprobación
verb
atletismo
sacaré
cuadras
hér
armando
##uy
revólver
##tice
##tarlos
cedido
profundizar
recolección
descripciones
despegue
inmenso
jenna
##fen
aficionado
justos
ecológico
mtv
subvención
militantes
devuelve
fuéramos
vegetar
acostado
##graph
nativo
##determin
posesiones
condados
philippe
##enció
proletariado
kat
facto
novel
amenazado
domina
pronunciado
pozos
grabados
cito
##brados
tayikistán
guardado
doscientos
price
##nam
ejercito
soportarlo
guarnición
ruby
flynn
distr
recomiendo
##personal
recic
subterráneo
##tiempo
atlas
silv
espantoso
robé
médula
armonizar
creek
tomaría
entraña
alternativos
sip
contratista
bingo
marfil
reglamentarias
pito
abd
exal
imprimir
rituales
implicados
kep
##xis
nieta
aumentos
inda
telefónicas
afirmando
térmica
aguard
pasteles
abrirlo
latitud
jodidos
presenci
sobrena
##sta
contribuyendo
##eet
modesto
regina
convincente
##sche
enunciados
reclamante
sidney
lograste
excluir
desmante
joel
maastricht
sacas
##izaba
pierce
albergar
##torrique
integradas
registraron
envíen
bian
íntegramente
ilegalmente
identificados
infante
orf
ceda
metes
sufrieron
pror
moc
bebes
capitalista
inscrip
checoslova
##uca
cabrones
restitución
foster
##feta
##claje
matad
desconoce
estimados
destruidos
##erna
##less
sust
bigote
feroz
saliera
persistente
cuerno
manada
afeitar
astuto
bachill
nis
contrad
procu
iniciada
simpático
pater
corten
conflu
entrome
riñón
preguntaste
hughes
enriqu
disfruten
temple
iné
descubierta
perez
stella
sentirlo
##opor
##odri
estambul
adán
complementario
deliberadamente
aparezca
escuchamos
vírgenes
monetarios
agradecemos
##belo
##irre
enamorados
estudiantil
##mese
dispare
surin
síntoma
proceden
discúlpen
montado
resiste
tucker
chim
inalám
deform
maniobras
villan
##sales
venen
editores
apolo
##uas
prométeme
escucharlo
encla
tropa
uefa
regresaron
##jug
uruguayo
remisión
ventilación
pekín
rentas
##omin
acompañamiento
asumo
manto
donante
villano
eventual
aprendiz
segmentos
gibbs
manchester
durará
obedece
cuarteto
ayudaron
gastado
solitaria
##ámonos
##partida
##mia
tenerife
vacías
##donald
desafi
aceleración
visa
habitan
atropell
camarera
musulmana
vici
editar
bolivar
violado
creativa
saldré
comenta
impiden
transformó
##iéndole
reagan
fingiendo
tomara
##bora
inserción
hidrocarburos
tramitación
mediterránea
intentes
alineados
contemporáneos
cook
##iba
ácidos
completas
someterse
magna
samantha
indicando
yam
esperé
##burgh
pardo
##tráfico
##gma
defra
formaban
minnes
níger
bestias
creíste
##ée
hambriento
experta
concentrado
señorías
richie
natación
rally
pesquero
##iéndolo
tóxicos
reconcil
trasladar
##zano
admiración
llegaré
apártate
##plante
acercan
aproxima
publicará
vergonzoso
##inston
supermercado
dispuso
##ob
eth
##tello
tenta
expreso
##vira
regresé
dante
##ichas
##elu
##estre
indique
cuidadoso
##ágono
anhe
look
alejan
culpo
encuad
phoebe
agresivo
##ínate
retí
logre
tinieblas
boris
right
arqueológico
##tov
interre
aumente
##pistas
divertirse
uniform
subl
traduce
descolonización
telegrama
pegó
granjas
joya
existan
cuarent
unmik
seguid
basilea
##iformes
vamonos
dependientes
privatización
bangkok
arenas
insignificante
preciosas
##inariamente
analfabe
##yeran
homer
matemático
animado
cabre
mostraba
sentó
amon
##yon
descendiente
ayúdeme
##yde
##cala
rige
##zel
tuyas
pv
presas
##gimos
acop
vinculación
desplazamientos
concéntrate
move
discapacidades
sentiría
consistir
inesperado
detenerme
adquiridos
desol
calvin
euf
imprenta
tierno
hes
parados
cimientos
consideraban
mañanas
pastores
##trición
corazon
génesis
traficante
turbo
oyen
sabré
manufactur
vinieras
etn
establezcan
##értelo
importes
tímido
sonreír
máscaras
vacante
togo
pavim
##biliar
##orestación
cacería
anónima
aban
buscarme
adolfo
alterar
lao
serbios
dental
ló
pagué
magnético
##áctica
##patía
vejez
mensuales
retrasos
##ving
planteó
express
balcanes
granero
ratones
parecida
fiabilidad
##ezo
vendedores
extraordinarias
maca
créame
forzados
##pelo
proponen
chev
##tenerse
dependerá
distribuidos
scul
turnos
organizaron
abstenciones
diversificación
melissa
sacamos
severo
fanáticos
alec
minnesota
plie
jodas
mesti
desmon
arr
stac
235
dinosaurios
dulzura
fritas
inaugurada
##rit
ratificar
colonización
ocupaba
stad
literal
##titis
##arp
##gadores
ilusiones
confund
estimó
puntas
meditación
desarrollarse
vor
rc
##pta
cagar
marti
ídolo
##decer
baba
gramos
sostienen
invención
interferencia
especialización
disculp
roland
encaden
##sex
arias
haiti
desnudos
descubrimientos
atmosférica
diligencia
mascotas
transnacionales
licitación
animada
atráp
espinas
##ógrafo
empleador
consecutivos
portuaria
##igi
preocupo
preocuparme
dirigiendo
##af
arrend
##pers
brenda
robbie
equipar
amenazar
##sec
##onesa
##plica
jade
turca
reconoces
repú
##tizaciones
paraná
tecnológicas
xav
báltico
fragmento
preocupaba
deténgase
intervalo
##tanme
déjanos
schmidt
monopolio
pareciera
parlamentarias
vendidos
expresadas
equilibrado
##amar
metiste
activista
imbéciles
pavos
eficientes
precep
laurel
##zamiento
enteros
encontrarnos
##ols
##hiriya
reposo
bachillerato
afiliados
draft
orquí
escuchad
universales
andan
acercando
generó
adicto
entres
iniciación
recogen
rostros
##yatt
##gee
híbr
people
enco
rúbrica
compil
paralela
mell
cobro
cachor
altern
hablaban
rigor
matricul
abandonaron
sugerido
contradicción
gau
bajado
cortina
inmobiliario
hacerlos
afian
femeninas
mans
neol
erosión
friedrich
goce
parlamentos
intencional
ada
##trógeno
oradora
metálico
secas
detengan
traicionado
##mens
business
pearl
andalu
destrozar
they
escondidas
hueles
favorece
mostrará
derivada
comunismo
esconderse
corporaciones
##cales
atravesando
zombi
sometidas
boyd
sujeción
ecuatorial
rory
cosmo
##ógicamente
empar
ofrezco
hd
escondiendo
##tile
cuchillos
fractura
profesiones
flechas
ingenio
innovador
diremos
flamenco
call
carru
dominios
estatuas
involucra
volta
resear
arteria
cocodri
ensam
fmam
##jaban
##ientas
generosidad
quienquiera
sopla
##cionadas
espina
reformar
escondite
202
cojo
bater
rondas
apú
creerme
##hs
oj
narcotráfico
conocían
aproximada
paige
mantenerte
obse
juzgados
debiera
pey
irrespons
usarse
desviación
barnes
implicaciones
aras
madonna
complacer
epíteto
##alina
osa
burla
homónimo
decepción
procurar
##uke
resfri
manejando
##dano
bord
frij
largar
sacarme
danubio
molestando
sentirte
##ionaje
decap
hospitalidad
ovie
mitigar
roberts
dispens
monumental
sábanas
encontraría
deprim
sensacional
resonancia
##elyn
síganme
jamahiriya
simulación
caci
coj
inmacul
##jillo
tonos
bahrein
spr
deuts
lore
brooke
ordenanza
inconveniente
acentu
pólvora
emboscada
##eek
bots
génova
system
valpara
circund
interf
selecciones
defensiva
ranking
entraste
bastón
atractivos
##coa
pálido
tip
honda
ofrecía
ceremonias
limitadas
##iron
##cillo
formularios
##pada
lydia
silvestres
impidió
regresan
satel
temen
defendió
planificar
concurs
agudo
equitativo
atreve
##bet
imaginado
formularon
##ister
aislados
conservatorio
##vre
incin
clarke
perjudiciales
##ficada
ibn
vener
empuje
portugueses
muscular
aprovecha
##ng
##arías
delgada
memorial
regularidad
leales
aeronave
terapeuta
insol
##cono
bailes
angusti
competitiva
derre
marcelo
distante
escoces
##itá
##iando
ballena
prescin
obediencia
deducir
inquil
caracterizan
inversion
##ingen
unico
hércules
meredi
oviedo
lola
beverly
todopod
superhéro
zana
cretino
submarinos
research
vacunas
indicada
##tinado
recortes
ciegos
casé
metabol
orlando
bich
bendito
amenazada
##lusa
gluc
consulado
##tices
antibióticos
caerá
suscripción
escucharon
conozcas
insignia
accesibles
jungla
refugiado
deban
navaja
vencedor
fabricado
marciales
proyecciones
permíteme
meredith
intérpretes
planific
aumentaron
alimentan
macar
arregla
preámbulo
##guesas
puertorrique
despedirme
hib
paramil
aprendiste
veinticinco
##base
rain
increible
##mouth
rehus
##érmelo
nativa
egipcio
paró
visibilidad
mozar
descender
presuntamente
hada
conservado
generosa
apóstoles
distinguido
bloquear
guardianes
##fric
vog
creías
cerrando
erupción
blu
abolición
robus
celeste
prefectura
inces
rompec
encarcelado
positivamente
embajadores
vincular
rechazada
optar
situa
soñado
honra
equilibrada
traficantes
berlin
bicicletas
##irro
fichó
mueras
clínicas
preocupas
envol
dorothy
producidas
##lices
gius
estil
enteras
##okie
formatos
adora
false
patrocinio
acusó
andas
subte
##gem
murallas
asesinaron
##dard
sony
felicitar
codificación
explique
transformado
vago
year
usaban
refin
electrones
delhi
##kinson
académicas
procurador
##plas
centenario
proclamó
perseguido
logré
firmada
adicionalmente
incluirá
##cut
ibero
organizan
##mense
oyendo
predecir
utilizaba
spock
fijados
respetado
gior
necesitarás
preescol
escúcheme
deportistas
vivieron
seo
four
##ents
##ciano
competitivo
acompañe
##interpre
zach
esplendor
raramente
orinar
contabil
cólera
manejarlo
potenciar
##bers
lyon
resuelve
escalada
objetiva
existiendo
bajista
poste
colaborador
fronteriza
smo
crecí
recupera
destrozado
sacrificar
teórico
condenada
rogers
fifa
severa
##ondas
desempleados
lastimado
pesqueros
##lines
irlandeses
durban
escan
suman
dragon
botánica
ich
cordi
sucios
australiana
descubren
##tizo
inversa
detectado
##tanto
theo
amelia
teclado
elis
acordaron
presionar
necesitabas
botín
expresando
##mart
solíamos
##tit
tomarlo
comprens
cargamento
incorrecta
stein
ocurridos
precipitaciones
rego
negación
dolares
destacaron
considerará
anestes
impreso
nacieron
destruyendo
gase
afirmaciones
peren
della
sport
respetando
galo
golden
prevén
culpabilidad
refiriéndose
esperábamos
cargada
comprueba
jamón
preciosos
eucar
orbital
acabando
informático
ofen
aleja
moriré
formados
concentrarse
glán
##lava
involun
enor
complementarios
acreditación
##010
##lc
alison
bros
casarnos
racing
talibanes
tope
##tendo
pelle
##eber
sáhara
genéticamente
átomos
nitrógeno
##ast
gul
ilimitado
involucrada
vial
consola
antor
súb
aure
coex
ordeno
adoptan
haciéndose
ajusta
locomo
galaxias
felicito
valparaíso
paco
subsecretario
picas
carnicero
estrictas
secretar
chill
andorra
típicamente
enseño
hee
barril
simpatía
##crim
libanes
nudos
óptima
paramilitar
boe
consue
senos
cometiendo
facilitado
devuelto
##oody
sty
echaron
luchan
monuc
papeleo
construidas
##zal
dejarnos
consideraron
prerro
bolchevi
declive
polaca
cardio
letal
carajos
gatito
##hire
limitan
##vinas
rencor
inspirada
anticoncep
##vino
aplauso
chaleco
pymes
esmeral
combinados
kill
cuarentena
mudo
convocó
servía
coordinado
transmitió
##yp
admiro
shu
rosie
veloz
enfure
escopeta
practicando
rudo
desembol
homónima
##sman
americanas
kung
venezolana
progen
temático
consciencia
encub
mayordomo
traten
análo
citados
pensaría
cóc
deno
pompe
quisiéramos
halcón
inquietudes
difícilmente
banquete
constituía
##iforme
##espa
conformado
caleb
##rett
geomé
holoca
conducen
biografía
paradas
desapariciones
romaníes
##ska
corri
antelación
too
rudy
esparta
excesivamente
esclar
malaria
recordaba
vacíos
centrada
pretender
stro
rectores
irra
##identes
georgi
empezaba
becky
frenos
mit
##cock
##isté
jae
##iental
##centes
regresando
documentales
aeronáu
jinete
vigilante
##undos
##soe
gotas
sahara
##inga
oveja
súbete
apóstol
impulsado
mátalo
fccc
sd
haza
canadienses
##cr
halló
##corp
ville
sábados
##une
convenido
suplico
enseñando
racha
reglamenta
limpios
##mé
##tini
##mill
fog
malvada
yucatán
necesitaría
relleno
colaborando
monjas
##tarra
devolv
organizando
pasaportes
michigan
##under
unilateral
johann
##cles
ahmed
emocionada
##renlo
nintendo
esqueleto
celebraciones
aduaneros
auspicios
roque
concha
llamará
lenny
empo
revisiones
excursión
##idora
dormía
conectada
favorablemente
##lade
hazte
vómi
lesbiana
llevaste
hallazgos
##heimer
rompí
##ticen
terremotos
abdo
heart
agujas
insopor
permítanme
##doto
203
tumores
recorre
mérida
hoff
ridícula
metiendo
planteadas
##relo
ente
ronald
mientas
preparan
operativa
metodologías
cargando
elvis
descargas
combustión
cesta
dejarlos
belgrado
soul
interferir
##biliarios
malinterpre
interpon
yacimientos
resultando
empleadas
almacenar
ejecuta
##inda
controlan
kai
atrever
kling
##eng
##onne
teatros
episcopal
aterrador
aerolínea
favores
traducciones
skin
sepamos
sexualmente
##presu
medall
interdepend
egipcios
pamplona
chelsea
##gart
rif
medicin
mandíbula
aprobaron
ion
torta
terminemos
##tory
bennett
ferrari
##laste
debéis
adjudicación
codo
travi
contratistas
kira
poster
maril
arbol
johannesburgo
clínicos
compraré
interpol
emprendido
sudoriental
pusiera
georges
redis
desconfi
coeficiente
bonn
interreg
percu
penetrar
requerida
reapar
escogió
lees
fijos
costará
precisos
instrumental
enfrentamos
despiad
span
##pac
federado
cintura
pine
ventil
##abulario
recibiste
mula
atletas
##ilhel
enverg
mostra
migraciones
honestidad
subfamilia
##adro
##ceta
dei
advierte
llá
italianas
##amed
putos
traerlo
obsesionado
procedencia
##nea
legu
ober
##mission
destacadas
destre
descifrar
act
beatles
hallaron
lp
desventaja
##siete
##kon
picos
condens
fluye
libertadores
pruebe
trabajaron
tric
compartiendo
atún
internado
identi
superó
discográfico
sure
randall
perdedores
rápidas
condecor
pertenencia
prospec
explosivo
trataré
consumir
explicaré
pretenden
informados
marítimos
##lores
mikey
fiona
griffin
samoa
carencia
agradecida
conozcan
param
excitante
intervino
denver
##blan
granjero
telescopio
sacarle
primitivo
sonriendo
hep
polacos
pizar
presuntos
cubriendo
respirando
fiji
frenar
unánime
flexibles
corin
seúl
viajan
bundes
mudarse
desobed
iniciando
juntar
provee
compres
riguros
invocar
ná
envergadura
naomi
socialdem
bandeja
aparecerá
pantallas
instalada
nominal
etcé
##grid
desembarco
facciones
capturados
quiróf
marques
insuficientes
irregularidades
apág
##abezas
tortugas
interpretarse
tnp
ferv
honorarios
déme
arraig
##olla
muda
pronunció
comandos
read
monica
perlas
ster
atenu
liberados
extor
necesiten
##tata
finch
ascensión
##ífico
##teau
##eds
##bable
entendió
costarric
efectuadas
nudo
oírte
aseguraré
vole
laberinto
defendiendo
requerimientos
june
calzado
adoptará
secuencias
dudar
gays
curvas
devuélveme
##ield
##mine
valía
bios
segre
advertí
intersec
##gala
first
liver
imit
amplió
expuesta
neerlandesa
bend
##jaste
benef
anta
adoptados
uvas
velada
##esas
nations
kr
excluidos
reseña
permitirán
individualmente
supersti
sudoeste
pronta
estrel
creadores
galerías
librería
despegar
gos
marge
space
correctas
uci
##udónimo
etcétera
ponernos
traseros
duermes
yuri
nevera
empiecen
hamburguesas
##ópolis
capturas
diecisiete
tropi
rolling
esquinas
eurostat
experimentales
mozart
##rah
patty
perla
sucesivas
##ely
chupa
espionaje
comprendidos
espiral
nóm
comics
plurian
votaciones
##rector
cogí
charlar
alcaldía
apareciendo
##tificar
aden
hondo
luminos
quitarme
legítimos
ejecutados
sres
lindos
beckett
palanca
gritó
descanse
##cían
trámites
ando
oido
capito
significaría
pusimos
simplificación
echando
autónomas
patrona
debías
corresponder
gandal
karma
arterial
##usse
ellis
##cribir
prorrate
asustar
pentágono
oímos
comparti
predecesor
refrigerador
##kai
##íticos
jurídicamente
admirable
misioneros
arqueológicos
##rará
quebran
bende
secuela
morada
##bardes
recibirán
escom
cabez
reese
angelo
distraer
jonas
fabrica
olvidarlo
compas
##yuge
dispares
expulsar
todopoderoso
derribar
dilig
##enan
caris
gandalf
lavandería
acerque
suéltalo
calcetines
valga
amorosa
baterista
congresos
brody
cantabria
edificación
osce
bucar
##mons
##gable
##mulas
decadencia
percy
montana
solv
##lamo
congelado
indemnizaciones
poe
josef
##ermo
##iche
aquéllos
acompañó
##ties
doo
mak
ejercen
tucumán
conocías
211
gorra
conejos
cancelado
clero
supuse
reporta
relajarse
radiodifusión
bocad
diplomacia
##borg
cody
##campista
ámsterdam
equivocados
peregrinos
zeus
incrim
estalló
##fón
usual
elaborando
rodol
quedaremos
rosen
obso
tamaños
prestada
ose
aya
seren
cerradura
ballenas
recopila
billetera
bryan
convivencia
plantaciones
comprendidas
televisor
##inae
contrarrestar
danesa
ritmos
##copa
anotar
deliciosa
ancestros
avergonzar
vocabulario
suavemente
promulgación
cacao
antártida
##chy
cilindros
estallido
pagarle
##fc
repetidas
sego
amiguito
cargador
apuntando
##neo
cyn
globos
inspiró
nim
connie
engañando
encargará
##iselle
distribuidor
##dosis
polos
geometría
##mark
colis
moscas
flag
comesti
desemboc
optimista
rectangular
transmitida
##pados
guatemal
maltrato
algoritmo
shi
iraní
adicción
asistido
cogni
zanahor
trabajen
felix
chester
ciones
cicatrices
secuestrar
eis
aviv
escoge
conseguiremos
ajo
note
preocupante
especialidades
belg
ensuci
marvin
huido
cras
magos
tragar
nominado
nordeste
ruega
arañas
imprim
ocupadas
magaz
pasto
instintos
espectador
conrad
explotó
eligieron
edimburgo
##tinal
escribiste
cónyuge
parecería
pastoral
superando
votado
puros
helsin
##edades
vosotras
reynol
##guard
estanque
##ird
##psis
cuide
carica
modificados
##chadas
prolongado
ambros
##odor
investigado
clasificaciones
gobernantes
sulf
íntimo
amabilidad
sexualidad
kenia
salazar
traía
concord
##light
plays
##tidamente
válvula
jinetes
aplicarán
superioridad
##vii
##ogía
bohemia
detalladas
quemó
andaba
planear
catar
##asi
bicho
challen
explosiones
proj
reden
acordamos
guis
popa
vagabundo
concerniente
scot
guaya
desesta
desplegar
oops
true
barbar
niego
##integr
valla
poo
hallamos
disim
lucio
##pecu
pack
seguidas
intersección
marvel
##rev
crueldad
tire
derivan
##zaro
espor
pasad
profetas
rioja
flamen
designa
sirviente
helsinki
contará
225
mentalidad
marcial
reynolds
posterioridad
bates
enfrentaron
espos
homero
quimioterapia
pisa
##gram
especifica
transmisiones
farsa
##alí
adhes
##mió
canon
cantó
higgins
enam
resplan
rentabilidad
combinaciones
aula
válidas
##anor
##rase
##ñó
perfectos
##ícola
dictador
llevarlos
bum
gozan
ubicadas
##tosos
afortunada
secretas
obtenga
balne
diálogos
violó
perderá
cartón
##ingham
dormitorios
obi
##presupues
##agner
mobiliario
mao
xavier
bed
dramatur
gancho
despropor
ilustración
estructurado
##cosas
bloom
afines
inmedi
perdi
socialmente
##mantes
##quías
respi
respondieron
##gger
consagrado
hyun
small
sabios
##dium
ocupe
redactar
melanie
encantará
acusada
garantizo
nombramientos
##mentario
afirmativo
remor
desperdici
dono
persistentes
lau
psoe
side
conge
firmeza
ladrillos
##xos
cortome
denunció
sufragio
corría
escoria
recipiente
##fec
abreviado
bielor
pionero
vivan
leerlo
coreano
limpiando
silencioso
pitts
declararon
persistencia
animados
ático
multinacional
cuentes
porcentajes
doncella
divirtiendo
obede
georg
raf
escribía
emergentes
enorgul
volc
eugene
líos
incompe
asignaciones
##cisión
centenares
sobredosis
gt
acumula
agradables
inscripciones
ff
##inista
conforta
malvinas
limos
alfabeto
lindas
reflexiones
denominaciones
farc
##ulia
ecuaciones
incursiones
rip
garra
cuervo
enterarse
oscure
renovable
##orks
recetas
##ded
empera
escalas
articul
invir
debidas
rompecabezas
cobardes
algas
nikki
jodiendo
imposibilidad
cuelga
descendencia
suero
neta
maf
zoo
molestado
tobillo
congresista
suponiendo
figuraba
every
egres
blando
dester
parroquias
lomé
lente
ardiendo
veterano
unilaterales
expresada
##chip
intermin
acompá
establecerá
eternamente
hex
sustantivos
encantar
facilit
otorg
marcando
##dalo
##drían
##clor
aah
irrelev
consisten
##reme
apare
fronterizos
interacciones
soporta
ska
haley
ant
orientar
recurrente
aseme
cerebros
enseñan
senda
fríos
front
mapu
matu
méritos
cuencas
mandé
gótica
escondida
prolongada
##ury
motiva
repuesto
acelerado
tardará
contemplados
minia
vivirá
cálmese
##udir
granad
reforzado
coronas
cuaderno
contribuyan
cómics
bartolomé
mecánicos
##financiación
debimos
pondrán
dublín
##garos
cordón
toallas
pum
consume
dude
alterado
colaborado
diciéndole
inscrito
noruego
repentinamente
intensificación
absorber
etnia
corrobor
pillar
sagrados
decides
serviría
moriría
key
ángulos
apuntar
embalse
detenida
explota
tuviéramos
aranceles
children
trinch
fiables
postales
riber
tratará
interruptor
arquitectónico
##plo
nutrientes
nicarag
pasaremos
bj
holocausto
marsella
educar
defraud
convertirme
##querías
impedi
acostarse
asistencias
##erie
##dista
sufrimientos
cállese
estor
comete
faltas
farmacéutico
incompatible
perdería
heavy
sonaba
cristianas
##éndola
joyce
ocupo
impresiones
precauciones
resolvió
vitaminas
identificó
##ufre
sonó
##ensos
artesanos
elegí
directriz
ahogar
obtenidas
visado
alme
singles
catedrático
reconocemos
cosechas
disem
productivas
cualificación
lino
echaré
viajado
atardecer
sistemático
admitió
financia
harri
##decible
alt
##ancias
unificado
simone
clyde
pelirro
nieves
desliz
poderosas
cigarro
vibraciones
##mitente
acompáñ
éxtasis
anc
ardu
estabamos
representadas
espectros
espejos
ender
llover
##idiócesis
conceptual
og
##tándole
calabo
alcohó
multimedia
disputado
contratante
contaban
cecilia
##mosa
fijó
comunicados
soñé
controlados
##pie
##iscos
cuadrada
prestará
llamaremos
meseta
esperaremos
##tee
cruzó
diesel
##ou
consí
quirófano
science
pensaban
exil
buscaban
reid
garanticen
enfrent
desestabil
primitiva
borrachos
gad
reinici
acervo
ilustra
determinante
ártico
indifer
modifican
buzz
mitos
confirmada
pegas
aceptas
##elles
transparentes
fórmulas
flotando
alambre
##formación
jerez
belgrano
ml
rús
dres
enviadas
derrotados
dac
huelo
figurar
señorío
basó
##guerra
agotamiento
##filo
##tasio
mech
ebrio
salpic
atributos
##deme
linf
bernie
remota
revelan
membrana
cruceros
castillos
crack
reconversión
##gb
nep
##bord
unic
emperatriz
hormigas
faraón
##ástico
td
llano
garantizan
##gulación
agropecu
##rentes
funcionaba
angie
gratuitamente
gill
acora
##lag
colectivas
dondequiera
arcilla
moriremos
distribuidores
artefacto
##tsy
##thia
##guero
cannab
milord
prevalencia
hack
ayudarán
moro
aflig
peggy
participaciones
nana
dru
sanos
aislada
alabama
verga
engañó
abdomin
caminata
demográfica
puñeta
dispuestas
calib
detenciones
arrestaron
otomano
juda
movió
ligado
orientados
desd
opa
hund
folletos
ane
thorn
pásame
agrega
representativo
guardería
revol
intimidación
fig
impulsos
artísticos
than
titularidad
inflamación
salvarme
marine
cour
##fran
keller
expresan
scully
pecadores
circula
galleta
riñones
descubrimos
##anés
sirvo
muñeco
trayendo
estrechos
preguntaré
##yev
salvarlo
contractuales
##tidor
admitido
eliminados
subtitu
##gía
pepper
primarios
facilitando
bobo
##idón
groen
entendía
##imens
ramo
##time
respete
champaña
##prin
denise
##bú
ilustraciones
quebec
empoder
##trong
hiro
realizaba
list
hacíamos
##falo
vila
dejadme
suceden
precisas
rodney
activado
intermedia
proporcionará
judías
espesor
dispers
##ísticamente
aborígenes
sodio
##ósticos
parciales
acogiendo
##sele
manía
comemos
molestias
lament
adjun
salmón
designó
banks
##trol
guante
endure
asesora
implicado
integrarse
astronomía
negativamente
ajá
##ditas
fumando
abandonados
scotty
fármacos
salvé
incluyan
acompañante
satán
any
pope
carab
exhaustiva
founda
amenazando
experimentando
exponen
ponder
elaborada
soga
traductor
asegure
sak
##cionando
rodolfo
adaptaciones
netas
fugitivo
empír
chau
bautizado
jugos
croata
periódica
##pón
frito
turbul
destri
tracción
espuma
penetración
bce
##iéndote
extrapresupues
cay
desembocadura
embo
poll
##lish
##viales
ávila
sumer
disminuyó
trí
playstation
clasificó
extendida
expuso
presentarte
recibía
sinónimo
salinas
huerta
arreglaré
encantaba
##aga
recogió
215
niñita
##eppe
luchadores
##ensen
##dés
##pot
inmediaciones
salvaguardar
coja
ilustre
preparadas
##age
kum
disparidades
##jales
montones
##mie
##fora
remedi
englo
gustaria
impuesta
sentirás
azufre
reviste
abdomen
story
alteración
##camente
pongamos
alfab
buffy
prejudicial
indispensables
haced
valorar
##yne
sherman
##nister
auditorio
deprimido
##riba
nueces
saul
debas
monja
enviamos
##ulu
stop
##iser
anarqu
sustancialmente
lionel
compite
persever
beneficiario
reprimir
diputación
##iches
judas
chihua
portland
volvi
simpos
reinserción
jol
##consin
extraordinarios
telefonía
##dencia
claustro
cercanía
##leño
##tanse
carrito
proponía
shirley
protagonizó
exploradores
##ain
componer
liverpool
ecosistema
aeros
desciende
burns
patrullas
investigadora
sacarla
bloqueado
##agen
angu
instructor
##táce
##entaria
dirijo
sabias
continuas
operando
dorsal
promedió
sustituye
drogado
cualificada
bada
coruña
funcionales
entere
mascar
radica
contrata
pensaré
caramelos
idéntico
milímetros
sugiriendo
##icé
sheila
##lao
nou
comi
cómic
nacimientos
extrañé
acarici
canaria
vázquez
reproduce
asegurando
temes
presidida
ariel
ramal
usaste
violet
repúblicas
aeró
protegen
##bat
sanguíneo
comandantes
fish
belén
suplementos
mediciones
##lahoma
opresión
dion
never
sirvientes
##icon
gemelas
imitación
entes
salvarla
##rat
salones
residen
spec
##ciedad
##ift
usur
inflores
subtrop
maryland
agradecerle
reportaje
autobio
##gente
##tamental
dakota
presentador
metropolitano
quijo
cucara
olviden
jesuitas
detuvieron
greco
unica
kentucky
patrocinado
manag
marilyn
comencemos
heredi
revise
redención
respetable
arbitraria
desaparecidas
celebre
luchado
regreses
insoportable
asma
sombreros
##lau
##órico
accedió
inundación
tetra
##abi
chupar
interactu
##trospec
enérgicamente
##brada
cavar
alusión
facial
hrc
inscritos
escane
respondan
##males
confiere
incrementa
poblados
vara
##enla
edith
fuí
regente
##pones
cou
tennes
declaro
tribuna
##yi
exor
inflig
evelyn
oklahoma
lori
náus
enciclo
yacimiento
contun
emprendidas
condenó
estadía
satisfactorio
narcó
cepillo
albergue
televisiva
dormí
##lay
agrarios
reporteros
recuperarse
##def
mirarme
entremos
oponerse
añadiendo
##ember
##lagos
kathy
náu
prój
canalla
genéticos
##rota
equipada
millonario
calcu
comprensible
##nette
evad
euc
round
cívica
elaine
milo
mozo
##isconsin
causadas
autorizadas
hipoté
fenomen
perderte
informará
##erci
dominado
rotos
gerald
ferre
artesanía
sasha
acelera
penitenciario
percibe
enanos
escombros
captar
mantenerme
monitoreo
##élica
consuetud
placeres
cus
hear
special
frig
preventivas
divididos
vit
cambiaría
arregl
celebramos
##lanes
rabino
esperes
figuraban
gregory
asturi
motocicleta
razonamiento
elsa
gallinas
numer
extremadura
scha
microondas
##estan
persiguen
protegerse
energéticos
sincronización
##tech
discutido
entiendas
informante
expulsados
progresista
tender
clem
field
vectores
correspondía
##rol
spin
trent
arroyos
golpeando
hipoteca
celebrarse
##icar
rush
trea
sobrio
palermo
encontrara
visitando
fecund
##got
eché
cebolla
maravillosas
herbert
atlantic
foundation
##bala
pesti
morgue
aparecía
taek
representaban
esther
núñez
penta
superinten
pepe
rees
hammond
dolorosa
complementa
##rimento
metróp
tremenda
disminuyendo
gabón
tenencia
humildad
activación
##iao
moderado
alejados
jovencito
arruinó
merecido
##tori
lindsay
garantizada
carri
procedió
favoritas
comprometió
invento
bandidos
##terror
caramelo
electores
estereotipos
anteo
jessie
transeurope
reiteró
lámparas
prioritaria
escab
asustó
fasti
conseguirá
paralelas
205
congra
minero
encabezado
bax
##uces
condenar
encaminada
gán
utah
prolong
demandantes
ire
adren
expro
apoyen
taquilla
registran
requi
jugaron
##arra
rito
ayudara
turb
lynn
mills
pich
itinerario
obligaron
gallego
hidroeléctr
tenias
empezaste
319
relaj
vaqueros
rivalidad
##dulas
denme
##usiones
corpus
sinceridad
veis
atrajo
disculpo
regresamos
responsabil
oas
evacuar
gaz
derrotas
bombardeos
##sei
victorios
hat
roles
sorteo
frien
##trante
simplificar
mananti
conducía
trujillo
coordinadora
inés
sucesivos
subcampeón
notificada
chatarra
##hir
preferir
##berry
guarde
tranvía
exili
demente
actúe
ayudé
oponen
temores
airlines
##crates
209
matara
suicidarse
timón
tomarán
hassan
mezclado
detesto
erec
constructiva
conmove
rim
lanzando
213
council
confundida
kirguistán
sesos
compuestas
orgánicas
renacen
cnud
cohen
cyrus
terci
excavaciones
pég
lena
reprim
saltos
insisto
sectorial
##bico
relámpa
originarias
botan
sena
sorprendida
gibson
morena
puntual
##ann
intervin
##tuosos
escáner
acogedor
psicos
ponti
hábitats
yale
gates
retomar
quitaron
porcel
reducen
encarnación
eugenio
serrano
compramos
calm
alegando
disparé
guayaquil
indiscu
determine
##mpor
##bile
amino
environ
subcontra
serbio
##rs
##idu
constantinopla
cantera
principi
##final
narrativa
recreo
escalar
frederick
recaudar
##gura
negligencia
rcn
schen
nocturnos
esclava
realismo
indicados
testificar
##posi
permanecido
lag
##irot
##hin
depositar
##nido
health
conociera
masculinos
profundidades
rumanía
emigración
intentaste
##énica
aceptamos
liceo
about
agarró
rompiste
##tadt
difund
designada
recogidos
##olor
fior
metodol
horne
abrirá
marchas
aumentará
kiev
sociología
resultaba
##bí
##rencia
contribuyentes
arde
estafa
sustento
valiosos
conocerle
cortada
cayo
informada
terminología
abrí
magazine
##lett
brazale
ocultando
verdades
encendida
controladas
saldría
emitidos
erica
diviértete
liu
##tidae
anónimo
disputas
cursó
metil
corporativa
##imar
opio
##éndoles
coordina
organizadores
insatis
desaparecen
##born
oslo
crecientes
morib
kenneth
##új
cansados
retrocedan
niegan
liderado
tennessee
improbable
preescolar
chispa
toquen
encajar
elemental
naciste
contables
copro
politica
##ucto
ponerla
habernos
superan
##inge
cnudmi
brien
entregue
granadas
destruyeron
llegaban
##como
connecti
programada
creéis
teórica
ejercido
idénticas
status
desconcer
escasas
dm
mixtas
reciclaje
##ango
##avent
báj
lodo
turín
desperdicio
##ijón
hura
equipados
parten
montg
franque
deténganse
distribuyen
kins
inmobiliar
déjate
bendiciones
maletero
##cultura
chiapas
hera
##restling
dino
atrocidad
##cou
ayudes
estate
ato
poirot
vend
##tires
alboroto
pescador
detrimento
miedos
pipa
crono
perón
api
iss
##mendar
creyeron
chun
femeninos
mojado
##tábamos
ini
deberias
dixon
castigos
ns
alcalá
expediciones
caros
marítimas
copiado
picante
cadera
clemente
excluido
connecticut
checoslovaquia
mann
platón
disparan
gozo
##vet
##fast
enviará
sosteniendo
##iados
prorrogar
dispersión
incrus
afición
rodeados
##pias
hend
nixon
quemaduras
##ecil
daph
ferg
##ilandia
teóricos
##thro
estúpidas
six
klein
efectuó
griegas
meramente
sard
zeta
permiti
deter
traidores
buceo
##uka
retire
inadmisible
depu
emisoras
gastronomía
##tical
##ark
enviaste
subsidiario
##kle
polin
devolveré
rosal
incrementado
generando
pasaban
precoz
desastros
aplicó
noté
condo
sospechosa
rusas
diagrama
##enia
cruzados
hermanito
suc
raven
facilite
providencia
consagrados
drenaje
zig
sham
cosmos
veros
restringir
##0103
mae
creamos
traslada
elabora
lauri
logotipo
rendirse
##ucci
late
protestantes
##óticos
concertado
##ree
##fren
quedaste
regulaciones
vena
buzón
comiencen
detenerlos
carril
elefantes
fem
sitúan
##km
cifr
coyun
animar
##flu
generadores
beir
necesitábamos
hornos
legendar
falsificación
bién
##josa
descritos
lock
enojo
decidirá
rocío
candidaturas
##omery
daily
orgas
borgo
requerir
lesbianas
county
comparable
fertilidad
explican
empezaremos
##roco
clos
carpeta
clásicas
jerónimo
encubierto
horn
tiem
evang
##sil
anormal
motivado
rah
unops
asombrosa
contención
legendario
salchichas
agrarias
rép
##icionar
callate
molestarte
taxis
levanten
##versa
francesco
identidades
break
##idra
##cionismo
##brido
mejoró
prusia
taberna
vigo
calificó
olímpica
armstrong
tijeras
malgas
generalizado
albe
extraju
solicitan
##ked
bacter
damasco
cállense
salchicha
caucho
cachorro
desfavorecidas
sacan
definió
##rala
choi
fuma
olla
solicitada
##rara
##óticas
promuevan
joshua
explora
cofradía
finaliza
##gad
##puso
uses
camuf
##tadoras
cómodos
acompañan
vendré
imagínate
apuntan
##acán
decenios
perfum
húmedos
encontradas
gruñ
vendo
pagados
bird
rech
##empres
acogemos
soja
##alizan
eligen
burbuja
invadir
bap
compartió
nup
charlas
distorsion
alentó
espel
sirena
reptiles
confrontación
eclip
usaré
cascada
seducir
detendrá
agáchate
fructí
221
hua
oly
adherirse
espléndido
##tsk
##eche
descontento
##zuelo
debíamos
##jin
cabrera
encabezada
manuscritos
clínico
obl
arrojó
duplicación
bolivariana
avel
grises
sumado
##teniente
empaque
parrilla
urgentemente
útero
raciales
aportes
sumario
cannabis
decorado
distribuida
tallo
tomados
##rant
irrad
mátame
recesión
##beth
confec
rubén
##viesen
brisa
crus
quijote
mártires
manu
proa
enorgulle
combin
yudo
##ilhelm
destinatarios
trip
irrevers
esforzar
sz
bhu
singh
##phone
omán
ironía
bradley
separó
exclamó
milagr
descuida
luthor
filmación
tallos
aportado
##mulos
intracomun
navío
milton
chihuahua
encerrada
vagón
rasgu
menuda
aguilar
##lich
heteros
trade
hist
vendrías
cylon
confesó
arqu
llevarle
quitarte
ordenada
contextos
audiovisuales
alejada
roo
judith
atrevas
##pador
galardonado
prime
montgomery
expir
service
multinacionales
isidro
violentas
benefician
intuición
##bank
##zosa
vuelan
turkmen
cano
guardas
aprovechó
subterráneas
##vedo
mártir
proteja
contaron
celebrarán
match
paseos
antipersonal
##vé
abuel
asalari
computación
camisas
tag
moviéndose
admirador
comedi
arregló
acústica
disfrutan
produzcan
transmisor
ena
candidata
arrestados
contienda
asignó
##bloque
nicola
aceptaron
híbrido
pagamos
chilenos
prójimo
narración
requería
recogiendo
bota
guido
desafiar
benedicto
##icula
envíos
gitanos
adoración
indicaba
navales
nominación
##pd
creyente
intel
turista
magal
afecten
precisar
anochecer
caver
##zuela
cascos
marcados
ferry
maratón
aki
amenaz
cuchar
##íticas
precursores
plur
rentable
casación
mounta
##ights
datan
contral
secc
recuento
conociendo
##poli
compresión
##thern
anita
niza
guerrilla
##ids
antropología
oje
##desarrol
ininter
##ridas
daniels
maravillosos
##vidos
tanz
aprie
semen
afectando
rogar
##onda
##inato
franca
lucra
proyecta
surgimiento
atañe
sylvia
english
regulan
partidario
imponen
delos
##umb
avery
blasf
angular
ajustado
coronado
abrirse
christina
convenidos
parecidos
mrs
viña
enterrada
gustaban
pulmonar
lamin
azucar
##alias
potes
pesadas
entretanto
popularmente
kry
sentirá
mantenerla
atp
mesías
apoyada
infantes
orales
excluye
trasladarse
brooks
contemporáneas
fletcher
sospechar
condenas
sospecho
##valu
channel
experimentó
alpha
mierdas
utilizaban
ferias
mandos
pollos
##act
hepa
code
materno
prohibió
puñal
enterrados
##xx
##hip
deleg
atraído
rastreo
limite
cleo
class
djibo
salte
pimienta
ars
glorioso
fabricados
reanudación
##jeran
mejore
ng
migratorias
##och
terminaría
##dadura
narrador
ls
fomenta
ligu
catara
envases
hetero
muri
especificar
ininterrump
retiraron
agradecidos
resaltar
stand
frentes
arrendamiento
##may
##ibol
ligeros
latinoamericana
##rand
pascual
perdono
kiss
tirada
creerá
tomates
233
alfé
virre
promotor
brillar
bass
##queras
minimizar
bailarín
intestino
anticipada
padecen
latinoamericano
##denas
erección
mee
cepa
gc
fore
mudé
relata
bichos
curación
ike
volvimos
disol
suenas
salvaguardia
gesta
aplicados
embala
macizo
inaugural
java
verticales
revisé
detenerse
ampar
atascado
promocionar
mons
repo
propina
traicionar
curado
sentiste
studios
ríes
soc
faz
ler
agresiva
centran
miradas
determinará
imparcialidad
##ppa
movernos
socioeconómico
##olvid
semanales
##aboraciones
scan
clavo
oralmente
palad
djibouti
##tándolo
[...]
